<unk>	0
<s>	0
</s>	0
,	-2.51796
▁ᎠᎴ	-3.19511
.	-3.28571
▁ᎾᏍᎩ	-3.42699
;	-3.65249
▁ᎯᎠ	-4.12607
▁ᎨᏒ	-4.26105
Ꮓ	-4.2804
▁	-4.5924
▁ᎨᏒᎢ	-4.70237
▁ᎥᏝ	-4.71948
▁ᎤᏁᎳᏅᎯ	-4.88378
ᏰᏃ	-4.9385
Ꭲ	-5.01956
?	-5.25415
Ꭹ	-5.29151
▁ᎾᏍᏉ	-5.35811
▁Ꭰ	-5.37227
▁ᏥᏌ	-5.37888
▁ᏴᏫ	-5.39948
▁ᎠᏴ	-5.40019
▁ᎩᎶ	-5.40435
▁Ꮎ	-5.43423
▁Ꭴ	-5.43641
▁ᎨᏎᏍᏗ	-5.4366
▁ᏂᎨᏒᎾ	-5.49787
▁ᏥᎩ	-5.51605
-	-5.53263
▁ᎤᎬᏫᏳᎯ	-5.54193
▁ᎾᏍᎩᏯ	-5.55445
▁ᎢᏳᏍᏗ	-5.57109
▁ᎠᏎᏃ	-5.63738
Ꮙ	-5.65894
▁ᏂᎯ	-5.66556
Ꭿ	-5.67403
▁ᏱᎩ	-5.7152
▁ᎦᎶᏁᏛ	-5.71722
▁ᎾᎿ	-5.78397
ᏍᎩᏂ	-5.80526
▁ᎪᎱᏍᏗ	-5.82501
▁ᎣᏍᏛ	-5.92455
▁ᎢᏳᏃ	-5.97013
▁ᏂᎦᏛ	-5.97498
Ꭽ	-6.05351
▁ᎢᎦ	-6.06483
Ꮧ	-6.07197
▁ᎤᏪᏥ	-6.11902
▁ᎿᏉᏃ	-6.13143
▁ᏞᏍᏗ	-6.14513
▁ᎡᎶᎯ	-6.14538
▁ᎾᏍᎩᏃ	-6.15375
▁ᎿᏉ	-6.26474
▁ᎤᏣᏘ	-6.26778
▁Ꮵ	-6.26847
▁Ꮧ	-6.28036
Ꮎ	-6.28599
▁ᏂᎦᎥ	-6.30985
▁Ᏹ	-6.32527
▁ᎬᏂᎨᏒ	-6.34047
▁ᎤᏩᏒ	-6.34149
▁ᎧᏃᎮᏛ	-6.37935
▁ᎦᎸᏉᏗᏳ	-6.38826
▁ᎤᏲ	-6.3905
ᏍᏗ	-6.39444
▁Ꮷ	-6.39479
ᏗᏱ	-6.42863
▁ᎣᏏᏳ	-6.43288
▁ᏄᏍᏛ	-6.43302
Ꮫ	-6.43728
▁ᎠᏓᏅᏙ	-6.44238
▁ᎦᎸᎳᏗ	-6.46983
▁ᎡᎯ	-6.47287
▁ᎢᏴᏛ	-6.49908
▁ᎤᏟ	-6.50999
▁ᏗᎧᎿᏩᏛᏍᏗ	-6.51953
▁Ꭲ	-6.52784
▁ᎠᏂ	-6.5315
▁ᎾᎯᏳ	-6.53894
▁ᎯᎠᏃ	-6.5473
▁ᎠᏥᎸ	-6.55788
▁ᎠᏍᎦᏯ	-6.56606
▁ᏄᏪᏎᎢ	-6.56826
▁ᎪᎯ	-6.57157
Ᏹ	-6.57759
▁ᎤᏤᎵᎦ	-6.58861
▁ᎤᏤᎵ	-6.61783
Ꮟ	-6.61962
Ᏻ	-6.62477
Ꭶ	-6.63187
▁ᎦᏙ	-6.66488
▁ᎢᏳᎵᏍᏙᏗᏱ	-6.66911
▁[	-6.71804
▁ᏌᏉ	-6.72739
▁ᎾᏂᎥ	-6.72909
▁ᏰᎵ	-6.78235
▁ᎨᏎᎢ	-6.78252
▁ᎬᏩ	-6.79341
▁ᏚᏳᎪᏛ	-6.80358
▁ᏥᏌᏃ	-6.81253
▁ᎠᏁᎯ	-6.82978
▁ᏧᏓᎴᏅᏛ	-6.83983
▁ᎬᏂᏳᏉ	-6.84951
▁Ꮳ	-6.84973
▁ᎤᎬᏩᎵ	-6.86885
▁ᎢᏳ	-6.88368
▁ᎤᏂᏣᏘ	-6.89113
▁Ꭱ	-6.89541
▁ᎠᏂᏧᏏ	-6.9202
▁Ꮪ	-6.93104
▁ᎠᏎ	-6.93775
▁ᎬᏩᏍᏓᏩᏗᏙᎯ	-6.997
▁ᎨᏒᎩ	-7.00185
▁ᏈᏓ	-7.00513
]	-7.00686
▁ᏄᏪᏒᎩ	-7.01668
▁ᏝᏍᎪ	-7.05331
▁ᎤᏙᎯᏳᎯᏯ	-7.05363
▁ᏄᏪᏎᎴᎢ	-7.05844
▁Ꭶ	-7.06661
Ꮅ	-7.09226
▁ᎪᎯᏳᏗ	-7.09405
▁ᎦᏙᏃ	-7.09557
▁ᏉᎳ	-7.10272
▁ᎢᎬᏱ	-7.10308
ᏍᎪ	-7.10355
▁ᎦᎪ	-7.10549
▁ᏣᏂ	-7.10845
▁Ꮣ	-7.1142
▁ᏂᏚᏪᏎᎴᎢ	-7.12061
▁Ꮒ	-7.12514
▁ᎢᏧᎳᎭ	-7.12788
▁ᏔᎵᏁ	-7.13031
▁ᏣᎬᏫᏳᎯ	-7.13469
▁ᎬᏂᏛ	-7.14096
ᏍᎩ	-7.15172
▁ᎠᏏ	-7.19412
▁ᏄᏪᏎᎸᎩ	-7.19437
▁Ꭸ	-7.19676
▁ᎠᎨᏴ	-7.1985
▁ᏥᎷᏏᎵᎻ	-7.21499
▁ᏂᎦᏗᏳ	-7.21694
▁ᎠᎹ	-7.21933
▁Ꮻ	-7.22997
▁ᎤᏓᏙᎵᏍᏗ	-7.23067
▁ᏧᏪᏥ	-7.23168
▁ᏅᏗᎦᎵᏍᏙᏗᎭ	-7.23208
▁ᏔᎵ	-7.23827
▁ᏧᎾᏓᎴᏅᏛ	-7.24468
ᎨᏍᏗ	-7.25087
▁ᎤᏅᏒ	-7.25277
▁ᎠᏰᎵ	-7.25501
▁ᏂᏚᏪᏎᎸᎩ	-7.26206
Ꮒ	-7.27067
▁ᎡᏍᎦ	-7.27684
▁ᏥᎪ	-7.28083
ᏔᏅᎯ	-7.28345
▁ᎢᏯᏂᏛ	-7.29287
▁ᎠᏕᎸ	-7.29869
▁ᎾᏍᎩᏯᎢ	-7.30911
▁ᎤᏁᏨ	-7.31381
▁ᎢᏥ	-7.31574
▁ᎤᏂ	-7.31865
Ꮄ	-7.31868
▁Ꮔ	-7.32643
Ꮢ	-7.33143
▁ᎬᏂ	-7.33893
Ꮣ	-7.33965
▁Ᏻ	-7.37141
▁ᏂᎪᎯᎸ	-7.37901
▁ᎬᏩᎦᏘᏯ	-7.38286
▁Ꭼ	-7.38792
▁ᎢᎦᎢ	-7.38823
▁Ꭳ	-7.39855
▁ᎤᏙᎯᏳᎯ	-7.40219
Ꮕ	-7.40799
▁ᎢᎩ	-7.40946
Ꭸ	-7.42241
!	-7.42755
▁ᎢᏳᏩᏂᏌᏛ	-7.42805
▁Ꮥ	-7.45401
▁ᎾᎥ	-7.45917
▁ᎦᏚ	-7.46298
▁ᏅᎩ	-7.46305
▁Ꭿ	-7.47007
▁ᏅᏩᏓᎴ	-7.47533
▁ᎢᏓᎵᏅᏟ	-7.47573
ᎸᎯ	-7.47582
▁ᎩᎳᏉ	-7.48399
▁ᏄᎬᏫᏳᏒ	-7.49207
▁ᏂᏨᏪᏎᎭ	-7.49791
▁ᎤᏍᏗ	-7.49796
▁ᏧᎾᏁᎶᏗ	-7.49797
▁ᎬᏗ	-7.5155
▁ᏗᎧᎿᏩᏗᏙᎯ	-7.52062
▁ᏱᎨᏎᏍᏗ	-7.52155
▁ᎠᏏᏉ	-7.52956
▁ᏗᎦᎸᏫᏍᏓᏁᏗ	-7.53612
▁ᎤᎵᏂᎩᏛ	-7.53682
Ꭺ	-7.54419
▁ᎤᏇᏓᎵ	-7.54429
▁Ꮿ	-7.54781
ᎮᏍᏗ	-7.5589
▁ᎤᏚᎩ	-7.56126
▁ᏦᎢ	-7.57623
▁ᏧᎬᏩᎶᏗ	-7.57894
▁ᏅᏯ	-7.59164
▁ᎤᏕᎵᏛ	-7.59536
▁ᎢᏗᏢ	-7.59748
▁ᎩᎶᏃ	-7.60386
Ꮈ	-7.60829
▁ᎢᎨᏎᏍᏗ	-7.60954
▁ᏄᏂᏪᏒᎩ	-7.60998
▁ᎤᎾ	-7.61081
▁ᎦᏚᎲ	-7.61119
▁ᎠᏰᎸ	-7.61895
▁ᏅᏩᏙᎯᏯᏛ	-7.62072
ᏅᎯ	-7.62444
ᏍᎩᏂᏃᏅ	-7.6267
▁ᏰᎵᏉ	-7.62737
▁ᎠᏂᏍᎦᏯ	-7.62765
Ꮂ	-7.62796
▁ᎦᎵᏉᎩ	-7.63685
▁ᏧᏙᎢᏛ	-7.64088
▁ᎠᎾᏙᎴᎰᏍᎩ	-7.64677
▁ᏄᏂᏪᏎᎢ	-7.64734
ᏙᏗᏱ	-7.65677
▁ᎢᏤ	-7.65956
Ꮿ	-7.66074
▁ᎨᏎ	-7.66626
▁ᎠᏏᏴᏫ	-7.67179
Ꭼ	-7.68858
▁ᏔᎳᏚ	-7.69265
ᏉᏍᎩᏂ	-7.69652
▁ᎡᏙᏓ	-7.69669
ᎴᎢ	-7.69951
ᎸᎩ	-7.70027
▁ᎢᎬᏱᏱ	-7.70406
▁ᏅᏓᏳᏓᎴᏅᎯ	-7.70637
▁ᎠᏂᏔᎵ	-7.71322
▁ᎢᏳᏰᏃ	-7.71479
▁ᎢᏣ	-7.71652
▁ᎪᏪᎵ	-7.71681
▁ᎢᎸᎯᏳ	-7.72007
▁ᎡᏆᎭᎻ	-7.72033
▁ᎤᏁᎳᎩ	-7.72995
ᏍᎨᏍᏗ	-7.74012
▁ᎢᎦᏤᎵ	-7.74285
▁ᎠᏆ	-7.74292
ᏙᏗ	-7.7512
▁ᎤᎾᏓᏅᏘ	-7.75558
▁ᏌᏩᏂ	-7.76235
▁ᎠᏫ	-7.76783
▁ᎦᏓᎭ	-7.77166
▁ᏄᏂᎬᏫᏳᏒ	-7.77699
▁ᎤᎾᏤᎵᎦ	-7.77727
▁ᏱᎰᏩ	-7.77757
ᏍᏗᏱ	-7.78025
▁ᎤᏍᏆᏂᎪᏗ	-7.79087
▁ᎡᎳᏗ	-7.80329
▁ᎠᏍᎦᏂ	-7.80499
Ꭰ	-7.81252
▁ᏗᏂᎧᎿᏩᏗᏙᎯ	-7.8143
ᎪᎢ	-7.81522
▁ᎢᏨᏒ	-7.81705
▁ᏱᎨᏎᎢ	-7.81782
▁ᏗᎦᎳᏫᎢᏍᏗᏱ	-7.82561
▁ᎢᏏᎵ	-7.83692
▁ᎨᎵᎵ	-7.8375
▁ᎠᏲᎱᎯᏍᏗ	-7.83945
Ꮑ	-7.84621
▁ᎠᏎᏉ	-7.85425
ᏒᎩ	-7.86678
ᏍᏛ	-7.87292
▁ᏂᎯᏍᎩᏂ	-7.87388
▁Ꭵ	-7.87692
ᏅᎩ	-7.87939
▁ᎢᏯᎦᏴᎵ	-7.88515
▁ᎦᏳᎳ	-7.90156
▁ᎠᏂᏆᎵᏏ	-7.90999
▁ᎠᏙᎴᎰᏍᎩ	-7.91105
▁ᎠᏓᎨᏳᏗ	-7.91334
▁ᎺᎵ	-7.91627
ᎬᎢ	-7.91772
▁ᎤᎵᏂᎩᏗᏳ	-7.92725
▁ᏕᏫ	-7.92765
ᎠᏁᎶᎯ	-7.93405
▁ᎢᎦᏛ	-7.93797
▁ᏂᎬᏅ	-7.93979
▁ᎠᏍᎩᎾ	-7.94428
▁ᎠᏁᎲ	-7.95179
▁ᎦᏙᎯ	-7.96311
▁ᏚᏙᎥ	-7.9834
ᎨᎶᎯ	-7.9867
Ꮀ	-7.99275
▁ᎠᎦᏴᎵᎨᎢ	-8.00312
▁ᏄᏍᏗ	-8.00334
▁ᏧᏤᎵ	-8.00581
▁ᏧᏂ	-8.00727
▁ᎨᏐᎢ	-8.01507
▁ᎠᎦᏴᎵᎨ	-8.01541
▁ᎠᎾᎵᏅᏟ	-8.01578
▁ᏧᏂᏲᎱᏒᎯ	-8.01582
▁ᎠᏍᏓᏯ	-8.01601
Ꭾ	-8.01987
▁Ꮽ	-8.0217
Ꮞ	-8.02487
▁ᎦᏰᎪᎩ	-8.02533
▁ᎠᏓ	-8.03748
▁ᎣᏂ	-8.04353
Ꮨ	-8.0478
▁ᎠᏃᎯᏳᎲᏍᎩ	-8.05404
▁ᎤᏥ	-8.05612
▁ᎤᏙᏓ	-8.05955
▁ᎠᏂᎨᏴ	-8.06352
▁Ꮩ	-8.06444
▁ᎦᎸᎶᎢ	-8.0662
▁ᏚᏂ	-8.0667
▁ᎢᎦᏛᏃ	-8.06792
▁ᎢᎬᏱᏗᏢ	-8.07337
ᏎᎢ	-8.07826
▁ᎠᏂᏍᎩᎾ	-8.08334
▁ᏗᏣ	-8.08506
▁ᏥᎨᏎᎢ	-8.08698
▁ᏄᏓᎴᏒ	-8.08706
▁ᏗᏃᏪᎵᏍᎩ	-8.0931
▁ᎠᏓᏁᎸ	-8.09341
▁ᏥᎨᏒᎩ	-8.095
ᏗᎦᎳᏫᎢᏍᏗᏱ	-8.09698
▁ᎠᎩ	-8.10104
▁ᎾᏍᎩᏍᎩᏂ	-8.10264
▁ᎢᏨ	-8.11034
▁ᏆᎴᏗ	-8.11196
▁ᏒᏃᏱ	-8.11334
▁ᏅᏩᎾᏓᎴ	-8.11782
▁ᏔᏕᏲᎲᏍᎩ	-8.12371
▁ᎤᏤᎵᎪᎯ	-8.12441
▁ᏄᎵᏍᏔᏅ	-8.13176
ᏁᎢ	-8.13486
▁ᎦᎶᎯᏍᏗᏱ	-8.13572
ᎲᎢ	-8.13768
▁ᎢᏳᎾᏍᏗ	-8.13962
▁ᏄᎵᏍᏔᏁᎢ	-8.1479
▁ᏨᏒ	-8.14813
▁ᏦᎢᏁ	-8.1514
▁ᎤᎾᏤᎵ	-8.1529
▁ᎤᏂᎬᏫᏳᎯ	-8.15574
▁ᎤᎾᏓᏡᎬ	-8.16134
▁ᏕᏥ	-8.16409
▁ᎡᎶᏛ	-8.16735
▁ᎩᎬ	-8.16884
▁ᎠᎺᏉᎯ	-8.17696
▁ᏗᎦ	-8.17906
▁ᎨᏥᏅᏏᏛ	-8.18821
▁ᎤᏓᎵᎢ	-8.18841
▁ᎤᏲᎢᏳ	-8.18941
Ꮵ	-8.19381
ᏔᏅ	-8.20004
▁ᎥᎥ	-8.21047
▁ᏅᏗᎦᎵᏍᏙᏗᏍᎨᏍᏗ	-8.21235
ᎨᎢ	-8.21318
▁ᎤᏐᏅ	-8.21323
▁"	-8.2149
▁ᎢᏳᎵᏍᏙᏗ	-8.2209
ᎲᎩ	-8.22787
▁ᎡᎺᏅ	-8.23306
▁ᎣᎩ	-8.23648
▁ᎠᏁᎲᎢ	-8.25426
▁ᏥᏳᎯ	-8.2605
▁ᎯᏍᎩ	-8.26352
▁ᎤᏓ	-8.26544
ᎮᎢ	-8.26903
▁ᎤᏲᎱᏒ	-8.27684
▁Ꭷ	-8.27797
▁ᎢᏳᏍᎩᏂ	-8.27997
▁ᎢᏳᏟᎶᏛ	-8.28046
▁ᎠᏍᎪᎯᏧᏈ	-8.28074
▁ᎠᎦᏙᎥᎯᏍᏗ	-8.28131
▁ᏧᏤᎵᎦ	-8.28275
▁ᎧᏁᎬ	-8.28818
▁Ꮀ	-8.28909
▁Ꮭ	-8.29209
▁ᎢᎸᎯᏢ	-8.29259
▁ᎢᎪᎯᏛ	-8.29275
ᎰᎢ	-8.29476
▁ᎠᏲᎵ	-8.29481
▁ᎠᎦᏔᎲᎢ	-8.29692
▁Ꮶ	-8.30498
▁ᎩᎦᎨ	-8.30834
▁ᏂᎬ	-8.3113
▁ᎤᏁ	-8.3166
▁ᏧᏗᏱ	-8.31694
▁ᏅᏓᎬᏩᏓᎴᏅᏛ	-8.31752
▁ᏂᎬᎾᏛ	-8.32035
▁ᏍᎩ	-8.32252
ᏓᏁᏗ	-8.32862
▁ᎤᎾᏛᎦᏅ	-8.32965
▁ᏥᎻ	-8.33303
▁ᎠᏥ	-8.33843
▁ᎠᎩᎾ	-8.34192
▁ᏫᎾᏍᏛᎾ	-8.34293
ᏔᏅᎩ	-8.34521
▁ᎨᏐ	-8.34713
▁ᏄᏪᏎᎴ	-8.35107
▁ᏧᏂᎸᏫᏍᏓᏁᎯ	-8.35783
▁ᎾᏍᏉᏍᎩᏂ	-8.36401
▁ᎦᎸᏉᏗ	-8.36655
▁ᎢᏧᎳ	-8.36879
▁ᏱᏥᎦᏔᎭ	-8.36959
▁ᏅᏙ	-8.37269
▁ᏥᎦᏔᎭ	-8.37509
▁ᏂᏥᎥ	-8.37689
ᎸᎢ	-8.37925
ᏗᏍᎨᏍᏗ	-8.38065
▁ᎠᏇᏥ	-8.38336
▁ᏓᏂ	-8.38389
▁ᏥᏳ	-8.38434
▁ᏄᏪᏒ	-8.38638
▁ᎤᏁᎳᏅᎯᏍᎩᏂ	-8.39061
▁ᎦᏚᎲᎢ	-8.39668
▁ᎢᏅ	-8.39911
▁ᏌᏉᏉ	-8.40088
Ꮯ	-8.40435
ᎾᏍᎩ	-8.40724
▁ᎬᏔᏅᎯ	-8.41342
▁ᎤᏰᎸᏗ	-8.41769
▁ᎢᏣᎵᏍᏓᏁᏗ	-8.42288
▁ᎤᎷᏨ	-8.42382
▁ᏥᎪᏪᎳ	-8.4244
▁ᏅᏓᎦᎵᏍᏙᏗᏍᎬᎩ	-8.42472
▁ᏱᎨᏎ	-8.43011
▁ᎤᎾᏙᏓᏆᏍᎬ	-8.43194
▁ᎠᏥᎸᏉᏗ	-8.43429
▁ᎤᏛᎦᏅ	-8.43559
▁ᎭᏫᏂᏗᏢ	-8.43766
▁ᎡᏥ	-8.44263
▁ᏥᎨᏐᎢ	-8.44331
▁ᎤᏰᎸᏛ	-8.44666
▁ᎤᏛᏅ	-8.44847
▁ᏂᏚᏳᎪᏛᎾ	-8.45188
▁ᎤᏕᏁᎴᎢ	-8.45195
ᏒᎯ	-8.45304
ᎠᏗᏔᏍᏗ	-8.4549
ᏒᎢ	-8.45534
▁Ꮫ	-8.45562
ᏍᎬ	-8.46239
▁ᏖᎸᎳᏗ	-8.46633
ᎯᏳ	-8.46668
▁ᎤᏃᏕᎾ	-8.46718
▁ᎭᏢ	-8.46755
ᎬᎩ	-8.46783
▁ᏧᎾ	-8.47515
▁ᏥᎨᏐ	-8.47539
▁ᏗᎾᏓᏅᏟ	-8.48107
▁ᏥᏂᎬᏅ	-8.48125
▁ᏦᏩ	-8.48129
▁ᎤᏓᏅᏘ	-8.48146
ᏗᎭ	-8.48287
Ꮻ	-8.48423
▁ᎠᏋᏒ	-8.48547
▁ᎬᏗᏍᎬ	-8.48747
▁ᏄᎵᏍᏔᏅᎩ	-8.48818
▁ᎢᎾᎨ	-8.49668
▁ᏂᏣ	-8.50146
Ᏼ	-8.50828
ᏗᎦᏅᏌᏗ	-8.51101
▁ᎢᏨᎨᏳᎢ	-8.51459
ᎬᎾ	-8.51866
▁ᎢᏥᏍᎦᏯ	-8.52667
▁ᎾᏂᏪᏍᎨᎢ	-8.52771
▁ᎢᏯ	-8.52867
▁ᎾᎿᏂ	-8.52922
▁ᏗᏂᏲᎵ	-8.53164
▁ᎩᎶᏍᎩᏂ	-8.5321
▁ᏂᎦ	-8.53393
▁ᎩᎳ	-8.53397
▁ᎠᏂᏐᎢ	-8.53535
ᏍᎬᎢ	-8.54254
▁ᏠᎨᏏ	-8.54367
▁ᎤᎵᏍᏆᎸᏗ	-8.54691
."	-8.55222
ᏗᎾ	-8.55766
▁ᏎᏓᏂ	-8.558
▁ᏕᏣ	-8.55847
▁ᎤᏣᏔᏅᎯ	-8.55853
▁ᏣᏁᎭ	-8.55919
▁ᎢᎸᏍᎩ	-8.56466
ᏎᏍᏗ	-8.56553
▁ᎠᏰᎸᎢ	-8.57296
ᏍᎪᎢ	-8.5734
▁ᏅᏗᎦᎵᏍᏙᏗᏍᎨ	-8.57385
▁ᏗᏓᏍᏚᏗᏱ	-8.5742
▁ᎬᏃᏛ	-8.57425
▁ᏥᏄᏍᏗ	-8.57458
▁ᎢᎾᏛ	-8.57499
▁ᎤᎧᎵᏨᎯ	-8.5756
▁ᏔᎵᏁᏃ	-8.58791
▁ᎠᏆᏤᎵ	-8.58913
▁ᏂᎦᏪᎭ	-8.59139
▁ᎰᏩ	-8.59175
▁ᏧᏓᏏ	-8.59236
▁ᏴᏫᏉ	-8.5951
▁ᎠᏂᏯᏫᏍᎩ	-8.59645
▁ᎤᏲᎱᏒᎯ	-8.59747
ᏍᎬᎾ	-8.59979
▁ᎢᏗ	-8.60087
▁ᏡᎬ	-8.60355
▁ᎤᏓᏅᏙ	-8.60508
▁ᏱᎦᎵᏍᏙᏓ	-8.60723
▁ᎠᎵᏍᏓᏴᏗ	-8.60794
▁ᎤᏔᎳᏬᎯᏍᏗ	-8.60821
ᏁᎸᎯ	-8.60854
▁ᏐᎢ	-8.61532
▁Ꮴ	-8.61811
▁ᏚᎾ	-8.61977
ᏉᏃ	-8.62193
▁ᎤᏪ	-8.62434
▁ᏅᏩᏓᎴᏃ	-8.62459
▁ᏄᏍᏕᏍᏗ	-8.6252
ᎯᏍᏗᏱ	-8.62624
▁ᎬᏅ	-8.6311
▁ᎢᏤᎲ	-8.63209
▁ᏗᎬᏩ	-8.63556
▁ᎬᏂᏳᏉᏃ	-8.63636
▁ᏅᏗᎦᎵᏍᏙᏗᏍᎬ	-8.63658
▁ᎡᎭ	-8.64132
▁ᎤᏁᏤ	-8.64257
▁ᎠᏂᏏᏴᏫᎭ	-8.64278
▁ᎤᏩᏒᏉ	-8.64288
▁ᏂᎪᎯᎸᎢ	-8.64389
▁ᎤᏟᎯᏳ	-8.6467
ᏁᏗᏱ	-8.64693
▁ᏤᎭ	-8.65149
▁ᎤᏣᏘᏂ	-8.65239
▁ᎤᏠᏱ	-8.65423
▁Ꮕ	-8.65456
ᎯᎠ	-8.65693
▁ᎨᏥᎸᏉᏗ	-8.65908
▁ᎢᏳᏓᎴᏅᏛ	-8.65946
▁ᎢᏣᏛᏁᏗᏱ	-8.66018
▁ᎠᏓᏁᎯ	-8.66022
▁ᎦᎸᏉᏙᏗ	-8.66056
▁ᎤᎪᎲ	-8.6658
▁ᎤᎷᏨᎩ	-8.66627
▁ᎡᏣ	-8.66865
▁ᎢᎳᏯ	-8.67061
▁ᏂᎦᎵᏍᏗᎭ	-8.67712
▁ᎠᎰᎵ	-8.6778
▁ᎤᎩᎬ	-8.67883
▁ᏈᎵᎩ	-8.68322
▁ᏂᎦᏪᏍᎬ	-8.68416
▁ᎠᏂᏍᎦᎾ	-8.68667
▁ᎦᏍᎩᎸ	-8.69014
▁ᎦᏁᎸ	-8.69304
▁ᏗᏂᎳᏫᎩ	-8.69495
▁ᎠᎦ	-8.69517
▁ᏂᎬᏩᏪᏎᎴᎢ	-8.69522
▁ᎢᏥᎦᏔᎭ	-8.6963
▁ᎦᎷᏨᎭ	-8.69639
▁ᎣᏂᏃ	-8.69727
Ꮃ	-8.69828
▁ᎠᏍᎪᎯ	-8.70182
▁ᎠᏓᏅᏖᏍᎬ	-8.70815
ᏛᎾ	-8.70936
▁ᏔᎴᎲᎦ	-8.71344
▁ᎢᏓᏓᏅᏟ	-8.71362
▁ᏗᎨᏒ	-8.71387
▁ᎤᎵᏏᎬ	-8.71395
▁ᏧᏅᏏᏓᏍᏗ	-8.71413
▁ᏅᎬᏩᏪᏎᎸᎩ	-8.71442
▁ᏗᎵᏍᏓᏴᏗᏱ	-8.71505
▁ᎾᏍᎦᏅᎾ	-8.71525
▁ᏃᏈᏏ	-8.7153
▁ᏕᏣᏓᏅᏛᎢ	-8.71584
▁ᎦᏓ	-8.72702
▁ᏥᎨᏎ	-8.72845
▁ᏅᏓᏳᎶᏒᎯ	-8.73246
▁ᎢᎩᏙᏓ	-8.73267
▁ᏂᏚ	-8.73283
▁ᎢᎬᏁᎸᎯ	-8.73348
▁ᎠᏆᏤᎵᎦ	-8.73427
▁ᎠᏂᎦᏔᎲᎢ	-8.73699
▁ᎦᏁᎸᎢ	-8.73983
▁ᎢᏤᎲᎢ	-8.73996
▁Ᏼ	-8.74046
▁ᎤᏚᎵᏍᎬ	-8.74259
▁ᎦᏰ	-8.7427
▁ᏂᏚᏪᏎᎴ	-8.74641
▁ᎤᏙᎴᎰᏒ	-8.74737
ᎲᎾ	-8.75017
▁ᎢᏳᎾᏛᏁᏗ	-8.75051
▁ᎠᎦᏔᎲ	-8.75082
▁ᎢᏯᏛᏁᎯ	-8.75289
▁ᎦᏛᎦ	-8.75306
▁ᏗᏓᏅᏙ	-8.75316
Ꭱ	-8.7551
▁ᏙᏱᏗᏢ	-8.75754
▁ᎤᏕᏯᏙᏗ	-8.75939
ᏏᏴᏫᎭ	-8.76143
▁ᎪᏪᎵᎯ	-8.76473
▁ᎾᏂᎥᏉ	-8.76521
▁ᎦᎸᎶ	-8.76613
▁ᎢᏳᏩᏂᏐᏗᏱ	-8.77133
▁ᎤᎵᏍᏈᏗ	-8.77155
▁ᎾᏎᎵᏗ	-8.77158
▁ᎡᏆ	-8.773
▁ᏚᎾᏓᏅᏛ	-8.78593
▁ᏗᏅᏃᏛ	-8.78856
▁Ꮤ	-8.78909
▁ᎤᎵᏍᏆᏗᏍᏗ	-8.78991
▁ᎠᎾ	-8.79075
▁ᏤᎦᏈ	-8.79111
▁ᎤᎴᏅᎮ	-8.7914
▁ᎠᏥᏅᏏᏓᏍᏗ	-8.79237
▁ᎤᎦᎵᏍᏗ	-8.79324
▁ᏗᎬ	-8.79742
ᏒᎾ	-8.79798
▁ᎭᏫᏂ	-8.80457
▁ᏂᎦᎥᏉ	-8.80532
ᎸᏉᏗᏳ	-8.80778
▁ᎢᏥᏙᏓ	-8.81195
Ꮖ	-8.81389
▁ᎠᏆᏛᎦᏅᎩ	-8.8142
▁ᏂᏗ	-8.81901
▁ᏗᏥ	-8.8202
▁ᏕᎤ	-8.82451
▁ᎢᏦᎯᏳᏒ	-8.82689
▁ᎬᏙᏗ	-8.83046
▁ᎠᏛ	-8.83052
▁ᎢᏯᏛᏁᏗ	-8.83142
▁ᎢᏳᎾᎵᏍᏓᏁᏗ	-8.83142
▁Ꭺ	-8.83179
▁ᏐᏈᎵ	-8.83235
▁ᏆᏂᏆ	-8.83237
▁ᏩᏍᏛ	-8.83423
▁ᎠᏲᎩ	-8.83519
▁ᎠᏂᎪᎢ	-8.8369
▁ᎤᏛᎾ	-8.83944
ᏔᏁᎢ	-8.83963
ᎴᎯᏐᏗ	-8.84091
▁ᎤᎷᏤ	-8.84332
▁ᎠᏗᎭ	-8.84562
▁ᎤᏅ	-8.84583
▁ᏤᏥ	-8.84648
▁Ꮸ	-8.84807
▁ᎠᏄᏬ	-8.85239
▁Ᏺ	-8.85313
▁ᏄᏃᎯᏳᏒᎾ	-8.8537
▁ᎢᏳᎾᏛᎿᏕᎩ	-8.85375
▁ᏧᎸᏫᏍᏓᏁᎯ	-8.85391
▁ᎤᏠᏱᏉ	-8.85733
ᎯᏍᏗ	-8.86014
▁ᎾᏍᎩᏉ	-8.8605
▁ᎤᏬ	-8.86234
--	-8.86351
▁ᏗᏂ	-8.86573
▁ᎤᏂᏲ	-8.87011
▁ᏄᎾᏍᏛ	-8.87024
,]	-8.87401
▁ᏗᎨᎦᏁᎶᏗ	-8.87557
▁ᏗᏕᏲᏗ	-8.8757
▁ᎧᏃᎯᏰᎩ	-8.87574
ᏍᎦᏅᎢᏍᏗ	-8.87577
▁ᎠᏣᏗ	-8.87582
▁ᎢᏨᏲᏎᎭ	-8.876
▁ᎾᏍᎩᏯᏉ	-8.87656
▁ᎬᏂᏗᏳ	-8.87808
▁ᏱᏗ	-8.87819
Ꮤ	-8.87874
▁ᏱᎦ	-8.87888
▁Ꮹ	-8.88321
Ꭵ	-8.88345
Ꮲ	-8.88755
▁ᏙᏛ	-8.89091
▁ᏓᏓᎿᏩᏍᏛ	-8.89279
▁ᎣᎦ	-8.89557
ᏁᎸ	-8.89673
▁ᎠᏍᎦᎾ	-8.89685
▁ᎢᏥᏈᏱ	-8.8978
Ꮥ	-8.90145
ᎠᎴ	-8.90683
▁ᎠᏰᎳᏍᏗ	-8.9088
▁ᏗᎧᎿᏩᏛᏍᏗᏱ	-8.91097
▁ᎠᏍᏓᏱ	-8.91371
▁ᎡᎲ	-8.91635
▁ᏕᎤᏙᎥ	-8.91645
▁ᎢᏣᏤᎵ	-8.9193
▁ᏅᏲᎯ	-8.92057
▁ᎾᎩᏪᏎᎸᎩ	-8.92095
▁ᏗᎫᎪᏙᏗᏱ	-8.92127
▁ᎤᏙᎯᏳᏒ	-8.92132
ᎪᏣᎴᏛ	-8.92238
ᏍᎦ	-8.92292
▁ᎬᏗᏍᎩ	-8.92668
▁ᏚᎾᏓᏅᏛᎢ	-8.92702
▁ᏗᎨ	-8.92749
▁ᏕᎦ	-8.92921
Ꮸ	-8.93192
▁ᎤᏂᏣᏖ	-8.93536
▁ᎦᏬᏂᎯᏍᏗ	-8.94011
▁ᏩᎦ	-8.94151
ᏁᎳᏅᎯ	-8.94175
▁ᎤᏂᏬᏂᎯᏍᏗ	-8.9438
▁ᏗᎨᏫ	-8.94534
▁ᎤᎾᏄᎪᏫᏒᎯ	-8.94633
▁ᏓᎶᏂᎨ	-8.94808
ᏐᎢ	-8.94987
▁ᎢᏳᎵᏍᏓᏁᏗ	-8.9502
▁ᎤᏪᎿᎢ	-8.95696
▁ᎪᏪᎸ	-8.95904
ᏗᏳ	-8.96039
▁ᏉᎳᏃ	-8.96415
▁ᏧᏂᎾᏫ	-8.96608
▁ᎢᏗᎦᏔᎭ	-8.96783
▁ᏗᎹᏗ	-8.96791
▁ᏂᏥᏪᎭ	-8.96852
Ꮩ	-8.9698
▁ᎪᏪᎸᎢ	-8.97489
▁Ꭽ	-8.97657
Ꮴ	-8.97856
▁ᏗᏥᎾᏫ	-8.99053
▁ᎥᏓᎵ	-8.99196
▁ᎨᏥᏅᏏᏓᏍᏗ	-8.99211
▁ᏗᏰᎸᎯ	-8.99224
▁ᏅᏓᏳᎵᏍᏙᏔᏅᎩ	-8.99225
▁ᏗᏘᏂᏙᎯ	-8.99238
▁ᏓᎦᎷᏥ	-8.99239
▁ᏂᎦᏪᏍᎨᎢ	-8.99299
▁ᎤᏂᏍᏆᏂᎪᏎᎢ	-8.9934
▁ᎨᏣ	-8.99637
Ꮆ	-8.99697
▁ᎤᏍᎦᏅᏨ	-8.99968
▁ᎠᎲ	-9.0001
ᎢᏳᏍᏗ	-9.00055
▁ᏚᎴᏅ	-9.00516
Ꮳ	-9.00527
▁ᎤᏂᎪᎲ	-9.00622
Ꮜ	-9.00728
▁Ꮑ	-9.00729
▁ᎠᏂᎦᏔᎲ	-9.00876
▁ᏓᏆᏙᎥ	-9.01079
▁ᎮᎾ	-9.01454
▁ᏨᏗᏓᎴᎲᏍᎦ	-9.01686
▁ᎤᏬᏰᏂ	-9.01687
▁ᎤᎵᎮᎵᏍᏗ	-9.01745
▁ᎤᏅᏏᏓᏍᏗ	-9.01974
▁ᎠᎵᏍᏕᎸᏙᏗ	-9.02025
▁ᎠᎴᏬ	-9.02178
▁ᎤᏁᎬ	-9.02357
▁ᎣᏂᏱ	-9.02495
ᎧᏂ	-9.02596
ᎤᏁᎳᏅᎯ	-9.02933
▁ᎤᎾᏓ	-9.03347
▁Ꮜ	-9.03583
▁ᏥᏚ	-9.03774
▁ᏅᏓ	-9.03911
▁ᏱᏓ	-9.04058
ᏔᏁ	-9.04192
▁ᎢᏌᏯ	-9.04238
▁ᎡᏈᏌ	-9.04247
▁ᎢᏳᎾᎵᏍᏙᏗᏱ	-9.04251
▁ᏄᎬᏫᏳᏌᏕᎩ	-9.04267
▁ᏐᎳ	-9.04274
ᎨᎳᏍᏗᏱ	-9.04276
▁ᎤᏩᏒᎯᏳ	-9.04648
▁Ꮨ	-9.04796
▁ᎾᏃ	-9.0505
▁ᎠᏓᏅᏓᏗᏍᏗ	-9.05241
ᏂᏗᏳ	-9.05399
▁ᎤᏂᎷᏤ	-9.05527
▁ᎠᏏᏴᏫᏃ	-9.06008
▁ᎢᏳᏓᎴ	-9.06139
▁ᎠᏥᎸᏱ	-9.0631
▁ᎠᏆᏓᏅᏙ	-9.06396
▁ᏄᎵᏍᏔᏂᏙᎸ	-9.06512
▁ᎬᏩᏚᏫᏛ	-9.06872
▁ᎹᏏᏙᏂ	-9.06878
▁ᎤᏣᎴᏍᏗ	-9.06882
▁ᏂᏗᎥ	-9.0689
▁ᏄᏂᎬᏫᏳᏌᏕᎩ	-9.06891
ᎦᏅᎯᏛ	-9.06933
▁ᏅᏛᎩᏅᏏᏛ	-9.06943
▁ᎤᏃᎴ	-9.07005
▁ᎤᎩᏨᏛ	-9.07008
▁ᎠᏍᎪᎵ	-9.07049
ᏅᏏᏛ	-9.0709
▁ᎢᏨᏗᏍᎨᏍᏗ	-9.07099
▁ᏣᏁᎳᏅᎯ	-9.071
ᏚᏓᎴᏍᏙᏗ	-9.07149
▁ᎤᎷᎯᏍᏗᏱ	-9.0718
▁ᏂᏣᏛᏁᎸ	-9.07192
ᏁᏗ	-9.07424
▁ᎤᎵ	-9.07441
▁ᎢᎦᏤᎵᎦ	-9.07555
▁Ꮡ	-9.08025
ᏕᏍᏗ	-9.08037
ᏛᎯ	-9.08054
▁ᎢᎬ	-9.08258
▁ᎤᎾᏓᏡᎬᎢ	-9.08335
ᏥᏌ	-9.09408
▁ᏂᎯᏰᏃ	-9.0942
ᏗᏍᎩ	-9.09493
▁ᎢᏣᎵᏍᏙᏗᏱ	-9.09601
▁ᎠᎦᏘᏏᏗᏢ	-9.09636
▁ᎤᎾᏁᎳᎩ	-9.09695
▁ᎪᎯᏳᎲᏍᎩ	-9.09727
▁ᏗᎪᏢᏔᏅᎯ	-9.09765
▁ᎪᎯᏗᏳ	-9.09767
ᏍᏓ	-9.09901
▁ᏚᎸᏫᏍᏓᏁᎲᎢ	-9.10027
▁ᎠᎧᎵᎢ	-9.10043
ᏰᎵ	-9.10343
ᏍᎨᎢ	-9.10536
▁ᎢᎬᏩ	-9.10658
▁ᎤᏪᏘ	-9.11013
ᎦᏘ	-9.11237
▁ᎨᏥ	-9.11338
ᎢᏍᏗᏱ	-9.11376
▁ᎤᏂᏍᎦᏅᏨ	-9.1142
▁ᏙᏓ	-9.11572
ᏍᏙᏗ	-9.11957
▁ᏄᎵᏍᏔᏁ	-9.12145
▁ᏣᏤᎵ	-9.12213
▁ᎣᏣᎵᏅᏟ	-9.12353
▁ᏅᎦᏍᎪᎯ	-9.12353
▁ᎠᎩᎵᏯ	-9.12358
▁ᎤᏂᏃᏕᎾ	-9.12363
▁ᎬᏩᏟᏍᏗ	-9.12365
▁ᏱᏅᏗᎦᎵᏍᏙᏗᎭ	-9.12395
▁ᏱᏄᏍᏗ	-9.12404
▁ᎡᏏᎩ	-9.12451
▁ᎤᏚᎸᏗ	-9.12501
ᏕᎵ	-9.12589
▁ᎢᏯᏍᏗ	-9.12759
▁ᎤᏁᏨᎩ	-9.13061
▁ᏓᎦ	-9.13974
ᏁᎯ	-9.14073
ᎴᏍᏗ	-9.14278
▁ᏓᎾ	-9.14402
▁ᏗᎩᎦᏴᎵᎨ	-9.14625
▁ᎠᏤᎵᏍᏛ	-9.14627
▁ᎠᏋ	-9.1466
▁ᏅᏗᎦᎵᏍᏙᏗᏍᎪ	-9.14717
▁ᎢᎦᎦᏛ	-9.14823
▁ᏞᎦ	-9.1483
▁ᎤᎦᏔ	-9.14877
▁ᎯᎠᏍᎩᏂ	-9.15183
▁ᏗᏟᎶᏍᏔᏅᎯ	-9.15223
▁ᎤᎾᏓᏤᎵᏛ	-9.1523
ᎦᎵ	-9.1524
▁ᎤᏚᎵᏍᎨᏍᏗ	-9.15351
▁ᏗᎦᏙᎵ	-9.15427
▁ᏱᎨᏐᎢ	-9.15444
▁ᎪᎯᏍᎩᏂ	-9.15445
▁ᎪᏪᎳ	-9.15459
ᎸᎭ	-9.16095
▁ᏱᏥ	-9.1648
▁ᎤᎾᏙᎴᎰᏒ	-9.16546
▁ᎧᏁᎬᎢ	-9.16574
▁ᎢᏳᎢ	-9.1662
ᏍᎬᎩ	-9.17066
ᏨᎯ	-9.1728
▁ᎤᏅᏒᏉ	-9.17313
▁ᏥᎨᏒ	-9.17427
▁ᏗᏓᎴᏂᏍᎬ	-9.17599
▁ᎨᎳ	-9.1784
▁ᏗᏆᏤᎵ	-9.17989
▁ᏧᏂᏢᎩ	-9.17998
▁ᎠᏥᎦᏘᏗᏍᏗ	-9.18015
ᎠᏂᎳᏍᏓᎸ	-9.18136
▁ᏑᎾᏓᏡᎩ	-9.18149
▁ᏙᎴᏛ	-9.18149
▁ᎢᏣᎵᏅᏟ	-9.18158
▁ᎤᎷᎯᏍᏗ	-9.18174
▁ᎤᎾᏤᎵᎪᎯ	-9.18192
▁ᎢᎦᏪᏛ	-9.18203
▁ᎦᏩᏒᎩ	-9.18211
▁ᎥᏞᏍᏗ	-9.18222
▁ᎤᎵᏏᎩ	-9.18375
▁ᎢᎦᎦᏘ	-9.18422
▁ᎠᏃ	-9.18495
▁ᏓᏁᏩᏗᏒᎢ	-9.18593
ᏁᎭ	-9.18822
▁ᏗᏂᏏᏗ	-9.19163
▁ᎬᎩ	-9.19206
▁ᏗᎨᏒᎢ	-9.19586
▁ᏣᏤᎵᎦ	-9.2026
ᎵᏍᏆᏗᏍᎩ	-9.2035
▁ᎧᎳᏩᏗᏒ	-9.20575
▁ᏂᏚᎩᏨᏂᏒ	-9.20576
▁ᏱᏗᏥ	-9.20637
▁ᎣᏥ	-9.20809
▁ᎢᏤᏯᏔᎮᏍᏗ	-9.21195
▁ᏧᎳᏏᏕᏂ	-9.21197
▁ᏗᏄᏬ	-9.2122
▁ᎠᎫᏴᏙᏗ	-9.2122
▁ᎢᏳᏩᏁᏗᏱ	-9.21225
▁ᏚᏳᎪᏛᎢ	-9.21262
▁ᏧᏁᏥ	-9.21315
▁ᏭᎶᏎᎢ	-9.21334
▁ᎢᏣᏤᎵᎦ	-9.21429
▁ᏏᏌ	-9.2156
ᏤᎢ	-9.22373
▁ᏣᏥ	-9.22663
ᏛᎩ	-9.23517
▁Ꮉ	-9.23757
▁ᎤᎵᏁᏨ	-9.23844
▁ᎠᏠᏁᏗ	-9.243
▁ᏧᏒᎯᏛ	-9.24301
▁ᏗᏂᎦᏙᎵ	-9.24303
▁ᏄᏓᎵᏓᏍᏛᎾ	-9.24307
▁ᎢᏯᎾᏛᏁᎯ	-9.2431
▁ᏧᎾᏛᏐᏅᎯ	-9.24315
▁ᎤᏂᏴᏍᏗᏱ	-9.24333
▁ᎦᎨ	-9.24347
▁ᎢᎳᎪ	-9.24348
▁ᎡᏏᏱ	-9.24408
▁ᏓᎿᏩ	-9.24415
▁ᏅᏓᏳ	-9.24482
▁ᏧᏂᎸᏫᏍᏓᏁᏗᏱ	-9.24508
▁ᎾᏛᏁᎮᏍᏗ	-9.24629
▁ᏱᏚ	-9.24686
▁ᎪᏢᏔᏅᎯ	-9.24898
▁ᏅᏛ	-9.25097
▁ᎢᎬᏒ	-9.25405
▁ᎤᏩ	-9.25467
▁ᎦᎶ	-9.25583
▁ᎤᏂᏁᏨ	-9.25653
▁ᏥᎨᏳᎢ	-9.25738
ᏁᎶᏗ	-9.25744
▁ᎠᎩᎵᏲᎢᏍᏗ	-9.2579
▁ᏏᏓᏁᎸ	-9.25956
▁ᏄᎵᏍᏔᏅᎢ	-9.26091
▁ᎤᏂᏣᏔ	-9.26112
ᎳᏅᎯ	-9.26431
ᏰᏂ	-9.26494
▁ᏕᏥᎸᏫᏍᏓᏁᎲ	-9.26941
▁ᎠᏗ	-9.27235
▁ᎡᎳᏪ	-9.27235
▁ᏕᏣᏓ	-9.27429
▁ᏌᎺᎵᏱ	-9.2754
▁ᎢᏣᏓᏙᎵᏍᏗᏍᎨᏍᏗ	-9.27548
▁ᎤᎾᏠᎾᏍᏗ	-9.27635
▁ᎤᏁᏢᏔᏅᏛ	-9.27756
▁ᏓᏳ	-9.2778
▁ᎤᏍᏆᎸᎲ	-9.27792
▁ᎤᏓᏅᏘᏳ	-9.27873
▁ᎠᏧᏏ	-9.28081
▁ᎤᏂᏣᏛᎩ	-9.28085
▁ᎤᏓᏅᏖ	-9.28341
ᎨᏳᏎᏍᏗ	-9.28527
Ᏺ	-9.29072
▁ᏄᏛᏁᎸ	-9.29385
▁ᎤᏁᎳᏅᎯᏱ	-9.29391
▁ᎡᎲᎢ	-9.29411
ᏗᏍᎪᎢ	-9.29471
▁ᎥᎩ	-9.30201
▁ᎢᎬᏁᏗ	-9.30367
▁ᎤᏕᎰᎯᏍᏗ	-9.30513
▁ᎡᎮ	-9.30519
ᏁᎴ	-9.30702
▁ᏗᎫᎪᏙᏗ	-9.30768
▁ᎠᏖᎵᏙ	-9.30855
▁ᎫᎫ	-9.30857
▁ᎠᎱᏍᏕᏍᏗ	-9.30865
▁ᎢᎩᏍᏕᎵᏍᎩ	-9.30867
▁ᎢᏯᏅᏙ	-9.30871
▁ᎤᏰᎯ	-9.30874
▁ᎦᏛᎬ	-9.30898
▁ᎤᏁᎫᏥᏛ	-9.30926
▁ᎠᎵᏍᏚᎶ	-9.30976
▁ᎾᏂᏪᏍᎬᎩ	-9.3104
▁ᎠᎵᏍᎪᎸᏔᏅᎯ	-9.31084
▁ᏧᏓ	-9.3116
▁ᏙᎯᏱ	-9.31204
▁ᎤᏂᏍᎦᏅᏨᎯ	-9.31341
▁ᏧᎾᏍᏗ	-9.31463
▁ᎣᏏ	-9.31597
▁ᎤᏍᏆᏂᎪᏗᏳ	-9.31785
ᏗᏍᎬ	-9.31872
▁ᎢᎾᎨᎢ	-9.32171
ᎦᏔᎲᎾ	-9.32544
▁ᎢᏤᎯ	-9.32757
Ꮠ	-9.3303
▁ᎤᏛᏛᏁ	-9.33055
ᏅᎢ	-9.33264
▁ᎦᎸᎳᏗᏳ	-9.333
ᏛᎢ	-9.3363
▁ᏤᏣ	-9.33926
ᎡᎢ	-9.34012
▁ᏗᏂᎨᏫ	-9.34307
▁ᏂᎬᏩᏪᏎᎸᎩ	-9.34319
▁ᏗᏓᏘᏂᏙᎯ	-9.34338
Ꭳ	-9.34354
▁ᎨᏆᏂ	-9.34363
▁ᏧᏕᏘᏴᏛ	-9.34382
▁ᎤᏁᏨᎯ	-9.34402
▁ᎠᏂᎩᏏᏙᎯ	-9.34487
▁ᏓᏯᎢ	-9.34521
▁ᎤᏂᎯᏍᏗᏱ	-9.34555
▁ᏚᎸᏫᏍᏓᏁᎲ	-9.3458
▁ᏥᏁᎬᎢ	-9.34644
▁ᎠᏥᎸᎠᏁᎶᎯ	-9.34871
ᏍᏙᏗᏱ	-9.3504
▁ᏂᏥ	-9.35129
▁ᎬᏩᏂ	-9.35396
▁ᏑᏓᎴᎩ	-9.35555
▁Ꭻ	-9.35671
▁ᏰᎭ	-9.35687
▁ᎠᎾᏓᏅᏖᏍᎬ	-9.35748
▁ᎡᏗ	-9.35793
▁ᎬᏗᏍᎬᎢ	-9.3595
▁ᏥᏕ	-9.36064
▁ᎠᏁᎭ	-9.36373
▁ᏱᏨ	-9.36785
ᏕᎩ	-9.36834
▁ᎤᎶᏐᏅ	-9.37017
▁ᎠᏅᏗᏍᎬ	-9.37269
▁ᏗᏣᏓᏅᏙ	-9.3728
▁ᏚᏂᎸᏫᏍᏓᏁᎲ	-9.373
▁ᎤᎶᎩᎸ	-9.37344
▁ᏧᎾᏤᎵ	-9.37763
▁ᏄᏜᏏᏛᏒᎾ	-9.37879
▁ᎡᏉᎯᏳ	-9.37882
▁ᏍᎩᏃᎲᏏ	-9.37893
▁ᏗᎨᏥᎤᏍᏕᏎᎸᎯ	-9.37894
▁ᎢᎬᏩᎵᏍᏙᏗ	-9.37896
▁ᏦᏓᏂ	-9.37905
▁ᎤᏂᎩᎬ	-9.37913
▁ᏗᏤᏥ	-9.37926
▁ᎢᎬᏁᎯ	-9.37948
▁ᎤᏬᏢᏅᎯ	-9.37966
▁ᎦᎾᏰᎯᏍᏗ	-9.37977
▁ᏥᏄᏪᏎᎢ	-9.38034
▁ᎤᎾᏰᎯᏍᏗ	-9.3804
▁ᎢᏥᏯᏫᏍᎨᏍᏗ	-9.38072
▁ᎤᏛᏁᎢ	-9.3809
ᏛᏳᎨᏗ	-9.38095
▁ᎠᏁᏙᎯ	-9.38104
▁ᏗᎦᎸᏉᏗ	-9.38626
ᎵᏰᎢᎶᎯᏍᏗ	-9.38673
▁ᏅᏓᏳᎾᎵᏍᎪᎸᏔ	-9.38803
▁ᏦᎾ	-9.38919
▁ᎦᏍᎩᎸᎢ	-9.39048
▁ᏤᏈ	-9.39059
▁ᏂᎦᏪᏍᎬᎢ	-9.39063
▁ᎧᏃᎮ	-9.39159
▁ᎤᎾᎳᏅᎯ	-9.39173
▁ᏂᏥᎥᎢ	-9.39451
ᏍᎨ	-9.39453
ᏕᎢ	-9.39524
▁ᎤᏲᎱᏒᎢ	-9.39664
▁ᎠᏓᏁᏗ	-9.39844
▁ᎤᏬᎵ	-9.40018
Ꮝ	-9.40135
▁ᎪᎵ	-9.40184
Ꮋ	-9.40317
Ꮹ	-9.40464
▁ᎦᏬᏂᏍᎬ	-9.40483
ᎦᎶᏁᏛ	-9.40653
ᏩᏛᎮ	-9.40795
▁ᎠᏋᏒᏉ	-9.40817
▁ᏚᎳᏍᎬ	-9.40954
▁ᏕᏣᏙᎥ	-9.40988
▁ᏚᏁᏤᎴ	-9.41542
▁ᏣᏔᎦ	-9.41583
▁ᎠᎾᏓᏅᏟ	-9.4159
▁ᎢᏤᎳᏗᏙᎮᏍᏗ	-9.41593
▁ᏥᏂᏣᏛᏅ	-9.41601
ᏍᏕᎸᏗ	-9.41704
▁ᏧᏪ	-9.41761
▁ᎤᏅᏏᏙᎯ	-9.41868
▁ᏅᏧᎵᏍᏙᏔᏅ	-9.41882
ᎶᎯ	-9.4218
▁ᎤᏪᎵᎯᏍᏗ	-9.42323
ᏛᏗ	-9.42486
▁ᏗᏣᏓ	-9.42869
▁ᎬᏅᎢ	-9.42932
▁ᏱᏣ	-9.43055
▁ᎤᏇᏓᎸ	-9.43088
▁ᏣᏂᏃ	-9.43588
ᏉᏰᏃ	-9.43663
▁ᎦᏰᏥ	-9.44101
ᏐᎢᏃ	-9.44542
▁ᏚᎾᏓᏡᏩᏗᏒ	-9.44846
▁ᏓᏁᏩᏗᏒ	-9.44851
▁ᏅᏗᎦᎵᏍᏙᏗ	-9.44959
ᏅᎾ	-9.45022
▁ᎣᏓᎸ	-9.45055
▁ᏗᏣᏤᎵ	-9.45333
▁ᏌᏱᎳ	-9.45409
▁ᏌᏙᏂ	-9.4541
▁ᏞᎩᏳ	-9.45424
▁ᏇᏍᏓ	-9.45425
▁ᎤᎨᏳᎯ	-9.45427
▁ᏧᏃᏰᏂ	-9.45431
▁ᎦᎵᏦᏕ	-9.45433
▁ᏗᏂᎰᎵ	-9.4545
▁ᎠᏗᏒᏍᏗ	-9.45462
▁ᎤᎾᏫᏱ	-9.45483
▁ᏗᏓᏬᏍᎩ	-9.45484
▁ᎤᏁᎷᏅᎩ	-9.45487
▁ᎡᏂᏗ	-9.455
▁ᏗᏥᏲᎵ	-9.45502
▁ᎤᏲᎱᎯᏍᏗᏱ	-9.45539
▁ᎤᎾᎵᏍᏕᎸᏙᏗ	-9.45542
ᏠᎾᏍᏗ	-9.45558
▁ᎤᏪᎷᏅᎩ	-9.45558
▁ᏗᏂᏰᎸ	-9.45576
ᎵᏍᏕᎸᏙᏗ	-9.45581
▁ᎠᏆᏚᎵᎭ	-9.45634
▁ᏇᎵ	-9.45664
▁ᎠᏨᏍᏙᏗ	-9.45704
▁ᎠᏥᎾᏝᎢ	-9.45716
▁ᎢᏳᏅᏁᏗᏱ	-9.45733
▁ᎧᏃᎮᏍᎩ	-9.45807
▁ᎤᏂᎷᏨᎩ	-9.45844
▁ᏚᏂᎸᏫᏍᏓᏁᎸᎢ	-9.45892
▁ᎠᎩᏏ	-9.46626
ᏒᎭ	-9.46661
ᏌᏛ	-9.46764
▁ᏂᎦᏪᏍᎬᎩ	-9.4686
▁ᎤᏰᎸᏛᎢ	-9.47013
▁ᏗᏓ	-9.47091
ᎥᎢ	-9.47179
ᏍᎦᏅᏨᎯ	-9.47472
▁ᎤᏁᏤᎴ	-9.47513
▁ᏗᎦᏚᎲ	-9.47578
ᎦᏔᎭ	-9.47663
ᎨᏒ	-9.47801
▁ᎬᏗᎭ	-9.47815
ᏛᏁᏗ	-9.47914
;]	-9.48067
ᎲᏏ	-9.48463
ᏍᎦᏉ	-9.48507
▁ᎠᏂᏬᏂᏍᎬ	-9.48839
▁ᎤᎧᏛ	-9.48863
ᏍᏔᏅᎯ	-9.49084
▁ᎠᏂᎦᏔᎯ	-9.4915
ᏑᎶᏨᎯ	-9.49405
▁ᏧᏓᎿᏩᏛ	-9.49426
▁ᎢᏨᏔᏲᏎᎭ	-9.4944
▁ᎤᎾᎴᏅᎮ	-9.49441
▁ᎯᏍᎦᏯ	-9.49445
▁ᎠᏓᏰᏍᎩ	-9.4946
▁ᎣᏥᎦᏔᎭ	-9.49481
▁ᎠᏆᏁᎳᏅᎯ	-9.49531
▁ᏥᏂᎦᏪᎭ	-9.49557
▁ᎤᏂᎩᏒᎩ	-9.49672
▁ᎬᏩᎷᏤᎸᎩ	-9.49782
▁ᎤᏓᏅᏒᎩ	-9.49853
▁ᎾᏂᎥᎢ	-9.50243
ᏁᎲᎾ	-9.50257
▁ᎹᏗ	-9.50263
▁ᎾᎦᎥ	-9.50299
▁ᎠᏓᏅᏙᏍᎩᏂ	-9.50305
ᎵᏍᏙᏗ	-9.50378
ᏌᏂ	-9.50408
▁ᏱᎦᎩ	-9.50452
ᎡᎯ	-9.50617
▁ᎬᏂᎨᏒᎢᏳ	-9.50921
▁Ᏸ	-9.51025
▁ᏦᎯᏳᏒ	-9.51369
▁ᏧᎾᎴᎯᏐ	-9.51702
▁ᎠᏓᏁᎸᎢ	-9.51823
▁ᏄᏪᏎ	-9.51837
▁ᏚᎸᏫᏍᏓᏁᎸ	-9.52522
Ꮪ	-9.52761
▁ᎾᎾᏛᏁᎲ	-9.52864
▁ᏙᎯ	-9.52955
▁ᏄᏍᏛᎢ	-9.53207
ᏙᎯ	-9.5339
▁ᏥᏥ	-9.53467
▁ᎤᏕᏅ	-9.53543
▁ᎤᎾᎵᏍᏓᏴᏗ	-9.5355
▁ᏗᏑᏢᏛ	-9.53575
▁ᏫᏄᏒᎸ	-9.5358
▁ᎠᎪᏄ	-9.53583
▁ᎢᏳᏩᎫᏗ	-9.53591
▁ᏅᏓᎦᎵᏍᏔᏂ	-9.53594
▁ᏅᏓᏳᏂᎶᏒᎯ	-9.53595
▁ᏧᏃᏑᎶᏨᎯ	-9.53599
▁ᎦᎫᏍᏛᏗ	-9.53615
▁ᎥᎩᏅᏏᏛ	-9.53628
▁ᎢᏣᏠᎾᏍᏗ	-9.53643
▁ᏂᏣᏛᏁᎮᏍᏗ	-9.53653
▁ᎠᏥᎤᏍᏕᏎᎸᎯ	-9.53656
▁ᏓᏓᏏ	-9.5366
▁ᎢᏕᎯ	-9.53662
▁ᎦᏃᏍᎩᏍᎩ	-9.53662
▁ᎬᎵᏍᏆᏗᏍᎩ	-9.53697
▁ᎠᎵᎮᎵᏍᏗ	-9.53714
▁ᏗᏆᏤᎵᎦ	-9.53822
▁ᏫᏚ	-9.53833
▁ᎠᎩᎪᎲᎩ	-9.53875
▁ᏭᎶᏒᎩ	-9.53993
▁ᎤᎾᏝᎢ	-9.54022
ᏛᎿᏕᎩ	-9.54059
▁ᎪᏢᏅᎯ	-9.54095
▁ᎣᎬᏒ	-9.54236
▁ᎤᏁᏨᎢ	-9.5439
▁ᎠᏥᎸᎨᎶᎯ	-9.54446
▁ᏤᎲᎩ	-9.54446
ᎥᎯᏍᏗ	-9.54484
▁ᎤᎪᎲᎯ	-9.54611
▁ᎦᏙᎬ	-9.5463
ᏪᏨᎯ	-9.5473
▁ᎢᏣᏓᏅᏘ	-9.54947
ᎸᏉᏙᏗ	-9.5499
ᏨᎩ	-9.55034
▁ᎦᏙᎨ	-9.55155
ᎩᏍᎨᏍᏗ	-9.55894
▁ᎤᏤ	-9.55975
▁ᎢᏧᏩᏁ	-9.5603
ᎢᏳ	-9.56068
.]	-9.56093
▁ᎠᎬ	-9.56384
▁ᎾᏂ	-9.56915
▁ᏱᎨ	-9.5697
▁ᎠᎵᏥᏙᎲᏍᎨ	-9.57067
▁Ꮗ	-9.57542
ᎢᏍᏗ	-9.57918
▁ᎳᏏᎳ	-9.57924
▁ᏏᏌᎵᏱ	-9.57925
▁ᎢᏳᏕᏘᏴᏛ	-9.57941
▁ᎬᏩᏍᏓᏩᏛᏎᎢ	-9.57944
▁ᎢᏳᏛᏁᎸᎯ	-9.57944
ᏂᎨ	-9.57952
▁ᎡᏙᎭ	-9.58038
▁ᏥᏍᏆ	-9.5813
▁ᎦᏁᎳ	-9.58285
▁ᎤᏩᎨᏫ	-9.58409
▁ᎤᏄᎪᏨᎩ	-9.58449
▁ᎤᏓᏅᏛᎢ	-9.58652
▁ᎠᏤᎵᏍᏛᎢ	-9.58827
▁ᎦᏥᏯ	-9.58871
▁ᏚᏳᎪᏗ	-9.58912
▁ᎠᏰᎲ	-9.58971
ᎨᏳᎯᏳ	-9.59235
▁Ꮖ	-9.59257
ᎡᏗᏱ	-9.59389
▁ᎢᏣᏓ	-9.59508
▁ᎤᎾᏛᎦᏅᎯ	-9.59513
▁ᎤᏴᏍᏗ	-9.59607
▁ᎤᏄᎪᏨ	-9.59662
▁ᏗᏨ	-9.59696
▁ᎢᏤᎾ	-9.59848
ᎨᏳᏗ	-9.59884
▁ᏂᎬᎾᏛᎢ	-9.59981
▁ᏂᏕ	-9.60046
▁ᎵᏏ	-9.60148
▁ᎤᏬᎸ	-9.60276
ᏃᎲᏏ	-9.60883
ᎤᏅ	-9.61006
▁ᏗᏨᏂᏗ	-9.61118
▁ᏯᏂ	-9.61153
ᏄᎮᏛ	-9.61352
▁ᏧᎾᏓ	-9.61489
ᏏᏱ	-9.61856
▁ᏓᏠᎯᏍᏛ	-9.61897
▁ᏗᏤᎲ	-9.61897
▁ᏨᏍᎩᏃ	-9.61903
▁ᏫᏚᏯᏅᎲ	-9.61934
▁ᏕᏣᏓᏅᏛ	-9.61948
▁ᏓᏕᏲᎲᏍᎬ	-9.6196
▁ᏭᎷᏨ	-9.61974
▁ᏑᏓᎵ	-9.62014
▁ᎠᏂᏁᎬ	-9.62028
▁ᎦᏁ	-9.62082
▁ᏍᎩᏯ	-9.6215
ᎵᏳ	-9.62162
▁ᎠᏂᏫᏅ	-9.62231
▁ᎠᏆᏚᎵᏍᎬ	-9.6245
▁ᏕᎨᎦᏨᏍᏗᏍᎬ	-9.62469
▁ᎡᎩᎵᏈ	-9.6247
▁ᏱᏅᎦᎵᏍᏓ	-9.6247
▁ᎢᏳᏩᏂᏌᏅᎯ	-9.6247
▁ᏯᏃᎩᏳ	-9.62471
▁ᏕᎨᏥᏰᎸᏔᏅᎩ	-9.62473
▁ᏣᎦᏟᎶᏍᏔᏅᎯ	-9.62473
▁ᎠᏂᏌᏚᏏ	-9.62477
▁ᎢᏣᏅᏖᏍᏗ	-9.62486
▁ᎾᏂᎦᏔᎲᎾ	-9.62488
▁ᏧᎾᏓᏅᏙ	-9.62496
▁ᎨᎦᏑᏰᏛ	-9.62497
▁ᎠᏓᏍᏓᏩᏗᏙᎯ	-9.625
▁ᏱᏂᎦᎵᏍᏓ	-9.62505
▁ᏧᏂᎳᏫᎢᏍᏗᏱ	-9.62511
▁ᏄᏠᎾᏍᏛᎾ	-9.62518
▁ᎢᏥᎦᏔᎮᏍᏗ	-9.62532
▁ᎠᎩᎬᏫᏳᎯ	-9.6254
▁ᎤᏂᏇᏓᎸᎢ	-9.62568
▁ᏄᎾᏓᎴᏒ	-9.62586
▁ᏧᎸᏫᏍᏓᏁᏗᏱ	-9.62597
▁ᎠᏂᏙᎾᎢ	-9.62597
▁ᎢᏳᏛᏁᏗᏱ	-9.62614
▁ᎠᎪᏙᏗ	-9.62623
▁ᎠᏏᎾᏌᏂ	-9.62646
▁ᎤᏂᏃᎮᎸᎯ	-9.62665
▁ᏣᏙᏓ	-9.62669
▁ᎠᎦᏘᏏ	-9.62693
ᎦᏛ	-9.627
▁ᏫᎦ	-9.6273
▁ᎠᎬᏗᏍᎬᎢ	-9.62736
▁ᏆᎳᏆ	-9.62765
▁ᏅᏗ	-9.628
▁ᎠᏍᎪᎯᏁ	-9.62807
▁ᎢᏳᏪ	-9.62815
▁ᎤᏅᏟ	-9.62882
▁ᎢᎩᏁᎸᎯ	-9.62883
▁ᎠᎩᏅᏏᏛ	-9.62921
▁ᏕᎨᏌᏗᏒᎢ	-9.63001
ᏗᏢ	-9.63014
▁ᎠᏁᎳ	-9.63067
▁ᏚᎾᏓᏡᏩᏗᏒᎢ	-9.63165
▁ᏤᎮᎢ	-9.63284
ᏓᎴᏅᏛ	-9.63298
▁ᏂᏓ	-9.63321
▁ᎤᎬᏫᏳᎭ	-9.63347
ᎬᏫᏳᎯ	-9.63357
▁ᎤᏛᎦᏁ	-9.63621
▁ᎠᎦᏔᎭ	-9.63697
▁ᏓᎻ	-9.63997
▁ᎢᏦᎯᏳᏒᎢ	-9.64081
▁ᏚᏃ	-9.642
▁ᏗᏥᏰᎸ	-9.64263
▁ᏡᎬᎢ	-9.6427
▁ᎤᎴᏅᎲ	-9.64286
ᏍᏆᏂᎪᏗ	-9.64364
▁ᏂᏫ	-9.64621
ᏁᎸᎩ	-9.64911
ᎢᏳᎾᏍᏗ	-9.64989
ᏁᎳ	-9.65001
▁ᎬᏍᎦ	-9.65007
▁ᎬᏩᏛᏛᏁ	-9.6524
▁ᎤᏂᎷᏨ	-9.65354
ᏃᎮᎭ	-9.65417
▁ᎪᎯᏳᏗᏍᎩ	-9.65624
ᏅᏍᏗᏱ	-9.65957
▁ᏧᏁᏤ	-9.65985
▁ᎾᎥᏂ	-9.66036
▁ᎤᎲᎢ	-9.66104
ᏰᎸᏗ	-9.6663
▁ᏒᎦᏔ	-9.66662
▁ᏭᏂ	-9.6705
▁ᏗᏖᎵᏙ	-9.67231
▁ᏫᏨᎷᏤᏗᏱ	-9.6727
▁ᎠᏤᎷᎩ	-9.67321
▁ᎠᏂᎦᏔᎿᎢ	-9.6733
▁ᎤᏂᏁᎫᏥᏛ	-9.67341
▁ᏣᎦ	-9.6736
▁ᏗᏓᏬᏍᏗ	-9.67362
▁ᏚᏅᏎ	-9.67386
▁ᎡᏙᎲᎢ	-9.6741
▁ᎢᏣᏛᎦᏅᎯ	-9.67442
▁ᎯᎦᏔᎭ	-9.67457
▁ᏗᏍᏓᏓᏅᏟ	-9.6748
▁ᎠᏉᎳ	-9.67492
▁ᎠᏓᏅᏖᏗ	-9.675
▁ᎠᎩᏰᎸᎭ	-9.67531
▁ᎠᏓᏙᎵᏍᏗ	-9.67639
▁ᎠᎦᏔᎿᎢ	-9.67812
▁ᏕᎯ	-9.67934
▁ᎠᏲᎱᏒ	-9.67945
▁ᏥᏣ	-9.68117
ᏗᏍᎨᎢ	-9.68379
ᏑᏰᏛ	-9.68794
▁ᎦᎶᏁᏛᏰᏃ	-9.69155
ᏁᎮᏍᏗ	-9.69363
▁ᏫᎬ	-9.69503
ᏔᏂ	-9.6956
▁ᎾᎯᏳᏉ	-9.69699
ᏥᏲᏏ	-9.69959
ᎥᏝ	-9.7015
▁ᎤᏣᏖ	-9.70339
ᎵᏍᏗ	-9.7077
▁ᎤᏰᎸᏅ	-9.70876
▁ᎯᏯ	-9.70944
Ꭴ	-9.70962
▁Ꮝ	-9.71197
▁ᏥᏓᏂ	-9.71346
ᎲᏍᎨᏍᏗ	-9.71532
▁ᎢᏥᏰᎸ	-9.71535
▁ᏕᎨᏌᏗᏒ	-9.71647
▁ᏕᎦᏚᎲ	-9.71654
▁ᎢᏓ	-9.71738
▁ᎤᏂᏣᏛ	-9.71829
▁ᎤᏍᏚᎢᏒ	-9.71837
▁ᎠᏚᎢᏍᏛ	-9.7184
▁ᎦᏓᏅᏖᏍᎬ	-9.71842
ᏣᏘ	-9.71917
▁ᏭᎶᏒ	-9.72093
ᏔᏁᏍᏗ	-9.72124
▁ᏧᏓᏕᏒᏛ	-9.72231
▁ᏤᎮ	-9.72231
▁ᎧᏂᎵᏯ	-9.72231
▁ᏗᎾᏓᏂᏱᏍᎩ	-9.72231
▁ᏕᏦᎯᏳᏎᏍᏗ	-9.72233
▁ᎥᏳᎩ	-9.72236
▁ᏕᏥᏲᎵᎸᎭ	-9.7224
▁ᎦᏍᎩᎶ	-9.7224
▁ᎢᏲᏍᏛ	-9.72243
▁ᏱᏥᏍᎦᎢᎮᏍᏗ	-9.72245
▁ᎲᏗᏍᎨᏍᏗ	-9.72246
▁ᏅᏓᏳᎵᏍᏙᏗᏱ	-9.72252
▁ᎯᎨᏴ	-9.72256
▁ᎢᏥᏆᎵᏏ	-9.72261
▁ᎤᏕᎵᏒ	-9.72262
▁ᎡᏉᏂ	-9.72264
▁ᎤᎶᏒᏍᏔᏅᎯ	-9.72266
▁ᎤᎬᏫᏳᏎᏍᏗ	-9.72266
▁ᎣᏂᏗᏢ	-9.72269
▁ᏦᏈ	-9.7227
▁ᎢᏣᏓᏡᎬ	-9.72284
▁ᎠᏟᎶᏍᏗ	-9.723
▁ᎢᏣᎵᏍᏕᎸᏙᏗ	-9.72312
▁ᎢᏥᎦᏙᎥᎯᏍᏗᏱ	-9.72325
▁ᏗᎬᏩᎸᏌᏛ	-9.72325
▁ᎠᏁᏢᏔᏅᎯ	-9.72334
▁ᎤᎾᏛᏅᎩ	-9.7235
▁ᏥᏅᏗᎦᎵᏍᏙᏗᎭ	-9.72373
▁ᏓᏓᏂᎸᎨᏍᏗ	-9.72375
▁ᎤᏂᏙᏓ	-9.72386
▁ᎨᏥᏁᎸᎯ	-9.72394
▁ᏥᏥᎦᏔᎭ	-9.7242
▁ᏂᎪᎯᎸᎾᏉ	-9.7242
▁ᎤᏓᏅᏖᎸᎯ	-9.72427
▁ᎤᏓᏅᏛ	-9.72433
▁ᏭᏂᎶᏎᎢ	-9.7246
▁ᏧᎸᏫᏍᏓᏁᏗ	-9.72484
▁ᏗᏥᎾᏫᏱ	-9.72489
▁ᎢᏳᎵᏍᏔᏅᎯ	-9.72537
▁ᎾᏥᎾᏝᎥᎾ	-9.72543
▁ᎠᏥᏃᎮᏍᎬᎢ	-9.72576
▁ᎢᏥᎩ	-9.72593
ᎾᏰᏍᎬᎾ	-9.72646
▁ᏥᏁᎦ	-9.72722
▁ᏄᎾᏛᏅᎢ	-9.72728
▁ᏂᎬᏁᎭ	-9.72742
▁ᎠᎵ	-9.7275
▁ᏫᏨᏲᏪᎳ	-9.72797
▁ᎠᎩᏍᏗᏱ	-9.72823
▁ᏓᏕᏲᎲᏍᎬᎢ	-9.7286
▁ᎤᎾᎵᎢ	-9.72868
▁ᎾᏁᎲᎾ	-9.72875
▁ᎦᎵᏦᏛᎢ	-9.7289
▁ᏚᎸᏫᏍᏓᏁᎸᎢ	-9.72954
▁ᎠᏎᏍᎩᏂᏃᏅ	-9.72964
▁ᏚᏂᎸᏫᏍᏓᏁᎲᎢ	-9.73074
▁ᎢᏦᎯᏳᎯ	-9.73099
▁ᎤᎾᎵᎪ	-9.73209
ᏛᏃ	-9.73255
▁ᎠᏚᎸᏗ	-9.7354
▁ᎠᏁᎩ	-9.73565
▁ᏣᎾ	-9.73647
▁ᎠᏂᏅ	-9.7383
▁ᏫᏓ	-9.73893
▁ᏅᏗᎦᎵᏍᏙᏗᏍᎬᎢ	-9.74001
▁ᏕᎨᏥ	-9.74044
▁ᎠᎩᎭ	-9.74104
▁ᎤᏛᏅᎩ	-9.74257
▁ᎡᎮᏍᏗ	-9.74322
▁ᎠᎹᏱ	-9.74661
ᏨᏍᏙᏗ	-9.74844
ᎵᏍᎪᎸᏓᏁᎸᎯ	-9.74979
ᏛᏗᏱ	-9.75116
▁ᎤᏙ	-9.7515
▁ᎤᏲᎢ	-9.75581
▁ᎬᏩᎪᎲ	-9.75633
▁ᎤᏂᎷᏤᏗ	-9.75634
ᏗᏍᎬᎾ	-9.75879
Ꭻ	-9.76008
▁ᏙᎩ	-9.76035
▁ᏫᏥ	-9.76065
ᎧᎵᎢ	-9.76104
ᏂᏪᏏ	-9.76476
ᎪᎯ	-9.76484
ᎩᎶ	-9.76764
▁ᎢᏧ	-9.77147
ᏧᏈ	-9.77172
ᎶᏛ	-9.77446
▁ᏐᎵᎹᏅ	-9.77494
▁ᏦᎠᏍᎪᎯ	-9.77495
▁ᎢᏯᏍᏘ	-9.77504
▁ᎢᏯᎬᏁᎸᎯ	-9.77504
▁ᎬᎨᏳᎢ	-9.77506
▁ᏫᏂᎦᎵᏍᏓ	-9.77508
ᏙᏓ	-9.77515
▁ᎨᏅᎢᏍᏗ	-9.77519
▁ᏥᎮᎾ	-9.77525
▁ᏧᏳᎪᏗ	-9.77546
▁ᎤᏣᏔ	-9.77554
▁ᏔᎵᏧᏈ	-9.77562
▁ᏂᏥᎦᏔᎲᎾ	-9.77576
▁ᎤᏪᏅᏍᏗᏱ	-9.77598
Ꮭ	-9.77598
▁ᎤᏂᏰᎸᏒᎩ	-9.77604
▁ᎤᏙᎯᏳᏗᏱ	-9.77624
▁ᎤᏬᏚᎯᏳ	-9.77642
▁ᏧᏙᏢᏅ	-9.77695
▁ᏕᎹᏍᎦ	-9.77762
▁ᎠᏁᏙᎲᎢ	-9.7778
▁ᎢᏥᏍᎦᏅᏨᎢ	-9.77784
ᏅᏎ	-9.77802
▁ᎠᏫᏍᎩ	-9.77837
Ꮘ	-9.77947
▁ᏓᏰ	-9.78027
ᎩᎨᏳᎯᏳ	-9.78047
▁ᎤᎶ	-9.78066
▁ᎤᏯᎢ	-9.78126
▁ᏓᏠᎯᏍᏛᎢ	-9.78194
▁ᏂᏙ	-9.78203
ᏞᏍᏗ	-9.78576
▁ᏔᎷᎩᏍᎩ	-9.78602
▁Ꮮ	-9.78685
▁ᎦᏙᎬᎩ	-9.7916
▁ᎠᏓᏅᏖᏍᎬᎢ	-9.79368
▁ᎾᎦᏛ	-9.7945
▁ᎤᏄᎪᏤ	-9.79613
▁ᏗᎦᎵᏍᏙᏗᎭ	-9.79719
▁ᏗᎾ	-9.80047
ᎨᎳᏍᏗ	-9.80061
ᏁᎴᎢ	-9.80112
▁ᎦᎸ	-9.80241
ᏓᎶᏂᎨ	-9.80303
ᎵᏏ	-9.80313
▁ᏯᎩ	-9.80423
ᎠᎩᎾ	-9.80429
ᎩᏰᏃ	-9.80842
▁ᏕᎨ	-9.81018
ᏗᎦᏘᏯ	-9.81031
ᏂᏏ	-9.81051
▁ᎤᎾᏛᏁ	-9.81104
▁ᏄᏛᏅ	-9.81221
ᎿᎢ	-9.81345
Ꮉ	-9.81418
ᎴᏅᏛ	-9.81579
Ꮷ	-9.81676
▁ᏧᏅ	-9.81727
▁ᏄᏂᏪᏒ	-9.81789
ᏓᏍᏗᏱ	-9.81803
▁ᏚᎧᎿᏅ	-9.81899
▁ᎢᎨ	-9.81984
▁Ꮼ	-9.82139
▁ᏗᎨᏥ	-9.82197
ᎸᏉᏛᎾ	-9.82221
▁ᏂᏣᏛᏁᎲ	-9.82241
▁ᎠᏜ	-9.82331
▁ᏕᎦᏅ	-9.82375
▁ᏧᏩᎫᏔᏅᏒ	-9.82405
▁ᎣᏓᏅᏛ	-9.82452
▁ᎤᎵᏂᎬᎬ	-9.8253
▁ᎬᏩᎷᏤᎴ	-9.82532
ᏥᎨᏳᎢ	-9.82574
ᏉᏗᏳ	-9.82666
▁ᎢᏣᎵ	-9.82782
▁ᎣᎵᏩ	-9.82791
▁ᎾᎬᏁᎸ	-9.82796
ᎿᏕᎩ	-9.82833
▁ᎤᏚᎢᏍᏔᏅ	-9.82897
▁ᏗᎧᏃᎩᏍᏗ	-9.82955
▁ᎢᎬᏩᏁᏗ	-9.82956
ᏓᏁᎸᎯ	-9.82965
▁ᎤᎾᏚᎵᏍᎬ	-9.82977
▁ᎠᏥᏍᏕᎸᏗ	-9.82993
▁ᏚᎾᏙᎥ	-9.83013
▁ᏄᏩᏁᎸ	-9.83026
▁ᎢᏍᎦᎳᏗ	-9.83049
▁ᎾᎵᏍᏆᏗᏍᎬᎾ	-9.83049
▁ᏗᏂᏬᏂᏍᎩ	-9.83049
▁ᎥᏘᎣᎩ	-9.83049
▁ᏢᏓᏥ	-9.83049
▁ᏂᎦᎵᏍᏔᏅᎭ	-9.8305
▁ᎢᎧᏁᏨᎯ	-9.83053
▁ᎠᎾᏓᏍᏓᏩᏗᏙᎯ	-9.83053
▁ᏗᏥᎸᏫᏍᏓᏁᏗᏱ	-9.83057
▁ᎠᎵᏏᎾᎯᏍᏙᏗ	-9.83057
▁ᏍᎩᏙᎵᎩ	-9.83058
▁ᏂᎬᏪᏎᎭ	-9.8306
▁ᏕᎪᏢᏩᏗᏒ	-9.83062
▁ᎥᏣᏱ	-9.83066
▁ᏄᏂᎲᎾ	-9.8307
▁ᎬᏩᏲᎱᎯᏍᏗ	-9.83071
▁ᎢᏨᏍᏗᏰᏗᎭ	-9.83072
▁ᏕᎦᎶᏗ	-9.83074
▁ᎢᏳᏩᏁᎸᎯ	-9.83075
▁ᎬᏩᏍᏓᏩᏛᏒᎩ	-9.8308
▁ᏗᏂᏩᎾᎦᎳ	-9.83083
▁ᎠᏙᎴᎰᎯᏍᏙᏗ	-9.83084
▁ᎠᏂᏃᏍᎩᏍᎩ	-9.83089
▁ᎠᏕᏒᎲᏍᎩ	-9.83094
▁ᎠᎾᏓᏙᎵᏍᏓᏁᎯ	-9.83105
▁ᎤᎾᏕᏅᎯ	-9.83114
▁ᏂᏣᏛᎿᏕᎬᎢ	-9.8312
▁ᎤᏛᎪᏗᏱ	-9.8312
▁ᎠᏂᎦᏓᎭ	-9.83124
▁ᎠᏂᏃᎮᏍᎩ	-9.83129
▁ᎢᏯᏆᏛᏁᏗᏱ	-9.83134
▁ᏅᏃᎯ	-9.83144
▁ᏧᏪᏅᏒ	-9.83157
▁ᏈᎵᏏ	-9.8317
▁ᎤᏃᎯᏳᏗᏱ	-9.83171
ᏌᏘ	-9.8318
▁ᏗᎦᏓᎭ	-9.83187
▁ᎠᎾᏛᎩᏍᎩ	-9.83192
▁ᎢᏥᏁᏍᏗ	-9.83193
▁ᎤᎩᎵᏲᏨ	-9.83199
▁ᎢᏣᎵᎮᎵᎨᏍᏗ	-9.83217
▁ᎪᏍᏚ	-9.83229
▁ᏐᎣᏁᎳ	-9.83264
▁ᏍᎩᎾᏝᎢ	-9.83314
▁ᎠᎦᏘᏯ	-9.8332
▁ᎢᎪᏪᎳ	-9.83324
▁ᏧᎾᎵᏂᎩᏛ	-9.83338
▁ᎥᏥᎪᎥᎩ	-9.83345
▁ᏧᏂᎾᏫᏱ	-9.83354
▁ᎤᏓᏅᏖᎸᎢ	-9.83368
▁ᎢᎩᏍᎦᏅᏨᎢ	-9.83394
▁ᎤᏓᏑᏯ	-9.83397
▁ᏧᏬᎸ	-9.83438
▁ᏧᏓᏅᏛᎢ	-9.8346
▁ᎤᏓᏔᏅᎯ	-9.83463
▁ᏗᏤ	-9.8348
▁ᏛᏍᏆᎸᎯ	-9.8353
▁ᏕᎤᎴᏔᏅ	-9.83547
▁ᎤᎩᏨᏅ	-9.83564
ᏓᏂᎸᏨᎯ	-9.83584
▁ᎤᏢᎩ	-9.83588
▁ᏂᏨᏁᎸ	-9.83618
ᏅᏏᏓᏍᏗ	-9.83618
▁ᏥᏓ	-9.83633
▁ᎠᎦᏔ	-9.83815
▁ᎤᏂᎦᏙᎥᏒ	-9.83834
▁ᏓᏤᎸ	-9.83867
▁ᏣᏗᎭ	-9.8393
▁ᎤᎨᏳᎯᏳ	-9.84002
▁ᏴᎬ	-9.84012
▁ᎢᎦᏁᎳᏅᎯ	-9.84022
▁ᏄᏛᏁᎸᎢ	-9.84093
ᏍᏓᏩᏗᏙᎯ	-9.84098
ᏓᎴᎩ	-9.84215
▁ᏧᏁᎬ	-9.84289
▁ᎤᏂᏍᎦᏅᏨᎢ	-9.84336
▁Ꮘ	-9.84482
ᏅᎭ	-9.84713
▁ᎢᎦᏘ	-9.85269
ᏓᏂ	-9.85458
"	-9.85525
▁ᏚᎪᎲ	-9.85564
ᏅᏒᎩ	-9.85591
▁ᎤᏬᎴ	-9.85656
▁ᎢᏣᏚᎵ	-9.85657
▁ᎢᏓᎵ	-9.85758
▁ᏱᏂ	-9.85811
ᏁᎶᏙᏗ	-9.85868
▁ᏂᎦᎵᏍᏓ	-9.85968
▁ᏑᎾ	-9.8601
ᏙᎢ	-9.86173
ᏧᏏ	-9.86262
▁ᏂᎨ	-9.86361
▁ᎢᎨᎬᏁᏗ	-9.86824
ᏓᏅᎦᎸᏛ	-9.86902
▁ᏄᏪ	-9.86902
▁ᎤᏣᏛ	-9.8732
▁ᎡᎵᎩ	-9.87327
▁ᎤᏔᏅ	-9.87785
▁ᏂᏣᏛᏅ	-9.87956
ᏅᏏᏙᎯ	-9.88008
▁ᏱᏙ	-9.88122
▁ᎤᎵᎮᎵᏨ	-9.88288
▁ᏄᎾᏛᏅ	-9.88377
▁ᏂᎬᏩ	-9.88476
▁ᏥᏰᎸ	-9.88711
▁ᏄᏛᏁᎴ	-9.88792
ᏐᏅ	-9.88893
▁ᏤᎦᎳᏯ	-9.88932
▁ᏧᎴᎯᏌᏅᎯ	-9.88932
▁ᏐᏓᎻ	-9.88934
▁ᏔᎷᏣ	-9.88937
▁ᏧᎾᎬᏩᎶᏗ	-9.88937
▁ᏧᏬᏰᏂ	-9.88937
▁ᏩᏛᎬᎦ	-9.88937
▁ᎠᎯᏗᏳ	-9.88938
▁ᎢᎨᎬᏁᎸᎯ	-9.88939
▁ᎾᏃᎯᏳᎲᏍᎬᎾ	-9.8898
▁ᏭᎶᎯᏍᏗᏱ	-9.88983
▁ᏏᏆ	-9.88985
▁ᎠᏓᎯᎯ	-9.89004
▁ᎠᏄᎦᎸ	-9.89016
▁ᏗᎬᏩᏓᏂᎸᎢᏍᏗ	-9.8907
▁ᏯᎦᏔᎭ	-9.89093
▁ᎤᏃᎯᏳᏅᎯ	-9.89094
▁ᎭᏓᏅᏖᏍᎬ	-9.8912
▁ᎠᎲᎢ	-9.89173
▁ᎠᏃᏍᏛ	-9.89222
▁ᏧᎾᏤᎵᎦ	-9.89229
▁ᎡᏃᏱ	-9.89276
ᎬᎭᎷᏴ	-9.89293
▁ᎢᏳᎾᏛᏁᏗᏱ	-9.89386
▁ᎤᎬᏫᏳᏌᏕᎩ	-9.89424
ᏁᏃ	-9.89445
▁ᎠᏆᎵᏏ	-9.89496
▁ᏄᏂ	-9.89543
ᎲᏍᎩ	-9.89623
ᎲᎦ	-9.89679
▁ᎠᏆᏓᏅᏛ	-9.89699
▁ᎾᎦᏔᎲᎾ	-9.89788
▁ᎾᎾᏛᏁᎲᎢ	-9.89792
▁ᏳᏂ	-9.89832
▁ᏱᎬ	-9.89851
ᎦᏌᏯᏍᏕᏍᏗ	-9.90033
▁ᏄᏍᏛᎾ	-9.9013
▁ᎤᏪᏗᏱ	-9.90199
▁ᏗᎬᏩᏂ	-9.902
▁ᎤᎬ	-9.90361
ᏁᎵ	-9.90458
ᎱᏍᏗ	-9.90527
▁ᎤᏰᎸᏎ	-9.90729
▁ᎤᏩᏒᏍᎩᏂ	-9.90752
▁ᎨᎦ	-9.90858
Ꮼ	-9.90865
▁ᏱᎬᏩ	-9.9093
▁ᎤᎪᎲᎩ	-9.90938
▁ᎠᏂᏂ	-9.90957
▁ᏫᏣ	-9.90999
▁ᎡᎲᎩ	-9.91011
▁ᎤᏒ	-9.91102
▁ᏗᎪ	-9.91124
ᎪᏩᏛᏗᏱ	-9.91174
▁ᏄᎾ	-9.91197
▁ᏱᏙᎦ	-9.91197
▁ᎤᏯᏅ	-9.91354
▁ᏓᏥ	-9.91588
Ᏸ	-9.91743
▁ᏛᎾ	-9.91887
▁ᎦᎵᏉᎩᏁ	-9.92425
▁ᏓᏣ	-9.9248
▁Ꮓ	-9.92526
ᏅᏒ	-9.92546
ᏍᏔᏁᎢ	-9.92556
▁ᎢᏯᎬᏁᏗ	-9.92593
▁ᎩᎵ	-9.92667
▁ᏕᎬᏩ	-9.92715
ᎩᏃ	-9.92908
ᎷᎦ	-9.9301
▁ᏗᎾᏓ	-9.93097
▁ᎬᏩᎾ	-9.93223
▁ᏥᏂᎦᏪ	-9.93259
▁ᎤᎾᏛᎦᏅᎩ	-9.93324
ᎥᎯ	-9.93446
▁ᎠᏂᏐᎢᏃ	-9.93499
ᎦᏯ	-9.93752
▁ᏕᎩ	-9.93791
ᏍᏗᏉ	-9.93954
▁ᎤᏁᎳ	-9.94107
▁ᎤᏪᎷ	-9.9429
▁ᏗᎩ	-9.94364
▁ᎯᎠᏉ	-9.94446
ᏓᎨᏳᏗ	-9.94543
▁ᏄᏩᏁᎴ	-9.94548
▁ᎤᏜᏅᏛ	-9.94591
▁ᎦᏥ	-9.94664
▁ᏱᏍᎩ	-9.9468
ᏎᏗ	-9.94693
▁ᎥᏓᎸ	-9.9474
ᎥᏍᎨᏍᏗ	-9.94745
▁ᎤᎪᎮ	-9.9484
▁ᏗᎩᎾᏫ	-9.95044
▁ᎤᎶᏒ	-9.95054
▁ᏚᏁᏤᎸ	-9.95101
▁ᎠᏔᎴᏒ	-9.95171
▁ᎠᎬᎭᎸᏛ	-9.95182
▁ᎢᏗᏍᏓᏓᎳ	-9.95182
▁ᏕᏏᎶᏂᎦ	-9.95182
▁ᏗᎧᎸᎬ	-9.95182
▁ᎡᏂᎾᏯ	-9.95182
▁ᎠᏓᏪᎳᎩᏍᎩ	-9.95182
▁ᏧᎦᏒᏍᏗ	-9.95182
ᏗᎦᎵᎠᏅᎯᏛ	-9.95182
▁ᏗᏦᏪᎵᏍᎩ	-9.95182
▁ᏦᎩᎸᏫᏍᏓᏁᎯ	-9.95182
▁ᏗᎾᏕᏲᎲᏍᎩ	-9.95183
▁ᎤᏂᎬᎥᏍᎩ	-9.95185
▁ᎤᏂᎩᎵᏲᎢᏍᏗ	-9.95186
▁ᎬᏩᏓᏍᏕᎸᏗ	-9.95187
▁ᏧᏁᎿᎢ	-9.95187
▁ᏧᎾᏄᏬ	-9.95194
▁ᎡᏥᏲᎵᎸᎭ	-9.95211
▁ᎦᏚᎢᏗᏢ	-9.95215
▁ᎢᏯᏥᎸᏉᏗ	-9.95217
▁ᎢᏯᏂᎢ	-9.9522
▁ᎯᎾᎩ	-9.95226
▁ᎤᏍᏗᎩᏛ	-9.95228
▁ᎤᏂᎷᎯᏍᏗᏱ	-9.95229
▁ᏫᎨᏥᏲᎵᎭ	-9.95229
▁ᏧᏂᏁᏟᏴᏍᏗᏱ	-9.9523
▁ᏂᏚᎾᏓᏪᏎᎴᎢ	-9.95242
▁ᏙᏗᏣᏓᏅᏛᎢ	-9.95242
▁ᎤᎳᎨᏯᏛᏤᎢ	-9.95242
▁ᎠᏩᎾᎦᎳ	-9.95243
▁ᎠᏂᏦᎢ	-9.95247
▁ᎤᏂᏍᏆᏂᎪᏒᎩ	-9.9525
ᎩᏏᏕᎩ	-9.95251
▁ᏥᏣᏛᎩᎭ	-9.95261
ᏍᏔᏅ	-9.95275
ᎥᎾ	-9.95292
▁ᏫᎦᎷᎩ	-9.95309
▁ᏧᎦᎾ	-9.95311
▁ᎡᏥᏯᏅᏛ	-9.95312
▁ᎠᎩᏁᏨ	-9.9532
▁ᎤᏂᎪᏩᏛᏗᏱ	-9.95323
▁ᎠᏧᏣ	-9.95336
▁ᎤᎾᏄᎪᎢᏍᏗ	-9.95341
▁ᏏᎵᏱ	-9.95344
▁ᏗᏓᎴᎲᏍᎦ	-9.95389
▁ᏗᎵᏍᎪᎸᏓᏁᎸᎯ	-9.95394
▁ᏓᎾᏕᏲᎲᏍᎬ	-9.95402
▁ᎠᎪᏎᎮᏍᏗ	-9.95403
▁ᎵᏫ	-9.95435
▁ᏍᎩᏍᏓᏩᏚᎦ	-9.95438
▁ᎤᏂᏰᎸᏗ	-9.95472
Ꮺ	-9.95477
▁ᏥᏅᏏᏓᏍᏗ	-9.95482
▁ᏓᏆᏓᏂᎸᎨᏍᏗ	-9.95489
▁ᏗᏇᏥ	-9.95492
▁ᎠᏓᏫ	-9.9551
▁ᎾᏆᏍᏛ	-9.95515
▁ᎢᏧᏕᏘᏴᏛ	-9.95528
▁ᏚᏓᏘᎾᎥᎢ	-9.95551
▁ᎬᏩᎷᏤᎸ	-9.95554
▁ᎠᏟᏍᏛᎢ	-9.95555
ᏍᏔᏂ	-9.95595
▁ᏚᏂᏅᏎ	-9.95603
▁ᏓᎩᎸᏫᏍᏓᏁᎲ	-9.95628
▁ᏃᏯ	-9.95678
▁ᎦᏚᎢ	-9.95698
▁ᏚᏁᏤᎸᎩ	-9.95705
▁ᎦᎸᎳᏗᏢ	-9.95743
▁ᎤᏡᏗᏍᎩ	-9.95855
▁ᎨᏥᏍᏕᎸᏗ	-9.96017
▁ᏓᎬᎾ	-9.96176
▁ᎦᏬᏂᏍᎬᎢ	-9.96228
▁ᎡᎵ	-9.9645
▁ᏗᎩᎦᏴᎵᎨᎢ	-9.965
ᎵᎦ	-9.96506
▁ᎨᎦᎫᏴᎡ	-9.96557
▁ᎤᏪᎭ	-9.96742
▁ᎠᏇ	-9.96892
▁ᎪᏪᎸᎩ	-9.96937
▁ᎤᎷᏤᎢ	-9.96952
▁ᎤᏢ	-9.97199
▁ᎢᏨᏗᏍᎬ	-9.97425
ᎬᏩᏍᏓᏩᏗᏙᎯᏃ	-9.97471
▁ᎠᎵᏍᏆᏗᏍ	-9.97726
▁ᎠᏍᏚᎲ	-9.97832
▁ᎢᏥᎭ	-9.98139
▁ᎤᎾᏓᏅᏖ	-9.98316
▁ᏧᎴ	-9.98412
Ꮦ	-9.98478
ᎾᏝᎢ	-9.985
▁ᏦᎩ	-9.98661
ᏁᎲ	-9.98689
▁ᏗᏦ	-9.98765
ᎪᎵᏰᏍᎩ	-9.98928
▁ᎠᎵᏍᎪᎸᏙᏗ	-9.98937
ᏍᏆᏂᎪᏙᏗᏱ	-9.99032
ᏎᎸᎩ	-9.9913
▁ᏓᎬᏩ	-9.99132
ᏙᎵᏍᏗ	-9.99135
▁ᏥᎨᏥ	-9.99239
▁ᎠᎾᎵᏍᏓᏴᎲᏍᎬ	-9.9937
▁ᏓᏨ	-9.99374
ᏎᎸᎯ	-9.99446
▁ᎠᎾᎢᏒ	-9.99587
▁ᎠᏍᎦᏅᏨ	-9.99639
▁ᎦᏁᏟᏴᏍᏗ	-9.99736
▁ᎬᏩᏍᏓᏩᏗ	-9.9979
▁ᎤᎵᏍᏆᎸᏗᏃ	-9.99822
ᏅᏗᏍᎨᏍᏗ	-9.99849
▁ᎠᎪ	-9.99909
ᏗᎦᏅᎯᏛ	-9.99931
▁ᎾᎩ	-10.003
▁ᎧᏁᎢᏍᏗ	-10.003
ᏁᎸᎢ	-10.0041
▁ᎤᎪ	-10.0072
ᎪᏩᏘᎭ	-10.0086
ᏤᎭ	-10.0089
▁ᎡᏣᎫᏴᎡ	-10.0105
▁ᏛᏂ	-10.0107
▁ᏓᏟᎶᏍᏛ	-10.0126
▁ᏓᏫᏒ	-10.013
▁ᏚᎴᎯᏌᏅ	-10.0133
▁ᏅᎩᏁ	-10.0137
▁ᏭᎾ	-10.0137
ᏍᏕᏍᏗ	-10.0149
ᎸᏉᏓ	-10.0166
ᏟᎶᏍᏙᏗ	-10.0169
ᏒᏃ	-10.0176
▁ᏄᏬᎯᏳᏒᎾ	-10.0185
▁ᏣᏃᏎᎰᎢ	-10.0185
▁ᏅᏓᎦᎵᏍᏙᏔᏂ	-10.0185
▁ᎤᏂᎸᏉᏔᏁ	-10.0189
ᏠᎠᏏ	-10.019
▁ᏥᏚᏳᎪᏗ	-10.019
▁ᎬᏁᏍᏗ	-10.0191
▁ᎠᎩᎷᏥᎸ	-10.0191
▁ᏥᏄᎵᏍᏔᏅ	-10.0194
▁ᏄᏂᏪᏎᎸᎩ	-10.0194
▁ᎢᏍᏕᎾ	-10.0197
▁ᎤᎸᏓᎸᎥᏍᎩ	-10.0197
▁ᎤᎾᏄᎪᏥᎸ	-10.0203
▁ᎦᎵᏦᏛ	-10.0205
▁ᎤᏕᏔᏅᎯ	-10.0207
Ꮡ	-10.0208
▁ᏓᎩ	-10.0211
▁ᎤᏃᏍᏛ	-10.0212
▁ᏗᏣᏤᎵᎦ	-10.022
▁ᎠᎦᏔᎯᏳ	-10.0223
▁ᎤᏪᏍᎩᎸᎢ	-10.0224
▁ᎤᏪᎷᏁᎢ	-10.0227
ᏍᏗᏍᎨᏍᏗ	-10.0227
▁ᎬᏆ	-10.0238
▁ᏓᏆ	-10.0241
▁ᏚᎪᎮ	-10.0245
▁ᎤᎪᏩᏛᏗᏱ	-10.0259
▁ᏭᎷᏨᎩ	-10.0261
▁ᏓᏂᏁᎸ	-10.0267
▁ᏨᏍᎩᏃᎢ	-10.0273
ᏁᎰᎢ	-10.0274
▁ᎢᏣᏟᏂᎬᏁ	-10.0292
ᏛᏔᏂ	-10.0293
▁ᏧᏬᏚᎯ	-10.0293
ᎪᏩᏛᏗ	-10.0295
▁ᏣᏁ	-10.0307
ᎫᏴᎡᏗ	-10.0349
▁ᏱᏏ	-10.0352
▁ᎠᏥᏁᏗ	-10.0355
▁ᏥᏕᎦ	-10.0359
▁ᎢᏣᎵᎮᎵ	-10.0361
ᏠᏱ	-10.0413
▁ᏗᎨᎦ	-10.0414
ᏃᏁᎴ	-10.0419
▁ᎡᎮᎢ	-10.0421
ᏛᏅᎢᏍᏙᏗᏱ	-10.0442
ᏍᏔᏅᎩ	-10.0443
▁ᏱᏂᎬ	-10.0455
▁ᏧᏙ	-10.0455
▁ᎤᏩᏛᏗ	-10.0461
ᎢᏍᏓ	-10.0464
▁ᎠᏯ	-10.0466
ᏄᎦ	-10.052
▁ᎢᏍ	-10.0531
▁ᏄᏪᏒᎢ	-10.0537
ᏥᎾᏝᎥᎾ	-10.0555
ᎴᎯᏌᏅ	-10.056
▁ᏥᎬ	-10.0575
▁ᎤᎵᏍᏚᎢ	-10.0592
ᏔᏅᎭ	-10.0602
▁ᎾᏆ	-10.062
ᏓᏑᏯ	-10.064
ᎩᎾᏝᎢ	-10.0641
▁ᏙᏗ	-10.0643
▁ᏗᏗ	-10.0698
▁ᎢᎬᏪᏅᏛ	-10.0715
ᎸᎾ	-10.073
ᏗᏍᎪ	-10.0748
ᏁᏢᏔᏅᏛ	-10.0753
ᏏᏳ	-10.077
ᎯᏳᎲᏍᎦ	-10.077
▁ᎠᎦᏔᎮ	-10.0777
▁ᎤᏇᏓᎵᏉ	-10.0778
▁ᎤᏍᏛ	-10.0783
▁ᎦᎸᏉ	-10.0793
▁ᎠᏍᎦ	-10.0795
▁ᏧᏁᏨ	-10.0802
▁ᏥᎨ	-10.0814
▁ᎠᏴᏉ	-10.0829
▁ᏧᏓᎴ	-10.083
▁ᎦᏃᎸᎥᏍᎬ	-10.0835
▁ᏱᏥᎪᎵᏰᎣ	-10.0835
▁ᎢᏣᏓᏙᎵᏍᏗᏍᎬ	-10.0835
▁ᏧᎦᏴᎵᎨ	-10.0837
ᎡᎭ	-10.0839
ᏛᎦ	-10.084
▁ᎡᎳᏂᎬ	-10.0842
▁ᏕᏡᎬ	-10.0843
ᏩᏛᏗ	-10.0843
ᎧᎵᏬᎯ	-10.0844
ᎬᏫᏳᏌᏕᎩ	-10.0845
▁ᎢᏳᏩ	-10.0865
▁ᎦᏅᏅ	-10.0865
▁ᏧᏭᎪᏙᏗ	-10.0888
▁ᏄᏍᏕ	-10.0888
▁ᎦᎶᎯᏍᏗᏳᎶᏗ	-10.0899
▁ᏗᎾᏂᏏᎲᏍᎩ	-10.0899
▁ᏗᏂᎭᏄᎸᎯ	-10.0899
▁ᏧᎾᏄᏩᎢ	-10.0899
▁ᏂᏚᎾᏁᎶᏛᎾ	-10.0899
▁ᏕᏅᏙᎥ	-10.0899
▁ᏙᏛᎾᎴᏂ	-10.0899
▁ᏅᏛᏆᏓᎴᏅᎯ	-10.0899
▁ᎢᏳᏓᎨᏛ	-10.0899
▁ᏂᏥᏪᏍᎪᎢ	-10.0899
▁ᏄᎾᏓᎡᏍᏗ	-10.0899
▁ᎤᏪᏐᏅᏴ	-10.0899
▁ᏑᏕᏘᏴᏛ	-10.0899
▁ᎤᏗᏗᏢ	-10.0899
▁ᏗᎧᏃᎩᏍᏙᏗ	-10.09
▁ᏅᏓᎦᎵᏍᏙᏓ	-10.09
▁ᏕᏥᏂᏴᏎᏍᏗ	-10.09
▁ᎠᏙᎴᎰᏒᎯ	-10.09
▁ᎤᏄᏬᏍᏕᏍᏗ	-10.09
▁ᏌᏯᏂ	-10.09
▁ᎾᏂᏍᎦᏅᎾ	-10.09
▁ᎤᏲᏍᏛᏉ	-10.0901
▁ᎠᏥᏰᎯ	-10.0901
▁ᏫᏥᏲᎵᎦ	-10.0901
▁ᎯᎦᏙᎵ	-10.0901
▁ᏱᏤᎵᎯᏍᎨᏍᏗ	-10.0901
▁ᎦᏅᎬ	-10.0902
▁ᏚᎿᏍᏕᏢ	-10.0902
▁ᏄᏪᎲᎾ	-10.0902
▁ᎧᏁᏍᎦ	-10.0902
▁ᏌᏈ	-10.0902
▁ᎠᏁᏙᎭ	-10.0902
▁ᎢᏥᎨᏴ	-10.0902
▁ᏗᏕᏲᎲᏍᎩ	-10.0902
▁ᏫᏲᏪᎳᏏ	-10.0902
▁ᏫᏥᎷᏨᎭ	-10.0903
▁ᎤᎬᏩᎳ	-10.0903
▁ᎠᎩᏅᏏᏙᎯ	-10.0904
▁ᎠᎩᎩᎬ	-10.0904
▁ᎤᏢᏉᏗ	-10.0904
▁ᎣᎩᏙᏓ	-10.0905
▁ᎤᎵᏠᏯᏍᏕᏍᏗ	-10.0906
▁ᎨᏥᏍᎦᎩ	-10.0906
▁ᎤᎾᏓᏑᏰᏛ	-10.0906
▁ᏱᏂᎬᏁᎭ	-10.0907
▁ᏧᎴᏔᏅᎯ	-10.0907
▁ᎠᏂᏃᎯᎵᏙᎯ	-10.0908
▁ᏂᎦᎵᏍᏗᏍᎨᏍᏗ	-10.0908
▁ᏴᎦ	-10.0908
▁ᏂᎦᏪ	-10.0908
▁ᏥᏚᏙᎥ	-10.0909
▁ᎡᏣᎸᏉᏗᏳ	-10.0909
▁ᎦᏃᏙᏗᏱ	-10.091
▁ᏗᏣᎳᏏᏕᏂ	-10.091
▁ᎤᏓᏙᎵᏣᏘ	-10.091
ᎦᏔᎯ	-10.091
▁ᏧᎾᏄᎪᏫᏒᎯ	-10.0917
▁ᎢᏕᎾ	-10.0917
▁ᎤᏪᏅᏒᎩ	-10.0917
▁ᏚᎸᏌᏛ	-10.0918
▁ᎤᎷᏤᎸ	-10.0922
Ꮔ	-10.0925
ᏥᏆ	-10.0926
▁ᎤᏃᎯᏳᏅᎩ	-10.0926
▁ᎠᏂᏃᎮᎭ	-10.0929
▁ᎩᎶᎢ	-10.0929
▁ᏅᏓᏰ	-10.0931
▁ᏯᎩᎭ	-10.0932
▁ᎦᏁᎲᎩ	-10.0932
▁ᎠᏯᏫᏍᎩ	-10.0932
▁ᏕᏣᎸᏫᏍᏓᏁᎲᎢ	-10.0932
▁ᏓᏓᎶᏂ	-10.0935
▁ᎢᏨᏁᏗᏱ	-10.0935
▁ᎤᎩᎸ	-10.0937
▁ᎤᏪᏙᎸᎩ	-10.0937
▁ᎾᏍᎦᎢᎲᎾ	-10.0938
▁ᎹᎦ	-10.0941
▁ᏭᏴᎴᎢ	-10.0943
▁ᎡᏙᎮᎢ	-10.0948
▁ᎠᎢᏒᎢ	-10.0948
▁ᏤᎵᎪ	-10.0951
▁ᏂᎨᏎᎢ	-10.0952
ᏙᎴᎰᎯᏍᏗ	-10.0953
▁ᏄᎾᏍᏗ	-10.0953
▁ᎤᏍᎦᏤ	-10.0954
▁ᎡᎳ	-10.0959
▁ᏕᏡᎬᎢ	-10.0959
ᎾᏄᎪᏫᏒᎯ	-10.0963
▁ᎠᎩᏁᏨᎢ	-10.0964
▁ᎠᎵᏥᏙᎲᏍᎬ	-10.0965
▁ᎤᎾᎵᏍᏓᏴᏗᏱ	-10.0966
▁ᏗᏁᎲᎢ	-10.0967
▁ᎤᏂᏣᏖᏍᏗ	-10.0973
▁ᏑᏓᎵᏁ	-10.0978
▁ᎤᏪᏅᎩ	-10.0979
▁ᎤᏍᏆᎸᎯᏗ	-10.0988
▁ᎠᏚᎢᏍᏛᎢ	-10.099
▁ᏦᏓᎸ	-10.099
▁ᎠᏁᎮᎢ	-10.0994
▁ᏂᏨᏁᎲ	-10.0997
▁ᏍᎩᎨᏳ	-10.0998
▁ᏕᎬ	-10.0999
▁ᏁᏨᏁᎸ	-10.0999
▁ᏥᏰᎸᎢ	-10.1
▁ᎶᎻ	-10.1006
▁ᏣᏓᏅᏙ	-10.1011
▁ᏧᏁᏗᏱ	-10.1014
ᎪᏩᏛ	-10.1024
ᏏᎳ	-10.1026
▁ᏨᏗ	-10.1034
ᏤᎵ	-10.1037
▁ᏣᏍᎦᏅᏨ	-10.1043
▁ᎠᏎᎵ	-10.1044
ᎴᏅᎯ	-10.1054
ᎵᏍᎪᎸᏙᏗᏱ	-10.1058
▁ᏏᎵ	-10.1062
ᏧᏂᏲᎯᏍᏗᏱ	-10.1071
ᏔᏅᎾ	-10.1072
▁ᏧᏪᏲ	-10.1074
▁ᎦᏚᏱ	-10.1074
▁ᏴᎨ	-10.1081
▁ᎠᏂᎸᏉᏗᏍᎨ	-10.1084
▁ᎠᏍᎦᎾᎢ	-10.1084
ᏰᎭ	-10.1085
ᏘᏂᏙᎯ	-10.1091
▁ᎠᏁ	-10.1092
▁ᎤᏍᎦᏅᏨᎢ	-10.1103
ᏩᏛᏗᏱ	-10.1115
▁ᎢᏣᏓᏅᏖᏍᎬ	-10.1124
▁ᎮᎯ	-10.1125
▁Ꭹ	-10.1128
▁ᎢᏔ	-10.1131
▁ᎣᎦᏤᎵ	-10.1133
ᏎᎭ	-10.1134
▁ᏩᎩ	-10.1145
▁ᎤᏔᏲᎴ	-10.1153
▁ᎤᏂᏥ	-10.1161
ᏲᎯᏎᎸᎩ	-10.1177
▁ᏓᏈ	-10.1186
▁ᏂᏥᏍᎦᏅ	-10.1222
▁ᎾᏍ	-10.1225
▁ᎤᏄᏬ	-10.1225
ᏗᏍᎨ	-10.1226
ᏁᏍᎨᏍᎩ	-10.1228
▁ᎤᏪᏅ	-10.1265
▁ᎦᏲᎵ	-10.1272
ᏂᎸ	-10.1287
▁ᎤᎸ	-10.129
▁ᎤᏂᏅᏅ	-10.129
ᏂᎪᎮ	-10.1293
▁ᏂᎬᏁᎲ	-10.1297
▁ᏫᎬᏩ	-10.1306
ᎾᏄᎪᏫᏏ	-10.1307
▁ᏂᎬᏁᎸ	-10.1316
ᏁᏟᏴᏍᏗ	-10.1335
ᎸᏉᏙᏗᏱ	-10.1338
▁ᎬᏩᏂᎪᏩᏛᏗ	-10.1349
▁ᎠᏍᎪᎯᏃ	-10.1372
▁ᎧᏁ	-10.1377
ᏩᏛᎯ	-10.1389
ᏁᏟᏴᏛ	-10.1418
Ꭷ	-10.1427
▁ᎢᏣᏓᏅᏖ	-10.143
ᏥᏴᎩ	-10.1434
▁ᎢᎩᏁᎸ	-10.1435
ᎸᏍᏗᏱ	-10.1435
ᏂᏗᏱ	-10.1439
▁ᏱᏫ	-10.1458
▁ᎡᏣᎫᏴ	-10.1462
ᎾᏉ	-10.1486
▁ᎣᎬ	-10.1499
▁Ꮏ	-10.1517
▁ᎠᏍᏛ	-10.1539
ᎾᏍᏛ	-10.1547
▁ᎠᏂᏙᎾᎥ	-10.1554
ᏤᎯ	-10.1564
▁ᎤᏅᏎ	-10.1572
▁ᏓᎬ	-10.1579
▁ᎨᏥᏁᏗ	-10.1591
ᏯᏅᎲ	-10.1605
▁ᏕᎦᏚᏩᏗᏒ	-10.1608
▁ᎠᏲᎱ	-10.1612
▁ᏭᏂᎷᏨ	-10.1615
▁ᏯᎾ	-10.1665
▁ᎠᏂᏁ	-10.1666
▁ᎦᎾᏄᎪ	-10.1668
▁ᏂᏦᎵᎬᎾ	-10.1668
▁ᏣᏤᏍᏙ	-10.1668
▁ᏗᏆᎳᏏᏕᏂ	-10.1668
▁ᏓᏓᏛᏂ	-10.1668
▁ᏣᏓᏲᏁᎸᎩ	-10.1668
▁ᎠᏂᎪᏗᏳ	-10.1669
▁ᎠᏂᎦᏔᎾᎢ	-10.1669
▁ᏗᏓᏂᏐᏗᏱ	-10.1669
▁ᎨᏣᏍᏓᏩᏗᏙᎯ	-10.167
▁ᏲᏥᎦᏔᎭ	-10.167
▁ᏣᎦᏑᎲᎢ	-10.167
▁ᏗᎨᏥᎾᏝᎢ	-10.167
▁ᎦᎵᎡᎵᎦ	-10.167
▁ᎣᎦᏚᎵᎭ	-10.1672
▁ᎢᎩᏅᏟ	-10.1675
▁ᎠᎨᏳᏣ	-10.1676
▁ᎢᏣᏚᎵᏍᎨᏍᏗ	-10.1677
▁ᏇᏗᏂᏱ	-10.1677
ᏓᎸᏛ	-10.1683
▁ᎾᏂᎥᎩ	-10.1683
▁ᎤᏓᏙᎵᏣᏛ	-10.1684
▁ᎤᎦᏔᏔᏅᎯ	-10.1685
▁ᏫᎶᎯ	-10.1686
▁ᏓᎦᏛᏁᎵ	-10.1688
▁ᏂᏨᎦ	-10.169
▁ᎾᎩᏪᏒᎩ	-10.1691
▁ᏣᏁᎮᎢ	-10.1695
ᏍᏓᏁᏗ	-10.1698
ᎾᏛᏁᎢ	-10.1699
ᏥᏯᏅᏛ	-10.17
▁ᎤᎴᏅᎩ	-10.17
▁ᏭᏴᎸᎩ	-10.1711
▁ᎡᎮᎾ	-10.1724
ᏃᎮᏍᎬᎢ	-10.1733
▁ᎤᏰᎸᎭ	-10.1734
ᏓᏂᎸᎢᏍᏗ	-10.1743
▁ᏚᎴᏁᎢ	-10.1749
▁ᎠᏂᏧᏏᏃ	-10.1763
▁ᏫᏄ	-10.1765
▁ᎠᏫᏅ	-10.1768
▁ᏭᎷᏤᎢ	-10.1774
ᎾᎵ	-10.1791
▁ᎣᏓᎸᎢ	-10.1793
▁ᏚᏁ	-10.1795
▁ᏦᏏ	-10.1797
▁ᎾᏋᏁᎸ	-10.1809
▁ᎤᎾᏓᏅᏎ	-10.1812
▁ᎢᏥᏔᏲ	-10.1821
ᎵᎹ	-10.1845
ᎦᏁᎳᏅᎯ	-10.1853
ᏟᏐᏗᏱ	-10.1866
ᎵᏯ	-10.1871
ᏬᏂᎯᏍᏗ	-10.1874
▁ᎪᎢ	-10.1879
▁ᏄᏅᏁ	-10.1895
ᎦᏚᎩ	-10.1898
▁ᎪᏙ	-10.1913
▁ᏌᏚ	-10.1918
ᏓᎵᏓᏍᏗ	-10.1921
ᏂᏫ	-10.1929
▁ᎤᏄ	-10.1929
ᎶᎢ	-10.1939
ᎸᏫᏍᏓᏁᏗ	-10.1946
ᏍᎪᎯ	-10.1948
ᎦᏚ	-10.1949
ᎡᎸᎩ	-10.195
▁ᎹᎵ	-10.1959
▁Ꮟ	-10.1961
ᎳᏁ	-10.1967
ᏅᏩᏍᏗᏉ	-10.1968
ᏍᎦᎩ	-10.1973
ᏗᏍᎬᎩ	-10.1973
ᏔᏅᎢ	-10.1973
ᎪᏪᎳᏅᎯ	-10.1981
ᏅᎦᎸ	-10.1984
▁ᎤᎾᎵᎪᏒ	-10.2009
ᏔᏲᏎᎴ	-10.2016
ᏂᏳ	-10.2041
ᏙᎵ	-10.2041
▁ᏣᏓ	-10.2046
▁ᎤᏩᏔᏅ	-10.2081
ᎬᎪᏩᏛᏗ	-10.2088
▁ᏤᎲ	-10.2144
ᎵᏍᏗᏱ	-10.2145
ᏂᏐᏗᏱ	-10.2145
ᎳᎻ	-10.215
ᏥᎾᏝᎢ	-10.2157
ᎪᎵᏯ	-10.2166
▁ᏈᎵᎩᏃ	-10.2175
ᎥᎩ	-10.2177
ᎦᎸ	-10.2187
▁ᎤᎾᏄᎪᏨ	-10.2191
ᏑᏰᏒ	-10.2192
▁ᎤᏓᏅ	-10.2195
ᏂᏓᏍᏗᏱ	-10.2201
ᎢᏍᏗᏍᎨᏍᏗ	-10.2203
▁ᏂᏨ	-10.2208
▁ᏥᏂᎨᎬᏁ	-10.2224
▁ᏥᏯ	-10.2228
ᏳᎯ	-10.2239
ᎿᎥᎢ	-10.2244
ᏗᏯ	-10.2246
▁ᎤᏩᏛᎲ	-10.2248
ᏴᎵ	-10.2255
ᏱᏃ	-10.2261
ᎯᏃ	-10.2278
▁ᎪᏢ	-10.2278
ᏢᏗ	-10.2282
ᎾᏃ	-10.2282
ᏥᏃᎮᏍᎩ	-10.2328
▁ᏑᎾᎴ	-10.2332
ᏣᏍᎦᎩ	-10.234
▁ᏫᏗ	-10.2349
ᏗᎦᏛᎯ	-10.2349
ᏟᏯ	-10.2361
▁ᎠᎾᎵ	-10.2361
▁ᎤᏬᎯᏳ	-10.2383
Ꮗ	-10.2385
▁ᏄᎾᏛᏁᎸ	-10.2388
ᏔᏲᏎᎸᎩ	-10.2407
▁ᎢᏦ	-10.2407
▁ᎪᎩ	-10.2409
▁ᎢᎭ	-10.2424
▁ᎠᎩᏇᏓᎸ	-10.2427
ᎧᎯᏯᏍᏗ	-10.243
▁ᎢᏛᏗᏍᎬ	-10.2439
▁ᎬᏩᎪᏩᏛ	-10.2443
▁ᏚᏂᎸᏫᏍᏓᏁᎸ	-10.2446
ᏓᎴ	-10.2446
ᏱᎩ	-10.245
▁ᎢᏣᏚᎵᏍᎬ	-10.245
▁ᏱᎨᏐ	-10.2451
▁ᎤᎦᏔᎲᏒ	-10.2452
ᏙᎳᏅᏍᏗ	-10.2456
▁ᎤᏬᎯᏳᏒ	-10.2456
▁ᎤᏂᏍᏆᏂᎪᏎ	-10.2456
ᏍᎦᎢᎲᎾ	-10.2462
▁ᎢᏳᏍᎩᏂᏃ	-10.2473
ᏯᏅᏛ	-10.2483
ᏄᏣ	-10.2483
▁ᏯᏛᏅ	-10.2489
▁ᎠᏁᎮ	-10.2494
ᏲᎯᏏ	-10.2495
▁ᎠᏍᎫᏕᏍᏗ	-10.2498
▁ᎠᎫᏴᏗ	-10.25
▁ᎠᏓᏪᎵᎩᏍᎩ	-10.2502
▁ᎧᏅᏑᎸ	-10.2502
▁ᏂᏚᎾᏓᏪᏎᎸᎩ	-10.2502
▁ᏙᏛᎾᏓᏡᏔᏂ	-10.2502
▁ᏚᏟᎶᏍᏓᏁᎸᎩ	-10.2502
▁ᎤᏓᏑᏱ	-10.2502
▁ᏓᎵᏍᏗᎳᏁᎬ	-10.2502
▁ᎰᏌᎾ	-10.2502
▁ᏂᎪᎯᏳᎲᏍᎬᎾ	-10.2502
▁ᏦᏍᏓᏓᏅᏟ	-10.2502
▁ᎤᏗᏛᎮ	-10.2502
▁ᏗᎪᏪᎶᏗ	-10.2502
▁ᎯᏯᏛᎥᎦ	-10.2502
▁ᎥᏓᎷᎶᏗ	-10.2502
▁ᎤᏤᎷᎯᏒᎩ	-10.2502
▁ᏗᏂᏅᏌᏗ	-10.2502
▁ᏂᏕᏣᏛᏁᎮᏍᏗ	-10.2502
▁ᏅᏓᎬᏩᏍᏓᏩᏛᏛ	-10.2502
▁ᏂᏥᎪᎸᎾ	-10.2502
▁ᏗᏥᎨᏫ	-10.2502
▁ᎤᎾᏙᎴᎰᎯᏍᏙᏗ	-10.2502
▁ᎤᎵᏬᏨᎯ	-10.2502
▁ᏅᏩᏙᎯ	-10.2503
▁ᏛᏓᎴᎲᏍᎬᎩ	-10.2503
▁ᎪᎯᏳᎲᏍᎨᏍᏗ	-10.2503
▁ᏭᏂᎶᎯᏍᏗᏱ	-10.2503
▁ᎡᏈᎳ	-10.2503
▁ᎨᎴᏏᏱ	-10.2503
▁ᎣᎨᏙᎸ	-10.2503
▁ᎡᎶᏗᏏ	-10.2503
▁ᎾᏂᏪᏍᎬᎢ	-10.2503
▁ᏕᏥᎧᎿᏩᏗᏙᎮᏍᏗ	-10.2503
▁ᏗᎧᎿᏩᏕᎩ	-10.2504
▁ᎰᏪᎸᎦ	-10.2504
▁ᎤᎾᎵᏏᎾᎯᏍᏗ	-10.2504
▁ᏂᏥᏍᎦᎢᎲᎾ	-10.2504
▁ᏅᏓᏳᏅᏏᏛ	-10.2505
▁ᏄᏓᏑᏴᎾ	-10.2505
▁ᏓᏥᎷᏥ	-10.2505
▁ᎡᏣᏅᏏᏓᏍᏗ	-10.2505
▁ᎢᏣᏛᎬᎦ	-10.2505
▁ᏚᎾᎧᏛ	-10.2505
▁ᎤᎬᎥᏍᎩ	-10.2505
▁ᎤᏲᎱᎯᏍᏗ	-10.2506
▁ᎢᏥᎪᏩᏘᏍᎨᏍᏗ	-10.2506
▁ᏗᏥᎧᎿᏩᏛᏍᏗᏱ	-10.2506
ᏗᏂᏍᎪᏂᎯ	-10.2506
▁ᎤᏕᏁᎸᎯ	-10.2506
ᏍᎪᎵ	-10.2506
▁ᎠᏂᏈᎷ	-10.2506
▁ᎢᏥᏪᏍᏗᏱ	-10.2506
▁ᎢᏣᏓᏅᏟ	-10.2506
▁ᏂᎦᎵᏍᏔᏂᏙᎲ	-10.2507
▁ᎤᏏᏙᎵ	-10.2507
▁ᏗᎧᏃᏗᏱ	-10.2507
▁ᎡᏥᎾᏰᏍᎨᏍᏗ	-10.2507
▁ᏥᏄᏍᏕ	-10.2507
▁ᏥᏂᎦᎵᏍᏗᎭ	-10.2507
▁ᏓᏂᏴᎨᏍᏗ	-10.2508
▁ᏣᏓᎸᎩ	-10.2508
▁ᎬᏬᎯᏳᎲᏍᎩ	-10.2508
▁ᎢᏥᎧᎵᏨᎯ	-10.2508
▁ᎣᏩᏒ	-10.2508
▁ᎠᏓᏪᎵᎩᏍᎬ	-10.2509
▁ᎢᏥᏯᎡᏍᏗ	-10.2509
▁ᎠᎾᏛᎬᎦ	-10.2509
▁ᎠᏂᎶᎻ	-10.251
▁ᎤᏂᎬᎥᏍᎬ	-10.251
▁ᏥᏚᎸᏫᏍᏓᏁᎭ	-10.251
▁ᎾᎪᏔᏅᎾ	-10.2511
▁ᏳᏪᎭ	-10.2511
▁ᎯᎷᎦ	-10.2511
▁ᎠᏣᏪᏐᎸᏍᏙᏗᏱ	-10.2512
▁ᎡᏥᏅᏏᏓᏍᏗ	-10.2512
▁ᎠᎦᎫᏴᎡᏗ	-10.2513
▁ᎠᏕᎸᏓᎶᏂᎨ	-10.2513
▁ᏗᏗᏰᎸ	-10.2514
▁ᏧᎾᏓᎵᎢ	-10.2514
▁ᎢᏦᎯᏳᏗᏱ	-10.2515
ᏓᎵ	-10.2516
▁ᏕᎬᏗᏍᎬ	-10.2516
▁ᎠᏩᏛ	-10.2517
▁ᎤᎾᏓᏙᎵᏍᏓᏁᎸᎩ	-10.2517
▁ᎤᎷᏤᎴ	-10.2517
▁ᎠᏍᏕᎵᏍᎩ	-10.2517
▁ᏚᏕᏲᏁ	-10.2518
▁ᏗᎪᏢᏅᎯ	-10.2518
▁ᎤᏛᏅᏗᎦᎳᏫᎢᏍᏗᏱ	-10.252
▁ᎤᎲ	-10.2521
▁ᏏᏆᏏ	-10.2521
▁ᎦᎪᎵᏍᏗ	-10.2522
▁ᎤᎾᏛᎦᏁᎢ	-10.2523
▁ᎫᎴ	-10.2524
ᎯᎯ	-10.2525
▁ᎤᏓᏅᏍᏗᏱ	-10.2526
ᏫᏂᏗᏢ	-10.2527
▁ᎯᏄᎪᎢ	-10.2528
▁ᎤᎵᏍᏗᏳ	-10.2528
▁ᏂᎨᏳᏎᏍᏗ	-10.2528
▁ᏓᏥᏁᎵ	-10.253
▁ᎧᏃᎮᏍᎬᎩ	-10.253
▁ᎨᏥᏅᏒᎯ	-10.2531
▁ᎤᏃ	-10.2532
▁ᎤᏂᏰᎸᎭ	-10.2534
▁ᎤᏁᏉᏨᎯ	-10.2537
ᎲᏍᎪᎢ	-10.2538
▁ᏥᏤᎭ	-10.2539
▁ᏣᎢᏎᏍᏗ	-10.2539
▁ᎣᎵᏩᏲ	-10.2541
▁ᏗᏣᎧᏅᎦ	-10.2543
▁ᎢᏥᏁᏗ	-10.2544
▁ᎬᏬᎯᏳᏅᎩ	-10.2545
▁ᎤᎾᏓᏑᏴ	-10.2547
▁ᎤᏲᎱᏎᎮᏍᏗ	-10.2547
▁ᏣᏓᏅᏛᎢ	-10.2548
▁ᎤᎩᎵ	-10.2549
▁ᎡᏥᏁᎸᎯ	-10.2549
▁ᎤᏁᏅᏒᎩ	-10.2549
▁ᎠᎩᎾᏫ	-10.2552
▁ᏂᏣᏛᏁᎭ	-10.2552
▁ᎤᏁᏉᏨ	-10.2557
▁ᎢᏨᏙᏗᏱ	-10.2557
ᎨᎳᏍᏙᏗ	-10.2559
▁ᎢᏳᎾᎵᏍᏓᏁᏗᏱ	-10.2559
▁ᎤᏚᎵᏍᎨ	-10.256
▁ᏚᏟᎶᏍᏓᏁᎴᎢ	-10.2562
▁ᎤᏴᎸᎩ	-10.2562
▁ᏄᎾᏛᏁᎸᎢ	-10.2562
▁ᏭᏓᎪᎾᏛᏛ	-10.2567
▁ᎠᏥᏅᏏᏛ	-10.2567
▁ᎤᏁᏤᎸᎩ	-10.2569
▁ᎠᎧᎵᏬᎯ	-10.2569
▁ᎤᎵᏍᎪᎸᏔᏅᎯ	-10.257
▁ᎤᎶᎯᏍᏗᏱ	-10.2573
▁ᏧᎴᎯᏐᏗ	-10.2574
▁ᏓᏟᎶᏍᏛᎢ	-10.2577
▁ᏓᏫᏒᎢ	-10.2578
▁ᎤᏕᏗᏱ	-10.258
▁ᎯᏬᏂᏍᎬ	-10.2581
▁ᎠᎾᏓᏙᎵᏍᏗᏍᎬ	-10.2587
▁ᎤᏪᏅᏎᎢ	-10.2589
▁ᎡᏍᎦᏂ	-10.2591
▁ᎢᏣᎴᏂᏙᎲ	-10.2591
▁ᏗᏁᎯ	-10.2594
▁ᎤᎾᏛᎪᏗᏱ	-10.2594
▁ᎤᎾᏂᎩᏒ	-10.26
▁ᏂᎦᎵᏍᏗᏍᎬ	-10.2601
▁ᏂᏣᏛᏁᎲᎢ	-10.2601
▁ᎦᏅᏅᎢ	-10.2602
▁ᏲᎩ	-10.2604
▁ᎨᎵ	-10.2605
▁ᏄᏓ	-10.2606
▁ᏅᏓᎬ	-10.2611
▁ᏏᎦ	-10.2612
▁ᎠᏫᏒᎯ	-10.2613
▁ᎤᏍᏓᏩᏗᏙᎯ	-10.2614
▁ᎦᎢᏒ	-10.2618
ᎠᏴ	-10.2619
▁ᎩᎾᎵ	-10.2626
▁ᎤᏪᏴ	-10.2637
▁ᏚᏛᏛᏁ	-10.2638
ᏙᎰ	-10.264
▁ᎠᏂᏍᎦᎢᎮ	-10.265
▁ᎤᎾᏙᎴᎰᏒᎩ	-10.2651
▁ᎦᏛᎬᎢ	-10.2656
ᏩᏗᏒ	-10.2657
ᎧᎭ	-10.2661
ᏉᏰᏂ	-10.2662
▁ᎤᏃᎯᏳᎯ	-10.2665
▁ᏥᏅᎵ	-10.2673
ᎦᎵᏍᏙᏗᎭ	-10.2676
▁ᎠᎵᎮᎵᏤᏗ	-10.2697
▁ᎢᏓᏙᎴᎰᎯᏍᏗ	-10.2699
▁ᏦᏒ	-10.2705
▁ᎤᏴᎸ	-10.2708
▁ᏥᎦ	-10.2708
▁ᎠᏁᎮᏍᏗ	-10.2709
▁ᏱᏙᎨ	-10.2719
▁ᎤᎾᏄᎪᏫᏒ	-10.272
ᏁᎲᎢ	-10.2722
▁ᏚᏂᏲ	-10.2728
ᎰᎵ	-10.2736
▁ᎤᏂᎪᎲᎯ	-10.2743
ᏯᎥᎢ	-10.2758
▁ᎠᏂᏍᎦᎾᎢ	-10.2766
▁ᎤᎴᏁ	-10.2787
ᎪᎵᏰᏍᎨᏍᏗ	-10.2797
▁ᎯᏰᎸ	-10.2806
▁ᎤᏁᏤᎢ	-10.2837
▁ᎠᎾᎵᏥᏙᎲᏍ	-10.2857
▁ᎥᏝᏍᏗ	-10.2877
▁ᏌᎵ	-10.2885
▁ᎬᎿ	-10.289
ᏥᏯᎥᎢ	-10.2907
ᎹᏂ	-10.2915
ᏓᏅᏖᏛ	-10.2922
▁ᏃᎦ	-10.2927
▁ᎤᏅᏏ	-10.2933
▁ᏚᏳ	-10.2941
▁ᎤᏓᎨᏳ	-10.2952
▁ᏩᏯ	-10.2967
ᏅᏁᎮᏍᏗ	-10.2969
ᏍᏕᎵᎭ	-10.2983
ᏗᏍᎬᎢ	-10.2987
ᎩᏲᎱᏒᎯ	-10.2989
▁ᏕᎦᏄᎪᏫᏍ	-10.2993
▁ᎦᏌ	-10.2996
▁ᏧᏩ	-10.3012
▁ᏱᏗᏣ	-10.3015
ᏂᏌᏁ	-10.3038
▁Ꮂ	-10.3042
▁ᏴᏛ	-10.3043
▁ᏯᏃ	-10.3057
ᎯᏰᏃ	-10.3062
▁ᏥᏂ	-10.3063
▁ᏓᎾᏓ	-10.3067
▁ᏚᏙᎥᎢ	-10.3078
▁ᎤᏂᏁ	-10.3082
▁ᎬᏩᎦ	-10.3093
▁ᏰᎵᎦ	-10.3094
ᎦᏴᎵᎨ	-10.3103
▁ᎠᏁᎲᎩ	-10.3105
ᏅᏁᏗᏱ	-10.3118
ᏛᏁᏗᏱ	-10.3121
▁ᎤᏁᏙᎸ	-10.3124
ᏓᏎᎪᎩᏍ	-10.3129
ᎦᏔᎰ	-10.313
▁ᎠᎺ	-10.3134
ᎩᏎ	-10.3138
ᏨᏍᏗᏱ	-10.3145
▁ᎢᏣᏓᏤᎵ	-10.3174
ᏅᏟ	-10.3178
▁ᏧᏍᏗ	-10.3188
▁ᎤᏂᏃᎮᎸ	-10.3192
▁ᎢᏣᏛᏓᏍᏓ	-10.3208
▁ᏗᏍᎩ	-10.322
ᏡᏗᏍᎩ	-10.3225
▁ᏍᏗᏫ	-10.3232
▁ᎧᏁᎢᏍ	-10.3233
▁ᎤᏪᏅᏎ	-10.3247
▁ᎧᏱ	-10.3257
ᏓᏅᏓᏗᏍᏗᏱ	-10.3283
▁ᎤᏂᎷᏤᎸ	-10.3285
▁ᎤᏛᏃ	-10.3289
▁ᎦᏅᎨ	-10.329
▁ᏧᏚᎪ	-10.3292
ᏓᏅᏙ	-10.3297
▁ᏫᏚᏂ	-10.3302
▁ᎦᎬᏩ	-10.3312
▁ᏆᏂ	-10.3322
ᏔᎳᏬᎯᏍᏗ	-10.3337
▁ᎠᏁᏙᎮ	-10.3341
ᎨᏎᎢ	-10.3351
▁ᏚᎴᏁ	-10.3364
▁ᎠᏂᎦᏴᎵᎨ	-10.3366
▁ᎤᏂᏰᎸᏅ	-10.3368
▁ᎤᏲᎱᏎ	-10.3371
▁ᎤᏃᎯᏳᏒ	-10.3371
ᏯᎢ	-10.3373
ᏥᏯᎵᎡᎵᏤᎭ	-10.3377
▁ᎤᏂᎩᏒ	-10.3381
▁ᏓᏓᏁᎸ	-10.3383
ᏲᎯᏍᏗ	-10.3388
ᏚᎦ	-10.3393
ᏠᏯᏍᏗ	-10.3397
▁ᎤᎦᎾ	-10.3401
ᎯᏓᏍᏗᏱ	-10.3402
▁ᎠᏓᏙᎵᏍᏙᏗ	-10.3402
▁ᏣᎾᏫ	-10.3403
ᏂᎯ	-10.341
▁ᎡᏙᏙᏱ	-10.3411
▁ᎢᎳᎩᏳ	-10.3411
▁ᏗᎬᏩᏂᏰᎯ	-10.3411
▁ᎴᎣᏗᏏᏯ	-10.3412
▁ᏥᏍᎪᏴ	-10.3412
▁ᎢᏯᏓᏅᏖᏗ	-10.3412
▁ᏗᏥᏲᎱᏒᎯ	-10.3412
▁ᎡᏣᏙᎵᎩ	-10.3412
▁ᏧᎸᏫᏍᏓᏁᎸᎯ	-10.3413
▁ᎤᏂᏁᎫ	-10.3413
▁ᏧᎾᏘᏂᏙᎯ	-10.3414
▁ᎠᏍᏆᎸᎲᎭ	-10.3414
▁ᎢᎬᏛᏁᏗ	-10.3414
▁ᏄᎾᏛᏁᎵᏙᎸ	-10.3415
▁ᏏᏐᎢ	-10.3415
▁ᏗᎩᎸᏫᏍᏓᏁᏗᏱ	-10.3416
▁ᏓᏤᎵᏍᏛ	-10.3416
▁ᏥᏓᎩᎸᏫᏍᏓᏁᎭ	-10.3417
▁ᏧᏁᎵᏁ	-10.3418
▁ᏚᏬᏁᏔᏅᎩ	-10.3418
▁ᏱᏄᎵᏍᏔᏅ	-10.342
▁ᎠᎦᏍᎦᏂ	-10.3421
▁ᎠᏂᎩᏏ	-10.3422
▁ᎤᏂᎵᏅᏨᎯ	-10.3424
▁ᎬᏔᏲᏎᎭ	-10.3426
▁ᎢᏳᏛᏁᏗ	-10.3431
▁ᎢᎦᎵᏍᏙᏗᏱ	-10.3432
▁ᎠᎦᏔᎾᎢ	-10.3433
▁ᏬᎩᎷᏨᎩ	-10.3438
▁ᎢᏥᎪᏩᏘᎭ	-10.3438
▁ᏚᏁᎴ	-10.3439
ᏫᏎᎴᎢ	-10.3439
▁ᏂᎪ	-10.344
▁ᎠᏋᏔᏅᎯ	-10.3447
ᏕᏅ	-10.3447
▁ᎤᏂᏩᏛᎮ	-10.3452
▁ᎤᏅᏙᏗᏱ	-10.3452
ᎦᎵᎷᎨᏍᏗ	-10.3453
▁ᏫᏥᎦᏛᎢ	-10.3454
▁ᎥᎦᏥᎪᎥᎩ	-10.3456
ᎴᏂ	-10.3458
▁ᏯᏗᎭ	-10.346
▁ᎠᏂᏯᎢ	-10.3462
▁ᎤᏍᏕᎸᏗᏱ	-10.3463
▁ᎪᏢᏒᎢ	-10.3464
▁ᏙᏧᎾᏓᏅᏛᎢ	-10.3465
ᎢᏍᏙᏗ	-10.3467
▁ᎠᎦᏅᎩ	-10.3469
ᏂᏬᏂᎯᏍᏗ	-10.3471
▁ᎤᏃᎯᏳᏒᎢ	-10.3472
▁ᏕᎧᏁᏤ	-10.3497
▁ᎠᏂᏍᎦᎢᎲ	-10.35
ᏓᏙᎵᏍᏗᏍᎬ	-10.3501
▁ᏄᏛᏁᎴᎢ	-10.3511
▁ᎤᎿᎥᎢ	-10.3514
▁ᏭᏴᎸ	-10.3514
▁ᎢᏥᏁᎫ	-10.3515
▁ᎠᏰᎸᏒᎩ	-10.3515
▁ᎬᏩᏃᏁᎴ	-10.3515
▁ᎤᏂᎾᏫ	-10.3518
▁ᏃᎩ	-10.3523
ᏯᏅᏗ	-10.3523
ᏓᏁᏗᏱ	-10.3528
ᏛᏁᎵᏓᏍᏗ	-10.3537
▁ᎤᏬᎸᎢ	-10.3544
▁ᎤᏰ	-10.3557
▁ᏐᎢᏱ	-10.3558
▁ᎬᏩᎷᏤᎴᎢ	-10.356
▁ᏗᏣᏓᎴᏅ	-10.3561
ᏆᏛᏁᏗ	-10.3565
▁ᎤᎶᎩᎸᎢ	-10.3567
ᏗᏔᏍᏗ	-10.3583
▁ᎤᎬᏩᎸ	-10.3614
ᎶᏗ	-10.3641
ᏍᏆᏓᏱ	-10.3643
▁ᎤᏪᏙᎸ	-10.3644
ᏁᏨ	-10.3655
▁ᏗᎦᎪᏙᏗ	-10.3659
ᏤᎲᎾ	-10.3661
ᏍᏆᏛ	-10.3675
▁ᏳᏓᏑ	-10.3678
▁ᏂᎦᏛᏉ	-10.3684
ᎸᏉᏔᏁ	-10.3695
ᎵᏱᎶᎯᏍᏗ	-10.3697
ᏍᏙ	-10.3697
▁ᎠᎾᎵᎮᎵ	-10.3699
ᎸᏉᏔᏂ	-10.3703
▁ᎠᎾᏓ	-10.3715
▁ᎤᏂᎷᏤᎢ	-10.3716
ᎲᎯ	-10.3722
ᎦᏬᏂᎯᏍᏗ	-10.3728
▁ᏂᏙᏓᏳ	-10.3731
▁ᎠᏙ	-10.3736
ᏅᏗ	-10.3759
▁ᎢᏥᎷᏤᎸ	-10.3762
ᏘᏃᎯᏍᏗᏱ	-10.3762
ᏓᎳ	-10.3796
▁ᏦᎦ	-10.381
▁ᎤᏲᏉ	-10.3835
▁ᏭᎷᏤ	-10.3838
ᏍᏗᏰᏗᎭ	-10.3843
▁ᎠᏓᎪᎵᏰᏍ	-10.3857
ᏛᏁᎮᏍᏗ	-10.3857
▁ᏄᏚ	-10.3858
ᏍᏗᎭ	-10.3859
▁ᎦᏛ	-10.3865
▁ᎤᏴ	-10.3868
ᏂᎳᏍᏓᎸ	-10.3872
▁ᏗᏅᏂ	-10.3873
ᎩᏅᏏᏛ	-10.3875
▁ᎢᏳᎾᎵᏍᏔᏅ	-10.3884
ᏍᏉ	-10.389
ᎪᎲᎯ	-10.3898
▁ᎤᏓᏅᏒ	-10.3907
▁ᎠᏏᏴᏫᏉ	-10.3913
▁ᏄᏅ	-10.3918
▁ᏱᏅᏩᏍᏗ	-10.392
▁ᎡᎳᏪᏱ	-10.3928
▁ᏴᎨᏥ	-10.3929
ᎠᏍᎦᏯ	-10.393
▁ᎠᏫᏒ	-10.3936
ᎵᏒ	-10.3939
ᏥᏅᎵ	-10.3971
▁ᎠᏍᏚ	-10.3979
▁ᏧᏄᏬ	-10.3986
Ꮇ	-10.3996
▁ᏚᎾᎵ	-10.4002
▁ᏓᏂᎸ	-10.4021
ᎲᏍᎬᎾ	-10.4031
▁ᎡᎦ	-10.4042
ᎪᏩᏘᏍᎪ	-10.4042
▁ᎢᏨᏯᎵᏥᏙᏁᎸ	-10.4054
ᎠᏕᎸ	-10.4056
ᏓᏁᎸ	-10.4065
▁ᎠᏚᎢᏍᏔᏅ	-10.4073
▁ᎤᏂᏴᎸ	-10.4083
▁ᏧᏲᎯᏎᏗ	-10.4089
ᏅᏨ	-10.4108
ᏓᏎᎪᎩ	-10.4114
ᏂᎦᎥ	-10.4122
ᎤᏁᎳᏅᎯᏰᏃ	-10.4147
▁ᏚᏙ	-10.4151
▁ᏗᎩᎦ	-10.416
ᏰᎮᏍᏗ	-10.4164
▁ᎤᎧᎵ	-10.4165
▁ᏟᏗ	-10.4168
ᎵᏂᎩᏛ	-10.4193
▁ᎤᎶᏗ	-10.4194
▁ᎠᏚᏓᎴᏍᏗ	-10.4207
▁ᎠᏗᏔᏍᏗ	-10.4214
ᏍᏚᎢᏍᏗ	-10.4214
▁ᏥᏩᎾᎦ	-10.4229
ᎵᏈ	-10.424
ᏥᎦᏔᎲᎾ	-10.4246
▁ᎢᎧᏁ	-10.4266
▁ᎤᏍᏆ	-10.427
▁ᏥᎬᏩ	-10.4286
▁ᎢᎩᏰᎸ	-10.4308
▁ᏄᏂᏪᏎ	-10.4309
▁ᏗᏥᏲᎯ	-10.4313
ᎨᏥᏁᏗᏱ	-10.4315
ᏓᏅᏖᏍᎨᏍᏗ	-10.4317
▁ᎣᎦᏛᎦᏅ	-10.4318
▁ᎢᏳᏅ	-10.432
ᎢᎦ	-10.4324
ᎬᏅ	-10.4329
▁ᎢᎳ	-10.4329
ᏅᎦᎸᏛ	-10.4331
▁ᏭᏓᎪᎾᏛ	-10.4333
▁ᎠᎩᎲ	-10.434
ᏍᏕᎸᎯ	-10.4347
▁ᎤᏌᎯᎸ	-10.435
ᎷᏤᏗᏱ	-10.4351
▁ᏙᏧᎾᏓᏅᏛ	-10.4351
▁ᏕᎦᏍᎩᎸ	-10.4352
▁ᎤᏪᏍᎩᎸ	-10.4353
▁ᏚᏓᏘᎾᎥ	-10.4353
ᏍᏓᏁᎸᎯ	-10.4354
▁ᏭᏴᎴ	-10.4355
▁ᎠᏂᏃᎮᏍᎬ	-10.4355
▁ᎢᎩᏍᎦᏅᏨ	-10.4356
▁ᎠᏆᏚᎵ	-10.4357
▁ᎡᏙᎮ	-10.4359
▁ᎠᏂᏙᎾᎡ	-10.436
▁ᎤᏂᎯ	-10.436
▁ᎠᏐᏴ	-10.4361
▁ᎤᏄᏩᎥ	-10.4366
▁ᏧᏓᏅᏛ	-10.4366
▁ᎠᏰᏙᎳᏛ	-10.4368
▁ᎢᏣᏛᎦᏅ	-10.4368
▁ᎤᏪᎷᏁ	-10.4386
▁ᎤᎵᏂᎩᏗ	-10.4389
ᏚᎸᏅᏗ	-10.4395
▁ᎤᏬᎯᏨ	-10.4397
▁ᏭᏂᎷᏤ	-10.4398
▁ᏥᏁᎬ	-10.4399
▁ᏗᏁᎲ	-10.4401
▁ᎤᎩᎵᏲᎢᏍᏗ	-10.4403
ᏠᎾᏍᏛᎾ	-10.4403
▁ᎢᏯᏆᏛᏁᏗ	-10.4405
▁Ꭾ	-10.4408
▁ᏕᏣᏓᏂᎸᏨ	-10.4408
▁ᎢᏣᏛᏅᎢᏍᏙᎢ	-10.4411
▁ᏓᏇᎪᏔᏅ	-10.4411
▁ᏗᎬᏩᎩᏨᏗ	-10.4411
▁ᏗᏂᎬᏓᎨᏂ	-10.4411
▁ᎢᏯᏅᏁᎯ	-10.4411
▁ᎾᎵᏍᏓᏴᎲᏍᎬᎾ	-10.4411
▁ᏂᏓᏕᏘᏴᎯᏒ	-10.4411
▁ᏄᏓᏓᎸᎾ	-10.4411
▁ᎥᏆᎸᎢᏛ	-10.4411
▁ᏫᏂᎦᎵᏍᏙᏓ	-10.4411
▁ᏚᏂᏏᏂᏙᎸ	-10.4411
▁ᎢᏯᏆᎵᏍᏙᏗᏱ	-10.4411
▁ᏑᏓᎳᏍᎪᎯ	-10.4411
▁ᎠᏟᎶᎥ	-10.4411
▁ᏓᏲᏣᏛᏁᎵ	-10.4411
▁ᎦᎵᏆᏍᎪᎯ	-10.4411
▁ᏧᏅᎨᏫ	-10.4411
▁ᏥᏕᏣᎪᎲᎩ	-10.4411
▁ᎡᏗᏂᏱ	-10.4411
▁ᏂᏗᎨᏥᎾᏝᎥᎾ	-10.4411
▁ᏓᏂᎶᏄᎮᏍ	-10.4411
▁ᏗᏓᎴᏅᏗᏍᎩ	-10.4411
▁ᏚᎦᏒᏍᏛ	-10.4411
▁ᏕᎭᏓᏅᎡᎮᏍᏗ	-10.4411
▁ᏅᏓᏣᏓᎴᏅᎯ	-10.4411
▁ᏗᎾᏓᏲᏁᎯ	-10.4411
▁ᎢᎪᏂᏯ	-10.4411
▁ᎤᏁᎢᎸᏗ	-10.4411
▁ᏱᏂᎦᏛᏁᎭ	-10.4411
▁ᏗᎪᏏᏏᏍᎩ	-10.4411
▁ᏗᏂᎧᎿᏩᏕᎩ	-10.4411
▁ᎠᏉᎯᏳᎲᏍᎨᏍᏗ	-10.4411
▁ᎠᏂᎪᎲᎭ	-10.4411
▁ᏣᎫᎪᏓᏁᏗ	-10.4411
▁ᏓᏅᏩ	-10.4412
▁ᏗᏟᏍᏗ	-10.4412
▁ᎤᎾᏢᏉᏗ	-10.4412
▁ᎠᎩᏍᏓᏩᏕᎨᏍᏗ	-10.4412
▁ᎠᏓᎦᎵᏍᏓᏗᏍᎩ	-10.4412
▁ᎣᏣᎵᎡᎵᏤ	-10.4412
▁ᎠᎹᏳᎶᏗ	-10.4412
▁ᎨᎻᎵ	-10.4412
▁ᏱᏣᏞᎨᏍᏗ	-10.4412
▁ᏗᏥᎦᏙᎵ	-10.4412
▁ᏫᎨᏥᏯᏅᏛ	-10.4412
▁ᎢᏣᏛᎩᏍᎨᏍᏗ	-10.4412
▁ᏕᏥᏃᎩᏍᎨᏍᏗ	-10.4412
▁ᏣᏃᏍᎩᏒᎩ	-10.4412
▁ᏅᏓᎬᏁᎵ	-10.4412
▁ᏕᏥᏙᎨᏍᏗ	-10.4412
▁ᏅᏓᏨᏁᎵ	-10.4413
▁ᎡᎭᎦᏔ	-10.4413
▁ᎤᏂᏲᎢᏎᎸᎯ	-10.4413
▁ᏕᏥᏁᏤᎮᏍᏗ	-10.4413
▁ᎠᏂᏰᎪᎩ	-10.4413
▁ᎠᏆᎵᏍᎦᏍᏙᏛ	-10.4413
▁ᎯᏍᎩᏍᎪᎯ	-10.4414
▁ᏂᏨᏴᏁᎸ	-10.4414
▁ᏗᎦᏘᎴᎩ	-10.4414
▁ᏩᎵᏰᎢᎶᎯᎭ	-10.4414
▁ᏥᎦᎷᎯᏍᏗᎭ	-10.4414
▁ᏗᏘᏲ	-10.4415
▁ᎭᏟᏂᎬᏁ	-10.4415
▁ᎢᏳᎾᏓᎳ	-10.4415
▁ᎢᏳᎵᏍᏔᏂᏓᏍᏗ	-10.4415
▁ᎠᏛᎩᏍᎨᏍᏗ	-10.4415
▁ᏳᎨᏳᎭ	-10.4416
▁ᎢᏣᎵᏍᏓᏴᏗᏱ	-10.4416
▁ᏂᏨᏁᎮᏍᏗ	-10.4416
▁ᎠᏓᏛᏗᏍᎩ	-10.4416
▁ᏗᏣᏘᏂᏙᎯ	-10.4416
▁ᎬᏁᏤᎭ	-10.4416
▁ᎠᏂᏍᏓᏩᏕᎩ	-10.4417
▁ᏗᎵᏒᏍᏗ	-10.4417
ᏤᏬᎩ	-10.4417
▁ᎢᏰᏨᏁᎸᎯ	-10.4417
▁ᏧᏕᏲᏅᎯ	-10.4417
▁ᏂᏪᏍᎬᎢ	-10.4417
▁ᎨᏥᏛᎦ	-10.4417
▁ᎢᏥᎦᏔᎲ	-10.4417
▁ᎠᏆᎵᏥᏙᏗᏱ	-10.4417
▁ᏁᏓᏂᎵ	-10.4418
▁ᎠᏥᏅᏩᏅᎯ	-10.4418
▁ᎨᎦᎵᏍᎪᎸᏓᏁᎸᎯ	-10.4418
▁ᎾᏅᏁᎲ	-10.4418
▁ᎢᏨᏃᎮᎮᎸ	-10.4418
ᏔᏲᏎᎭ	-10.4418
▁ᏧᏂᏴᏍᏕᏍᎩ	-10.4419
▁ᎯᏲᏍᏗᏍᎩ	-10.442
▁ᏚᏍᏆᎸᏔᏁ	-10.442
▁ᎬᎩᏁᏉᏤᏗᏱ	-10.442
▁ᎠᏗᏔᏍᎨᏍᏗ	-10.442
▁ᎠᏛᏂᏗᏍᏙᏗ	-10.442
▁ᏧᏬᎳ	-10.442
▁ᎠᏆᏓᏅᏖᏛ	-10.4421
▁ᏓᏂᏄᏙᎬᎢ	-10.4421
▁ᎬᏩᏃᎮᏍᎩ	-10.4421
▁ᏗᎪᏪᎵᏍᎩ	-10.4421
▁ᎤᏁᎷᏁᎢ	-10.4421
▁ᎬᏩᏓᏙᎵᏍᏗ	-10.4421
▁ᎤᏁᎷᎬᎩ	-10.4422
▁ᎤᏓᏙᎵᏍᏓᏁᎴᎢ	-10.4422
▁ᎤᏙᎴᎰᎯᏍᏗᏱ	-10.4422
▁ᏥᏂᎬᏁᎭ	-10.4422
▁ᎢᏣᏛᎪᏗᏱ	-10.4423
▁ᎠᏂᏏᎾᏌᏅ	-10.4424
▁ᎢᏥᏩᏛᏗᏱ	-10.4424
▁ᎠᏰᎳᏍᏗᎦᏅᎯᏛ	-10.4425
▁ᎤᏗᎴᎩ	-10.4425
▁ᎤᏂᏃᎮᎴ	-10.4425
▁ᏙᎩᎸᏫᏍᏓᏁᎲ	-10.4425
▁ᎤᎾᏚᎵᏍᎩ	-10.4425
▁ᎮᏓ	-10.4426
▁ᏂᏣᏪᏒ	-10.4426
▁ᎢᏳᏩᏁᎯ	-10.4426
▁ᏂᎦᏥᏴᏁᎸᎭ	-10.4428
▁ᎡᎦᏔ	-10.4428
▁ᏲᏨᏗᏍᎨ	-10.4428
▁ᎢᏥᎷᏤᏗᏱ	-10.443
▁ᏣᎾᏫᏱ	-10.443
▁ᏭᏂᎶᏒᎩ	-10.443
▁ᎠᏂᏴᎩ	-10.4432
▁ᎠᏓᏙᎵᏍᏙᏗᏱ	-10.4432
▁ᎠᎦᏯᎷᏗ	-10.4433
▁ᎤᏂᏃᎮᏗᏱ	-10.4433
▁ᏕᏥᏁᎸ	-10.4433
▁ᎡᏥᏍᏕᎸᏗᏱ	-10.4433
ᎵᏍᏓᏴᎲᏍᎦ	-10.4434
▁ᏭᏕᎵᎬ	-10.4434
▁ᎠᎨᏲᏅ	-10.4434
▁ᎤᏃᎮᎸᎯ	-10.4435
▁ᎠᏁᎵᏍᎬᎩ	-10.4435
▁ᏅᎵᏌᎵᏉ	-10.4435
▁ᎤᎦᏌᏯᏍᏗᏕᎩ	-10.4435
▁ᎢᏤᎵᎭ	-10.4435
▁ᎠᎦᏛᏅᎯ	-10.4436
▁ᎤᏬᎯᏳᏅᎩ	-10.4436
▁ᎨᏥᏯᏅᏛ	-10.4437
▁ᏧᏓᎴᏁᎢ	-10.4437
▁ᏪᎯ	-10.4437
▁ᎠᏂᎧᎸ	-10.4438
▁ᎣᎦᏓᏅᏔᏩᏕ	-10.4439
ᎫᏴᎡᎵ	-10.444
▁ᏓᎾᎵᏍᏓᏴᎲᏍᎬᎢ	-10.444
▁ᏕᎦᏬᏁᏗᏍᎬᎩ	-10.4441
▁ᎤᏍᏉᎵᏱ	-10.4441
▁ᎨᏥᏍᏕᎸᏗᏱ	-10.4442
▁ᏥᏃᎮᏍᎬ	-10.4443
▁ᏚᏙᏍᏛ	-10.4443
▁ᎠᏴᏓᏆᎶ	-10.4443
▁ᏚᎸᏫᏍᏓᏁᎮᏍᏗ	-10.4444
▁ᎢᎦᎵᎢ	-10.4445
▁ᏰᎵᎦᏯ	-10.4445
▁ᏗᎨᎫᎪᏓᏁᏗ	-10.4446
▁ᏭᏂᏴᎴᎢ	-10.4447
ᏄᎵ	-10.4447
▁ᎤᏂᏚᎲᎢ	-10.4448
▁ᏧᏑᏰᏛ	-10.4449
▁ᎠᏓᏙᎵᏍᏓᏁᎯ	-10.445
ᏎᏃ	-10.4451
▁ᏗᏣᎳᏏ	-10.4452
▁ᏣᏁᏢᏔᏅᎯ	-10.4453
▁ᎹᎾ	-10.4453
▁ᏂᎦᏚ	-10.4453
ᏗᎨᏥᎤᏍᏕᏎᎸ	-10.4454
▁ᎦᏰᏥᏐᏢ	-10.4454
▁ᎤᎵᏍᏙᏔᏅ	-10.4456
▁ᏂᏨᏴᏁᎭ	-10.4456
ᏥᎯᏍᏗ	-10.4456
▁ᎤᎩᏎᎢ	-10.4456
▁ᏗᏨᏲᎯᏎᏗᏱ	-10.4457
▁ᏂᏚᏩᏁᎸ	-10.4457
▁ᏭᎪᎮ	-10.4457
▁ᏗᎦᏓᎨᏳᎯ	-10.4457
▁ᏓᏰᏂ	-10.4458
▁ᎤᏓᏙᎵᏍᏔᏁᎢ	-10.4459
▁ᏎᎳ	-10.4459
▁ᏫᏚᏯᏅᎮᎢ	-10.4459
▁ᏂᎦᏔᎲᎾ	-10.4459
▁ᏅᏛᏛᏁᎵ	-10.4459
▁ᏗᏥᎦᏴᎵᎨᎢ	-10.446
▁ᏕᏥᎸᏉᏕᏍᏗ	-10.446
ᏄᏁᎩᏴ	-10.446
ᏤᏯᏙᏤᎮᏍᏗ	-10.446
▁ᎤᎾᏙᎴᎰᎯᏍᏗᏱ	-10.4462
▁ᎤᎾᏁᎳᏅᎯ	-10.4462
▁ᏂᏚᏩᏁᎸᎩ	-10.4463
▁ᎬᏉᏎ	-10.4464
▁ᎤᏓᏅᏎᎢ	-10.4464
▁ᎠᏏᎾᏌᏅ	-10.4465
▁ᏥᏄᏩᏁᎸ	-10.4465
ᎪᏍᏓᏯ	-10.4467
▁ᏄᎾᎵᏍᏓᏁᎸ	-10.4467
▁ᎤᎩᏒᎩ	-10.4468
▁ᏧᏁ	-10.4469
▁ᎿᏛᏁᎲ	-10.4469
ᏏᏐᏗ	-10.4472
▁ᎣᏣ	-10.4472
▁ᏓᏓᏁᎸᎢ	-10.4481
▁ᎤᏗᏔᏍᏗ	-10.4482
▁ᎠᏂᎦᏘᏯ	-10.4482
▁ᎾᏛᏁᎲᎢ	-10.4483
▁ᎠᏥᎸᎨᎳᏍᏗᏱ	-10.4483
▁ᏈᎵᎩᏱ	-10.4484
▁ᏂᏦᎯᏳ	-10.4485
▁ᎠᏂᎦᏔᎭ	-10.4486
▁ᏚᎾᏓ	-10.4487
ᎨᏳᏅᎾ	-10.449
▁ᎤᏰᎸᏁᎢ	-10.4491
▁ᎠᏂᏙᎾᎥᎩ	-10.4491
▁ᎧᏁᏉ	-10.4491
ᎧᏅ	-10.4491
ᏛᏗᏍᎩ	-10.4492
▁ᎠᏁᏙᎲ	-10.4493
▁ᎤᎾᏫ	-10.4494
▁ᏚᏂᎬ	-10.4496
▁ᏫᏂ	-10.4496
▁ᎡᎳᏂᎬᎢ	-10.4498
▁ᎤᏁᏅᏎᏃ	-10.4505
ᏓᏡᏗᎭ	-10.4506
ᏓᎴᏂᏍᎬ	-10.4506
▁ᎤᎴ	-10.4508
▁ᎤᏂᏲᎭ	-10.4514
▁ᏄᏩᏁᎸᎩ	-10.4515
▁ᎤᏅᏗ	-10.4516
ᏂᏯ	-10.4519
▁ᎠᏔᎴᏒᎢ	-10.4522
ᎦᏙᎥᎯᏍᏗᏱ	-10.4525
▁ᎤᎵᏂᎩᏛᏯ	-10.4525
▁ᎤᏂᏁᏨᎯ	-10.4529
▁ᏌᏉᎯᏳ	-10.4531
▁ᏱᏅᎦ	-10.4533
▁ᎦᏗᎭ	-10.4536
▁ᎦᏓᏅᏖᏍᎬᎢ	-10.4539
▁ᎤᏰᎸᎯ	-10.4544
▁ᎤᏓᏅᏎ	-10.4545
▁ᎤᏂᎲᎢ	-10.4546
ᏥᎶᏏ	-10.4549
▁ᏧᏁᎳ	-10.455
▁ᎠᏍᎦᏅᏨᎢ	-10.4555
▁ᏑᎾᎴᏃ	-10.4556
▁ᎦᏬᏂᏍᎬᎩ	-10.4559
▁ᎠᏂᏁᎬᎢ	-10.456
ᏰᏲᎲᏍᎩ	-10.4565
▁ᏨᏛ	-10.4567
▁ᏫᏓᏂ	-10.457
ᎳᏗ	-10.4574
ᏗᎨᎳᏍᏙᏗ	-10.4575
▁ᏕᏣᏙᎥᎢ	-10.4579
▁ᏖᏒ	-10.4582
▁ᏄᏛᏁᎸᎩ	-10.4584
▁ᎢᏏᎵᏱ	-10.4585
ᏫᏒᎯ	-10.4587
▁ᎡᏦᎢᏳ	-10.4596
ᎦᏍᎪ	-10.4599
▁ᎣᎪᎯᏳ	-10.4601
▁ᏚᏂᎸᏫᏍᏓᏁᎮ	-10.4606
▁ᏙᏧ	-10.4607
▁ᏕᏥᎸᏫᏍᏓᏁᎲᎢ	-10.4607
ᏦᏎᎭ	-10.4609
▁ᏱᏚᏂ	-10.461
▁ᏯᏆᏚᎵ	-10.462
ᎳᏂ	-10.4621
▁ᏍᏆ	-10.4626
ᎷᏥ	-10.463
▁ᏄᏛ	-10.463
ᏥᏍᎦᏨᎯ	-10.463
ᎡᎸ	-10.4632
▁ᏤᎮᏍᏗ	-10.4633
▁ᏙᏱ	-10.4635
▁ᏄᎵᏍᏔᏂᏙᎸᎢ	-10.4648
▁ᎤᎾᎵᏖᎸᏅ	-10.4653
ᎶᎯᏍᏗᏱ	-10.4663
▁ᏅᏔ	-10.4665
▁ᎨᏥᏚᎢᏍᏓᏁᎸ	-10.4674
ᏖᎸᏗ	-10.4682
▁ᎢᏯᏋᏁ	-10.4688
▁ᎤᎷᏨᎯ	-10.4688
▁ᏍᎩᏍᏕᎸ	-10.4689
▁ᏓᏅᏅ	-10.4694
▁ᏓᏓᎿᏩᏍᏛᎢ	-10.4694
▁ᎤᏂᏣᏖᏰᏃ	-10.4697
▁ᎤᏣ	-10.4698
▁ᎤᎿᎸ	-10.4701
▁ᎬᏩᏓ	-10.4704
▁ᏚᏃᎸ	-10.4707
ᎦᏁᎶᏗ	-10.471
▁ᏗᎦᎨ	-10.4718
ᏣᎦᏌᏯᏍᏗᏕᎩ	-10.473
ᏏᏴ	-10.4733
▁ᎬᏒ	-10.4747
▁ᏗᏥᏁᏟᏴ	-10.4751
▁ᎪᏪᎴ	-10.4757
ᏓᏁᎲ	-10.4766
▁ᎦᎪᎨ	-10.4786
ᏄᎪᏨ	-10.4787
ᏁᎢᏍᏓᏁᏗ	-10.479
▁ᎤᏂᎾᏰ	-10.4795
▁ᎢᏨᏯ	-10.481
ᏲᎦᏛᏅ	-10.4814
ᏕᎾ	-10.4816
ᎪᏗᏱ	-10.4821
ᎢᎦᎸᏉᏗ	-10.4824
ᏁᎬ	-10.4829
ᎶᏒᏍᏗ	-10.4835
ᏣᏛᏅᎢᏍᏓᏁ	-10.4836
▁ᎠᏂᎩᎵᏲ	-10.4836
ᏩᏛᎲᏍᏗᏱ	-10.4838
ᎵᏍᎪᎸᏔᏅᎯ	-10.4858
ᎦᏄᎪᏫᏍᎦ	-10.486
▁ᎤᎾᏙᏓᏆᏍᎬᎢ	-10.4862
▁ᏑᏓᎨ	-10.4863
▁ᏗᏛ	-10.4865
▁ᎯᏍᎩᏁ	-10.4867
▁ᎤᏪᎯ	-10.4869
ᏁᏪᏎᎢ	-10.4873
▁ᏱᏓᎾ	-10.4885
▁ᎬᏗᏍᎬᎩ	-10.4892
ᎨᏳᎭ	-10.4893
▁ᎦᏪ	-10.4894
▁ᎤᏓᏴᏍᏗ	-10.4901
ᏈᎵ	-10.4905
▁ᏅᏧᏪᏎ	-10.4912
▁ᎤᎧᎵᎸ	-10.4912
▁ᏣᏕ	-10.4914
▁ᎹᏓ	-10.4942
ᏓᏁᎰᎢ	-10.4943
▁ᎭᏓ	-10.4943
▁ᎢᏥᎲ	-10.4945
▁ᎠᎬᏗᏍᎬ	-10.4949
▁ᎢᏢ	-10.4952
ᎯᏍᏗᏳ	-10.4964
▁ᎤᏂᏍᏆᏛ	-10.4966
▁ᏱᏘ	-10.4966
▁ᎤᏁᎢᏍᏗ	-10.4972
▁ᎡᎳᏪᏱᏉ	-10.5018
▁ᎤᏍᎪ	-10.5021
ᎧᏯ	-10.5024
▁ᏅᏩᎾᏓᎴᎢ	-10.5027
▁ᎤᏁᎳᏅ	-10.5031
▁ᎠᎾᎵᎮᎵᎨ	-10.5038
ᏛᏁᎭ	-10.5061
▁ᎢᎨᏨᏁᏗ	-10.5066
▁ᏱᏣᏓ	-10.5067
▁ᏂᎪᎯᎸᎾ	-10.5068
ᏁᎮᎢ	-10.5068
▁ᏧᎾᏄᎪᏫᏎ	-10.5074
▁ᎦᎾ	-10.5075
▁ᏄᎵ	-10.5077
▁ᏕᏍᎩ	-10.5078
ᏁᏥ	-10.5079
ᏍᏓᏩᏛᏍᏗᏱ	-10.5082
▁ᎬᎪᏩᏛᏗ	-10.5085
▁ᎢᏳᎾ	-10.5097
ᎷᏤᎵ	-10.5099
▁ᎤᎾᎵ	-10.5101
ᏎᏗᏱ	-10.5106
ᏤᏙᎭ	-10.5108
▁ᎤᎬᏫᏳᎯᏍᎩᏂ	-10.5112
▁ᎣᏤᎵ	-10.5121
ᏩᏛᎲᎩ	-10.5123
▁ᎮᏯᏔ	-10.5125
ᏐᏢᎢᏍᏙᏗᏱ	-10.5141
▁ᎠᏂᏯᏫᏍᎩᏃ	-10.5143
ᏂᎩᏛ	-10.5143
ᏅᎦ	-10.5175
▁ᏕᏣᏂᏴ	-10.5177
▁ᏤᏏ	-10.5182
ᏃᏁᎵ	-10.519
▁ᎤᏓᏅᏁ	-10.5197
▁ᏳᏘ	-10.5204
▁ᏓᏯ	-10.5207
ᏗᏍᏓᏱ	-10.5209
▁ᏗᎨᏣ	-10.5222
ᏛᏁᎲ	-10.5226
▁ᎤᏪᎾ	-10.5231
▁ᎤᏂᏩ	-10.5236
ᎳᏫᎢᏍᏗᏱ	-10.5246
ᏯᎠ	-10.5247
▁ᏚᏁᎸ	-10.5247
▁ᎥᏝᏍᎩᏂ	-10.5249
▁ᎨᏂ	-10.5251
▁ᎠᎾᏛ	-10.5254
ᎧᎳ	-10.5259
▁ᎢᏣᏓᏙᎵᏍᏗ	-10.5269
▁ᎤᏓᏰ	-10.5283
▁ᏙᏓᎨ	-10.5301
▁ᎠᏍᏆᏂᎪᏗᏍ	-10.532
ᏲᎢ	-10.5324
▁ᎦᏯ	-10.5326
ᎲᏍᎪ	-10.5337
▁ᏎᎵ	-10.5344
ᎶᏄᎮᏗᏱ	-10.5345
ᏂᏌᏛ	-10.5351
ᏁᏟᏴ	-10.5352
▁ᎠᎩᏰᎸᏅ	-10.5354
ᏓᎴᎾᏍᏗ	-10.5366
▁ᏥᏙ	-10.5368
▁ᎵᏍᏗ	-10.5376
▁ᏂᏚᏪᏎᎸ	-10.5379
ᎸᏗ	-10.538
▁ᏚᏪ	-10.5417
▁ᎪᏢᏒ	-10.5422
▁ᎠᎩᎪᎲ	-10.5443
▁ᏂᎪᎯ	-10.5452
▁ᏳᏃᎵᏤ	-10.546
▁ᎠᎾᏛᎩᏍᎬ	-10.5463
▁ᏭᎶᏎ	-10.5465
▁ᎠᏟᏍᏛ	-10.5467
▁ᏧᎵ	-10.5469
▁ᎠᏆᏛᎦᏅ	-10.5469
▁ᎠᏆᏓ	-10.5478
ᏛᎦᏁᎰᎢ	-10.548
▁ᎠᏥᏃᎮᏍᎬ	-10.5484
ᎸᏌᏛ	-10.5486
▁ᎤᏰᎸᏁ	-10.5487
ᏅᏍᏗ	-10.5495
▁ᎦᏅᎯᏛ	-10.5499
▁ᎤᎾᏓᏟᏌᏅ	-10.5506
▁ᏯᏆ	-10.5513
▁ᎠᏆᏓᏅ	-10.5517
ᎶᏄᎮᏍᎩ	-10.552
▁ᎢᏯᏂᏪᏍᎩ	-10.5522
▁ᎨᏥᎦᏘᏗᏍᏗ	-10.5522
▁ᎾᏍᏆᎵᏍᎬᎾ	-10.5522
▁ᏇᏣᏱᏗ	-10.5522
▁ᎤᏩᎢᏎᎸᎯ	-10.5522
▁ᏅᏧᏓᎴᏅᎲᎾ	-10.5522
▁ᏬᎩᏅᏍᏔᏅᎩ	-10.5522
▁ᎤᏘᏴᎯ	-10.5522
▁ᏅᏓᎦᏥᏴᏁᎵ	-10.5522
▁ᏓᏓᏂᏌᎲ	-10.5522
▁ᏂᏑᏪᏎᎴᎢ	-10.5523
▁ᏅᏃᎱᎶᏗ	-10.5523
▁ᎤᏚᏓᎴᏛ	-10.5524
▁ᎠᏆᏛᏅᎢᏍᏗ	-10.5524
▁ᏩᎾ	-10.5525
▁ᏗᎾᏓᎾᏌᎲᏍᎩ	-10.5525
▁ᏅᏧᎵᏍᏙᏔᏁ	-10.5525
▁ᏗᎩᏙᏓ	-10.5526
▁ᎤᏂᎾᏰᏎᎢ	-10.5526
▁ᎬᏲᏎᎭ	-10.5527
▁ᎠᏇᏅᏒᎩ	-10.5527
▁ᎹᏚ	-10.5531
▁ᏙᏓᎬ	-10.5533
▁ᎣᎦᏣᏅ	-10.5533
▁ᏱᏍᎦᎢᎮᏍᏗ	-10.5534
▁ᏩᎦᏛᎢ	-10.5536
▁ᏥᎦᏘᏏ	-10.5536
▁ᎬᏩᏍᎦᎩ	-10.5537
▁ᎠᏁᏯᏔᎯ	-10.5537
▁ᎾᏆᎵᏍᏓᏁᎸᎩ	-10.5538
▁ᏭᏯᏅᎮ	-10.5539
▁ᎤᏓᏅᏓᏛᎩ	-10.554
▁ᎨᎳᏍᏗᏱ	-10.5542
▁ᎧᏃ	-10.5543
▁ᎠᏓᏲᏁ	-10.5545
▁ᎠᏓᏰᎨᏍᏗ	-10.5548
▁ᏙᏓᏰ	-10.5549
▁ᎤᎾᏅᏗᏱ	-10.555
ᎪᏎᎭ	-10.5556
▁ᏚᏂᏢᎬ	-10.5558
▁ᎢᎬᏩᏛ	-10.5559
ᏕᏯᏙᏔᏅᎩ	-10.5561
ᏛᎬᎦ	-10.5562
▁ᎠᏩᎾᎦᎳᎯᏳ	-10.5568
ᏙᎰᎢ	-10.5573
▁ᎧᏃᎮᏍᎬᎢ	-10.5575
▁ᏗᎬᏔᏅᎯ	-10.5577
▁ᏝᎨ	-10.5586
▁ᏙᏓᏳ	-10.5587
▁ᏗᏤᏅᏒ	-10.5599
▁ᏄᏪᏎᎸᎢ	-10.5601
▁ᎬᏩᎪᎮᎢ	-10.5601
▁ᎤᏂᏲᎴ	-10.5602
▁ᏧᎵᎢ	-10.5613
▁ᎤᏂᏁᏤ	-10.5615
ᏅᏓᏛᎩ	-10.5623
ᏁᎦᎸ	-10.5625
ᏂᏙᎯ	-10.5633
▁ᏤᏙᎲ	-10.5644
▁ᏗᎪᏢ	-10.5648
▁ᏙᎦ	-10.5649
▁ᎤᏕᏅᎯ	-10.5651
▁ᎤᎵᎮᎵᏨᎯ	-10.5651
▁ᎤᏅᏎᎢ	-10.5653
▁ᏚᏅᏎᎢ	-10.5661
▁ᎠᎦᏔᎯ	-10.5663
▁ᎢᏝ	-10.5664
ᏥᏅᏏᏛ	-10.5665
▁ᎤᏍᎦ	-10.5676
ᎴᏃ	-10.5679
▁ᏄᏂᏪᏎᎴ	-10.5681
▁ᎬᏩᏔᏲᏎᎴ	-10.5683
ᎪᏩᏘᏍᎬᎾ	-10.5685
ᎴᏗ	-10.5688
▁ᎤᏛ	-10.5695
▁ᎤᎮᏍᏗ	-10.5696
ᎯᎮᏍᏗ	-10.5701
▁ᎤᎪᏗ	-10.5702
ᎾᏄᎪᎢᏍᏗ	-10.5709
▁ᎢᏥᏁ	-10.5735
▁ᏥᏚᏂ	-10.5736
ᏣᎵᏍᏗᎭ	-10.5736
ᏢᏈᏍᏗᏱ	-10.5742
ᎤᏟ	-10.5747
▁ᎠᎵᏍᏓᏴᏗᏱ	-10.5757
▁ᎠᏓᏅ	-10.5769
▁ᎤᏅᏏᏛ	-10.5773
ᏄᎪᏫᏍᎦ	-10.5775
ᏥᏍ	-10.5787
▁ᎡᏥᏁᎸ	-10.5816
▁ᏱᏗᏗ	-10.5824
ᏯᏪᎢᏍ	-10.5827
ᎵᏍᎬᎾ	-10.5829
▁ᏥᏂᎨ	-10.5835
▁ᎦᏙᎨᏃ	-10.5851
ᏯᎡᏍᏗ	-10.5856
ᎾᏄᎪᏨᎯ	-10.5877
▁ᎢᏥᏍᎦᏅᏨ	-10.5888
▁ᏃᏳ	-10.5889
ᏕᏗᏱ	-10.5889
▁ᎤᏁᏅᏎ	-10.5894
ᎪᎵᏰᎥᎯ	-10.5898
ᏕᏗ	-10.5915
▁ᎦᏙᎴᎣᏍ	-10.5915
ᎾᏙᏓᏆᏍ	-10.5922
▁ᎤᎧᎵᏨ	-10.5926
▁ᏚᏂᏂᏴᎮ	-10.5927
ᎵᏓᏍᏗᏱ	-10.5927
ᏲᎵ	-10.5931
▁ᏯᏂᎦᏔ	-10.5935
▁ᎾᏛᏁᎲ	-10.5947
▁ᎤᏲᎴ	-10.5951
▁ᎤᏂᏁᏨᏃ	-10.5955
▁ᎤᎪᎲᎢ	-10.5957
▁ᎤᏂᎧᎵᏨ	-10.5958
ᏙᎵᎩ	-10.5972
ᎵᏍᏔᏁᎢ	-10.5979
ᏢᏅᎯ	-10.5981
▁ᏧᏂᏲ	-10.5987
ᎵᎬᏚ	-10.5989
▁ᏧᎳ	-10.6008
ᎩᏍᏕᎸᏗᏱ	-10.6011
ᏤᎸ	-10.6014
ᏙᎯᏉ	-10.6023
▁ᎤᎵᏍᏗ	-10.6031
▁ᏓᏲᏥ	-10.6035
▁ᎠᎩᏲ	-10.6059
▁ᎨᏆ	-10.606
ᎴᏅᏙᏗ	-10.6065
▁ᎤᏙᏢᏒ	-10.607
▁ᎠᎪᏩᏘᏍᎬ	-10.6073
▁ᏥᏫ	-10.6078
ᎳᏅᎩ	-10.6096
ᎩᏯ	-10.6099
▁ᎠᎩᎨᏳᎯ	-10.6099
▁ᏦᏥ	-10.6106
▁ᎾᎥᎢ	-10.6133
▁ᏧᏣ	-10.6134
ᏩᏔᏁ	-10.6143
▁ᏴᎦᏰ	-10.6145
ᏓᏅᏛᎢ	-10.6155
▁ᎠᎾᏓᏙᎵᏍᏗᏍᎨ	-10.6161
ᏁᏅᏍᏗᏱ	-10.6165
ᎧᏃᎮᏛ	-10.6165
▁ᎦᎬᏩᏐᏢ	-10.6185
▁ᏔᎵᏁᎢ	-10.6188
▁ᎢᎪ	-10.6193
ᏁᎸᎾ	-10.6197
ᎾᎥᎢ	-10.621
ᎦᏅᎦ	-10.6212
ᎦᎸᏉᏗᏳ	-10.6216
ᏃᎮᎮᎴ	-10.6231
ᎴᏔᏂ	-10.6253
ᎡᎸᎯ	-10.627
ᎯᏍᏙᏗ	-10.6282
ᏍᎦᏅᎾ	-10.6282
▁ᏰᏣ	-10.6293
▁ᏚᏓ	-10.6293
ᏅᏅᎢ	-10.6303
▁ᎡᏣᏑᏰ	-10.6311
▁ᎨᎪᏎ	-10.6312
ᏅᏓᏗᏍᏗ	-10.6329
▁ᎤᏂᏰᎸᏁ	-10.6334
▁ᎠᎦᏛᏅ	-10.6339
▁ᎤᎷ	-10.6355
ᏕᎨᏍᏗ	-10.636
▁ᎤᏣᏅ	-10.6366
▁ᎤᎵᏰ	-10.6376
▁ᎠᏐᏢᎢᏍᏙᏗ	-10.6377
ᏯᏂᏍᎨᏍᏗ	-10.6383
▁ᎢᏣᏓᏅᏛ	-10.6383
▁ᎪᎳ	-10.6384
ᎮᎸ	-10.6389
▁ᎤᏁᏒ	-10.639
ᏎᎴ	-10.6392
▁ᎠᏂᏅᎢ	-10.6399
▁ᎤᎾᏕ	-10.6404
ᏥᎪᏩᏛᏗᏱ	-10.6406
ᎠᎹ	-10.6408
ᎨᏎᏍᏗ	-10.6418
ᎡᎵ	-10.6418
▁ᏴᎩ	-10.6426
▁ᎦᎷᎶ	-10.6429
▁ᏙᏓᎦ	-10.643
▁ᎠᎪᏎ	-10.6439
▁ᎢᏨᏴ	-10.6458
ᏙᎭ	-10.6463
ᎾᏄᎪᏫᏎᎵ	-10.6465
ᏛᏓ	-10.6472
ᏓᏁᎮᏍᏗ	-10.6473
▁ᏓᏳᏁ	-10.6476
▁ᎤᏂᏄᎪᏨ	-10.6483
ᏙᎮᏍᏗ	-10.6502
ᏂᏌ	-10.6509
ᏔᎷᎩᏍᎩ	-10.6516
ᏃᏁᎸᎩ	-10.6519
▁ᎠᎩᏍᎩ	-10.6521
▁ᎾᏓ	-10.6536
▁ᎠᎢᏒ	-10.6557
▁ᎤᏰᎸᏒ	-10.6564
▁ᏱᏓᎩ	-10.6567
ᏒᏉ	-10.6574
ᏔᏲᏍᏗ	-10.6575
▁ᏥᏁ	-10.6579
▁ᎤᏁᎳᎩᏉ	-10.6583
▁ᏫᏚᏯᏅᎮ	-10.6584
▁ᎤᎷᏨᏃ	-10.6585
▁ᏣᏍᏆ	-10.6589
▁ᎨᎦᎵᏥᏙᏁ	-10.6591
ᎨᏛ	-10.6597
▁ᎠᏴᎩ	-10.66
ᏅᏃ	-10.6612
▁ᏂᏚᏅ	-10.6619
ᏛᏅᎢᏍᏔᏁ	-10.6637
▁ᏦᏨ	-10.6642
▁ᎤᎾᏛ	-10.6642
ᏧᏁᎬ	-10.6643
▁ᏧᏥ	-10.6645
ᏓᏍᏗ	-10.6646
▁ᏅᏓᏳᏓᎴ	-10.6651
▁ᏙᏣ	-10.6652
ᏍᏛᎾ	-10.6652
▁ᎠᎵᏍᎦᏁᏛ	-10.6654
▁ᎡᎩ	-10.6666
ᎪᎩ	-10.6668
▁ᎤᎾᏚᎸ	-10.6678
▁ᏣᏚᎵ	-10.668
ᏙᎵᎦ	-10.6684
▁ᎤᏓᏥ	-10.6688
ᎠᏍᎦ	-10.6699
▁ᎯᎸ	-10.6705
▁ᏚᏬ	-10.6706
▁ᎾᎬᏁᎴ	-10.671
▁ᎥᎩᏙ	-10.671
▁ᏕᎦᎳᏫᎥ	-10.6711
▁ᏕᎤᎸᏫᏍᏓᏁᎲ	-10.6712
▁ᏕᏣᎸᏫᏍᏓᏁᎲ	-10.6713
▁ᏚᏩᏂᎦᎸ	-10.6713
▁ᏭᏂᎶᏎ	-10.6713
▁ᏂᎦᎵᏍᏗᏍᎪ	-10.6714
ᏬᏂᎯᏍᏗᏱ	-10.6716
ᏄᎪᎢᏍᏗ	-10.6717
▁ᎠᎪᏩᏛᏗ	-10.6718
▁ᏗᏥᎦᏴᎵᎨ	-10.6718
▁ᎤᏲᎢᏍᏗ	-10.6718
▁ᎤᏪᏙᎴ	-10.6718
▁ᏭᏯᏅᎲ	-10.6721
ᏓᏅᎡᎮᏍᏗ	-10.6721
▁ᎤᏙᎯᏳᏁ	-10.6722
▁ᎠᏇᎵᏒ	-10.6723
▁ᏚᏂᏲᎱᏒ	-10.6725
▁ᏚᏄᎪᏫᏒ	-10.6727
ᏬᎥᎯ	-10.6729
▁ᏚᏄᏩᎥ	-10.673
ᎧᎵᏨᎯ	-10.6732
▁ᎢᏣᎵᎮᎵᎬ	-10.6732
ᎦᏄᎪᎬ	-10.6737
▁ᎠᎩᏍᏛᏗᏍᎬ	-10.6737
ᎾᏚᎦ	-10.6737
▁ᎢᏍᏛ	-10.674
▁ᎡᎩᏍᏕᎸᏗ	-10.6742
▁ᏓᎬᏯ	-10.6742
▁ᏅᎵᏌᎵ	-10.6742
▁ᏂᏣᏓᎨᏳᏒ	-10.6745
▁ᎤᏍᎦᏎᏗ	-10.6748
▁ᏗᎬᏩᏁᎶ	-10.6752
ᏛᏅᎢᏍᏓ	-10.6755
ᏬᎢ	-10.6756
ᏪᏎᎴᎢ	-10.6756
ᏛᏁᎵ	-10.6757
▁ᏗᏄᎪᏗᏍᎩ	-10.6758
▁ᎠᏓᎨᏗ	-10.6761
▁ᎨᏥᏛᏙᏗ	-10.6761
▁ᏧᏂᎧᎿᏩᏛᏍᏗ	-10.6762
▁ᎤᎾᏓᏡ	-10.6764
▁ᎢᎨᏣᏛᏁᏗ	-10.6765
ᏓᏆᎧᎾᏅᎩ	-10.6765
▁ᎠᏄᎯᏍᏗᏍᎬ	-10.6765
▁ᏂᏣᎵᏍᏔᏅ	-10.6765
▁ᏙᏓᎸ	-10.6767
ᏥᏌᎳᏙᏗ	-10.6771
▁ᏗᏓᏙᏪᏙᎥ	-10.6772
ᎦᏨᏩᏍᏙᏗᏱ	-10.6772
ᏓᎾᏕᏒᎲᏍᎪᎢ	-10.6772
▁ᎠᎾᏓᎾᏏᏂᏙᎯ	-10.6772
▁ᎤᎧᏲᏛ	-10.6772
▁ᎾᏂᎦᏔᎾᎥᎾ	-10.6772
▁ᎾᏑᏴᎾ	-10.6772
▁ᏂᎬᏠᏍᎬᎾ	-10.6772
▁ᏓᏳᏠᎠᏒᎩ	-10.6772
▁ᏧᏂᏦᏯᏍᏗ	-10.6772
▁ᎪᎹᎵ	-10.6772
▁ᏍᎪᏂᏗᏢ	-10.6772
▁ᏧᏄᏩᎢ	-10.6772
▁ᏱᏄᏓᎠ	-10.6772
▁ᏂᎦᎷᎶᎬᎾ	-10.6772
▁ᏂᎦᏗᎹᏏ	-10.6772
▁ᏂᏚᎾᏑᎴᎲᎾ	-10.6772
▁ᏓᏗᎶᏂ	-10.6772
▁ᏫᏂᏨᎦ	-10.6772
▁ᎤᏓᏂᎵᎨ	-10.6772
▁ᏗᏍᏇᏲᎲᏍᎩ	-10.6772
▁ᏛᏂᎾᏄᎪᏥ	-10.6772
▁ᎤᏓᏩᏗᏍᏙᏛ	-10.6772
▁ᏓᏱᏓᎵ	-10.6772
▁ᎡᏓᎵᏍᎦᏍᏙᏛ	-10.6772
▁ᎤᏚᏫᏛ	-10.6772
▁ᎤᏎᎦᏨᎯ	-10.6772
▁ᎤᏕᏘᏴᏌᏗᏒ	-10.6772
▁ᏅᏓᏳᎾᏓᎴᏅᎯ	-10.6772
▁ᏱᏗᏣᏰᎸᏁᎢ	-10.6772
▁ᏱᎾᎦᏪ	-10.6772
▁ᏂᏚᏂᏪᏎᎸᎩ	-10.6772
▁ᏱᎦᏬᏂᎭ	-10.6772
▁ᏗᏂᎦᏘᎴᎩ	-10.6772
▁ᎠᏆᎧᏛ	-10.6772
▁ᏕᎯᏁᏤᎮᏍᏗ	-10.6772
▁ᎤᎾᎵᏍᏓᏴᏃᏅ	-10.6772
▁ᏱᏓᎴᏂᏙᎭ	-10.6772
▁ᏍᎩᏯᏅᏓᏗᏍᎨᏍᏗ	-10.6772
▁ᏨᏓᏯᎢ	-10.6772
▁ᎤᏁᎳᏗᏙᎲ	-10.6772
▁ᏗᎾᏓᏙᎵᏍᏓᏁᎯ	-10.6772
▁ᏱᏨᏰᎵᏎᎭ	-10.6772
▁ᏤᎿᎠ	-10.6772
▁ᎢᏣᏄᏬᏍᏕᏍᏗ	-10.6772
▁ᏧᎾᏓᏂᎸᎢᏍᏗᏱ	-10.6773
▁ᎯᏍᎦᏍᎪᎯ	-10.6773
▁ᎡᏣᏁᏍᎨᎲᎯ	-10.6773
▁ᏱᎡᏦᎢᏳ	-10.6773
▁ᏗᏂᏲᎤᎵ	-10.6773
▁ᎡᏣᎵᎡᎵᏤᎮᏍᏗ	-10.6773
▁ᎥᏇᎵᏎᎸ	-10.6773
▁ᎡᏗᎸᏉᏓ	-10.6773
▁ᏗᏍᎩᎧᏁᎸᎯ	-10.6773
▁ᏌᎶᎻ	-10.6773
▁ᏓᏳᏄᎪᏨᎩ	-10.6773
▁ᏧᎾᎳᏏᏕᏂ	-10.6773
▁ᏓᏂᏴᎬᎢ	-10.6773
▁ᎠᏆᏒᏂᎦ	-10.6773
▁ᏄᏃᎯᏳᏅᎾ	-10.6773
▁ᏯᏙᎴᎰᏍᎦ	-10.6773
▁ᎦᏁᎵᏛ	-10.6773
▁ᎠᎾᏗᏒᎯ	-10.6773
▁ᎤᏩᎾᏓᎴ	-10.6773
▁ᎢᏣᏓᏅᏓᏓ	-10.6773
▁ᏧᎾᎵᏍᏓᏴᏗᏱ	-10.6774
▁ᎢᎬᏩᎾᏛᏁᏗ	-10.6774
▁ᏧᏭᏓᎴᏍᏗᏱ	-10.6774
▁ᏪᏣ	-10.6774
▁ᏕᏣᎧᎿᏩᏗᏙᎮᏍᏗ	-10.6774
▁ᏓᏥᎾᏄᎪᏫᏎᎵ	-10.6774
▁ᏗᏂᏙᎬ	-10.6774
▁ᏥᏚᏓᏲᏎ	-10.6774
▁ᏅᏓᏳᎵᏍᎪᎸᏔᏅᎯ	-10.6774
ᏓᏨᎷᏤᎵ	-10.6774
▁ᎤᎾᏞᏒ	-10.6774
▁ᏥᏂᏨᏪᏎᎸᎩ	-10.6774
▁ᏣᏃᎮᎸᎩ	-10.6774
▁ᏧᏬᏢᏅᎯ	-10.6774
▁ᎢᏧᏖ	-10.6774
▁ᎬᏩᏂᏍᏓᏩᏗᏙᎯ	-10.6774
▁ᏫᎬᏲᏪᎳᏏ	-10.6774
▁ᎤᎾᏗᎦᎴᏲᏨᎯ	-10.6774
▁ᎠᎩᏫᏯ	-10.6774
▁ᎢᎬᏩᏍᏗᎭ	-10.6774
▁ᏱᏫᏣᏴᎸ	-10.6775
▁ᏣᎩᏯᎠ	-10.6775
▁ᎢᏨᏁᏤᎭ	-10.6775
▁ᏓᏰᏥᎪᎢ	-10.6775
ᎦᏁᏌᎢ	-10.6775
▁ᎢᏣᏗᏔᏍᎨᏍᏗ	-10.6775
▁ᎪᎶᏁᏛ	-10.6775
▁ᎡᎵᏍᏓᎦ	-10.6775
▁ᎨᏥᎩᎵᏲᎢᏍᏙᏗᏱ	-10.6775
▁ᎠᎪᏩᏘᏍᎩ	-10.6775
▁ᏧᏓᏅᏓᏗᏍᏙᏗᏱ	-10.6775
▁ᎢᏗᎬᏁᎸᎯ	-10.6775
▁ᏧᏙᏍᏙᏗ	-10.6775
▁ᏱᏦᎵᎦ	-10.6776
▁ᏥᏕᏣᎸᏫᏍᏓᏁᎭ	-10.6776
▁ᏛᏂᎪᎯ	-10.6776
▁ᏧᎳᎨᏯᏛᏤᎢ	-10.6776
ᎳᏫᏎᏗ	-10.6776
▁ᏱᏂᎬᏩᏍᏗᏉ	-10.6776
▁ᎤᏂᎩᏎ	-10.6776
▁ᏱᏦᎯᏳᎲᎦ	-10.6776
▁ᎢᏳᏂᏪᏍᏗᏱ	-10.6776
▁ᎣᏦᎯᏳᎲᏍᎦ	-10.6776
▁ᎢᏰᏨᏁᏗᏱ	-10.6776
▁ᏕᏣᏓᎨᏳᏎᏍᏗ	-10.6776
▁ᏗᎦᏃᏙᏗᏱ	-10.6777
▁ᏅᏓᏳᎶᎯᏍᏗᏱ	-10.6777
▁ᏳᎷᏨ	-10.6777
▁ᏙᏗᎾᎵᏍᏓᏴᎲᏍᎬ	-10.6777
▁ᎠᎵᏱᎶᎸᎭ	-10.6777
▁ᏥᏓᎾᏕᏲᎲᏍ	-10.6777
▁ᏤᏌᏂ	-10.6777
▁ᎠᏓᏲᏁᎮᏍᏗ	-10.6777
▁ᏭᏴᏍᏗᏱ	-10.6777
▁ᏣᎵᏍᎦᏍᏙᏗ	-10.6777
▁ᏏᎻᏯᏂ	-10.6777
▁ᏗᏣᏓᎵᎢ	-10.6777
▁ᏍᎩᏲᎮᏍᏗ	-10.6777
▁ᏅᏓᏳᏄᎪᏨᎯ	-10.6777
▁ᏕᏨᏗᏍᎨᏍᏗ	-10.6777
▁ᎢᏖᎳ	-10.6777
▁ᏧᎾᏂᏏᏗᏱ	-10.6777
▁ᏫᏂᏚᏪᏎᎸᎩ	-10.6777
▁ᏓᏍᏗᏰᏗᏍᎬ	-10.6778
▁ᎿᏛᎦ	-10.6778
▁ᏫᏥᎦᏛ	-10.6778
ᏙᎥᎯᏍᏗ	-10.6778
▁ᎡᏤᎾ	-10.6778
▁ᏱᏣᏰᎸᏅ	-10.6778
▁ᎨᏣᎵᏍᏕᎸᏙᏗ	-10.6778
▁ᏧᏓᏂᎸᎢᏍᏗᏳ	-10.6778
ᎨᏒᎢ	-10.6778
▁ᏚᏘᏅᏎ	-10.6779
▁ᏫᏓᏆᎧᎾᏅᎩ	-10.6779
▁ᏥᏂᏥᏪᎭ	-10.6779
▁ᏳᏰᎸᏅ	-10.6779
▁ᏗᏂᎯᎯ	-10.6779
▁ᎣᎩᏅᏏᏓᏍᏗ	-10.6779
▁ᏧᏙᏓᏆᏛ	-10.6779
▁ᏱᏥᏩᏘᎭ	-10.678
▁ᏣᏫᏎᎢ	-10.678
▁ᏗᎨᏥᏲᎯᏎᎸᎯ	-10.678
▁ᎠᏆᏢᏈᏍᏗᏱ	-10.678
▁ᏗᏂᎾᏕᎩ	-10.678
▁ᎤᎦᏛᎾᏨᎯ	-10.678
▁ᎤᏪᏓᏍᏗᏱ	-10.678
▁ᎠᎾᎦᎵᏍᎩ	-10.678
▁ᏄᎾᎵᏍᏔᏅ	-10.6781
▁ᎠᏛᎩᏍᎩ	-10.6781
▁ᏗᏓᏙᏕᏍᏗᏍᎩ	-10.6781
▁ᏗᏣᎵᏂᎩᏗᏳ	-10.6781
▁ᎠᏂᏁᎢᏍᏗᏍᎩ	-10.6781
▁ᏯᎩᏰᎸᎭ	-10.6781
▁ᎤᏍᏗᎩᏳ	-10.6781
▁ᏣᏤᎵᎪᎯ	-10.6781
▁ᏬᎩᎶᏒᎩ	-10.6782
▁ᏅᏓᏳᏓᎴᏅᏛ	-10.6782
▁ᎢᏣᏙᎴᎰᎯᏍᏗᏱ	-10.6782
▁ᎾᎩᎲᎾ	-10.6782
▁ᏴᎦᎬ	-10.6783
▁ᏣᏍᎦᎸᎩ	-10.6783
▁ᏍᎩᎨᏳᎯᏳ	-10.6783
▁ᎤᏦᏍᏗ	-10.6783
▁ᎦᎵᏦ	-10.6783
▁ᏗᏂᏁᎯ	-10.6783
▁ᎤᏂᏆᏘᏍᏗ	-10.6783
▁ᏥᏄᏍᏙ	-10.6783
▁ᎤᎵᏖᎸᏁᎢ	-10.6784
▁ᏄᏅᏁᎴᎢ	-10.6785
▁ᏓᎾᏠᏱᎲᎢ	-10.6785
▁ᎠᎦᏙᎥᎯᏍᏙᏗ	-10.6785
▁ᏚᏂᎪᎲ	-10.6785
▁ᎤᏂᎬᏫᏳᏌᏕᎩ	-10.6785
▁ᎢᏳᏏᏗ	-10.6786
▁ᏧᏪᏘ	-10.6786
▁ᏚᏪᏟᏌᏅ	-10.6786
▁ᎢᏨᎪᏩᏛᏗᏱ	-10.6786
ᏂᏆᏘᎭ	-10.6786
▁ᎢᏨᏃᏁᎭ	-10.6786
▁ᎢᏣᏛᎩᏍᎬᎢ	-10.6786
▁ᎤᎵᏖᎸᏅᎩ	-10.6787
▁ᎤᏪᏰᏂ	-10.6787
▁ᎢᏳᏅᏁᏗ	-10.6787
▁ᎠᏔᏲᎯᎮᏍᏗ	-10.6787
▁ᎦᎾᏄᎪᏥᎸᎭ	-10.6788
▁ᎠᎩᏁᎫ	-10.6788
▁ᏥᏍᏆᏯ	-10.6788
▁ᎤᏗᏩᏒᎯ	-10.6789
▁ᎢᏥᏇᏓᎸ	-10.6789
▁ᏣᎾᏗᎭ	-10.6789
▁ᎾᏆᏛᏁᎸ	-10.6789
▁ᎠᎾᏗᏍᎬᎢ	-10.6789
▁ᎤᏍᏆᏗᏍᏗᏱ	-10.679
▁ᎠᏲᎱᏍᎨᏍᏗ	-10.679
▁ᎤᏁᎳᏗᏍᏗᏱ	-10.6791
▁ᎯᏁᎩ	-10.6791
▁ᏕᎪᏢᏒ	-10.6791
▁ᎠᏂᏍᏆᏂᎪᏗᏍᎩ	-10.6791
ᎰᎲᏍᏗ	-10.6792
▁ᎤᏂᎩᏍᏗᏱ	-10.6792
▁ᎤᏂᏂᏴᏗᏱ	-10.6793
▁ᏂᏍᎦᏅᎾ	-10.6793
▁ᎾᏥᏰᎲᎾ	-10.6793
▁ᎢᏯᏋᏁᏗᏱ	-10.6793
ᏚᎸᏅᎥᏍᎬ	-10.6793
ᏂᎵ	-10.6794
▁ᎢᏣᏕᏗᏱ	-10.6794
▁ᎤᏓᏱᎴᎢ	-10.6795
▁ᏗᏉᏰᏂ	-10.6795
▁ᏗᎪᏍᏓᏯ	-10.6795
▁ᎣᎦᏛᏅᎢᏍᏗ	-10.6795
▁ᎠᏆᎵᏍᏕᎸᏙᏗ	-10.6795
▁ᎠᏂᎩᎾ	-10.6796
▁ᎨᏥᏰᎸᎯ	-10.6797
▁ᎤᏂᎨᏳᎯ	-10.6797
▁ᏓᏘᏁᎲ	-10.6797
▁ᏱᏅᏗᎦᎵᏍᏙᏗᏍᎨᏍᏗ	-10.6797
ᏍᏓᏱ	-10.6798
▁ᎾᏂᏪᏍᎨᏍᏗ	-10.6798
ᏄᏩᏁᎰ	-10.6798
▁ᏕᎩᎸᏫᏍᏓᏁᎲ	-10.6798
▁ᎮᎾᏉᏍᎩᏂ	-10.6798
▁ᎾᎾᏛᏁᎮᏍᏗ	-10.6799
▁ᎢᎩᏩᏛᏗᏱ	-10.68
▁ᏥᏙᎦ	-10.68
▁ᏙᏓᏥᏯ	-10.68
▁ᏓᎦᏘᎴ	-10.6801
▁ᏕᏣᏁᎶᏛᎢ	-10.6801
▁ᎤᏓᏑᏰᏛ	-10.6801
▁ᎦᏁᏥᎢ	-10.6801
▁ᎠᏉᎯᏳᎭ	-10.6802
▁ᏥᏥᎪᏩᏘᎭ	-10.6802
▁ᏧᏘᏲ	-10.6802
▁ᏗᎵᏍᎪᎸᏔᏅᎯ	-10.6802
▁ᏓᏥᏂ	-10.6803
▁ᏚᎾᎴᏁ	-10.6803
▁ᏗᏕᎶᏆᏍᏗ	-10.6804
▁ᎠᏥᎸᎨᎳᏍᏗ	-10.6804
ᎦᏘᎴᎦ	-10.6804
▁ᏱᏄᏩᏁᎰ	-10.6804
▁ᏧᎵᏏᎬ	-10.6805
ᏍᏓᏱᏗᏍᏗᏱ	-10.6805
▁ᏂᏚᏛᏁᎸ	-10.6806
▁ᎤᏬᏂᏒᎩ	-10.6806
▁ᏳᏬᎵᏤ	-10.6807
▁ᎠᎵᎮᎵᎬ	-10.6807
ᎦᏘᏰ	-10.6807
▁ᎻᎳ	-10.6807
▁ᎤᎾᏓᏅᏖᎸᎩ	-10.6808
ᏫᏢ	-10.6808
▁ᎢᏨᏃᏁᎸᎯ	-10.6809
ᏥᏥᏃᎯᏍᏓ	-10.6809
▁ᎡᏓᏍᏗᏱ	-10.681
▁ᏚᎾᎴᏅᎩ	-10.6811
▁ᎤᎵᏍᏓᏴᏗ	-10.6811
▁ᎤᎾᏄᎪᎢᏍᏗᏱ	-10.6811
▁ᏫᏗᎦᏘ	-10.6812
▁ᏂᏕᎦᏪᏎᎲ	-10.6812
▁ᏂᎦᏪᏍᎪᎢ	-10.6812
▁ᎠᎪᎢ	-10.6812
▁Ꮦ	-10.6812
▁ᎤᏔᏕᎩᏍ	-10.6812
▁ᏧᎾᏛᎾ	-10.6814
▁ᎰᎯᏳᎲᏍᎦ	-10.6816
▁ᏓᏓᏁᎳᏗᏒᎢ	-10.6817
▁ᎢᎬᏩᏛᏛᏁ	-10.6817
▁ᎤᏯᎠ	-10.6819
▁ᏳᏁᎭ	-10.6819
▁ᏣᏠᎾᏍᏗ	-10.682
▁ᎠᎪᎵᏰᏗ	-10.682
▁ᏱᏂᎦᎩ	-10.6821
▁ᎢᏕᎲᎢ	-10.6821
▁ᏕᏣᎸᏫᏍᏓᏁᎸ	-10.6822
▁ᎬᏍᎦᎵ	-10.6823
▁ᏄᎵᏂᎬᎬ	-10.6823
▁ᎢᏣᏓᏅᏖᏍᏗ	-10.6824
▁ᎡᏙᎲᎩ	-10.6824
▁ᎤᏃᎮᎸᎩ	-10.6824
▁ᏚᏓᏘᎿᎥᎢ	-10.6825
▁ᎤᏂᏰᎸᎯ	-10.6825
▁ᎦᏓᏙᎵᏍᏗᏍᎬᎢ	-10.6825
▁ᎢᏥᏰᎸᎭ	-10.6825
▁ᏚᏪᏲᏁᎢ	-10.6826
▁ᏧᏌᎴᏅ	-10.6826
▁ᎠᏇᎵᏒᎩ	-10.6826
▁ᏄᏅᏅ	-10.6826
ᏘᏁᏒᎭ	-10.6827
▁ᎤᏕᏯᏔᏁᎸ	-10.6828
▁ᏣᎦᏙᎥᎯᏍᏗᏱ	-10.6828
ᏘᏯ	-10.6828
▁ᎠᏓᏅᏙᎩᎯ	-10.6828
▁ᏓᎬᏔᏂ	-10.6829
▁ᏂᏣᏛᏁᎲᎾ	-10.6829
▁ᎤᏢᎬᎩ	-10.683
▁ᏯᏃᏉ	-10.6832
▁ᏕᎦᎳᏫᎥᎢ	-10.6833
▁ᏕᎤᎸᏫᏍᏓᏁᎲᎢ	-10.6833
▁ᏅᎩᏦᏁ	-10.6834
▁ᏧᎾᎩᎸᏗ	-10.6834
▁ᎨᎥᎢ	-10.6836
▁ᎨᎦᎫᏴᏓᏁᏗ	-10.6837
▁ᏌᎻ	-10.6837
▁ᏥᏄᏍᏛ	-10.6837
ᏛᏂᏗᏍᏕᏍᏗ	-10.6838
▁ᎢᏨᏰᎳᏗᏙᎸ	-10.6838
▁ᎤᎶᎨᏒᎢ	-10.6839
▁ᏚᏩᏂᎦᎸᎢ	-10.684
▁ᎤᎵᏍᎪᎸᏓᏁᎸᎩ	-10.684
▁ᎤᏪᎲᎢ	-10.6843
▁ᎤᏓᏅᏁᎢ	-10.6844
▁ᎤᎾᎵᏃᎮᎴ	-10.6844
▁ᎢᎦᎵᏍᏕᎸᏙᏗ	-10.6845
▁ᏧᏁᎶᏗ	-10.6846
▁ᏙᏓᎸᎢ	-10.6846
▁ᏦᎴᏍᏗ	-10.6847
ᏲᎤᎵ	-10.6847
ᎩᏍᏓᏩᏕ	-10.6848
▁ᎤᏛᏛᏅᎩ	-10.6849
▁ᏍᏆᏛᎦᏁ	-10.6849
ᎡᎴᎢ	-10.685
▁ᏂᎦᏥᏴᏁᎲ	-10.685
▁ᎪᎵᏍᏗᏱ	-10.685
▁ᎤᏌᎯᎸᎢ	-10.6851
▁ᎾᎾᏛᏁᎲᎾ	-10.6851
▁ᏓᏰᏣ	-10.6851
▁ᎢᏯᏓᏛᏁ	-10.6853
ᏫᏒ	-10.6854
▁ᏓᏂᏙᎨ	-10.6855
▁ᎠᏥᏍᏕᎸᏗᏱ	-10.6855
ᏲᏅᎵ	-10.6856
▁ᎠᏥᎸᏉᏙᏗᏱ	-10.6857
▁ᎢᏣᎵᏏᎾᎯᏍᏗ	-10.6858
▁ᎤᏒᏂᎴᎢ	-10.6859
▁ᎠᏆᎴᏂᏙᎸ	-10.6859
▁ᎤᎩᏒ	-10.6861
▁ᎠᏂᎦᏴᎵᎨᎢ	-10.6862
▁ᏂᏣᏛᏅᎢ	-10.6862
▁ᎢᏥᎦᏔᎲᎢ	-10.6863
▁ᎾᏕᏘᏴ	-10.6865
▁ᎢᏥᎷᎩ	-10.6867
▁ᎤᎶᏏ	-10.6867
▁ᎣᎦᏚᎵᏍᎬ	-10.6868
▁ᎤᏓᎴᏅᎯ	-10.6869
▁ᎤᏕᏗ	-10.6869
▁ᎤᏬᎯᏳᏒᎢ	-10.6871
▁ᎦᎬ	-10.6872
▁ᏚᏓᏂᎸᏨ	-10.6872
▁ᎣᎩᎪᎲ	-10.6873
▁ᏕᎦᏚᏩᏗᏒᎢ	-10.6874
▁ᏥᏕᎭ	-10.6874
ᎬᏂᏛ	-10.6875
▁ᏓᏲᏤ	-10.6879
▁ᏂᎦᎵᏍᏗᏍᎪᎢ	-10.6881
▁ᏂᎦᏥᏴᏁᎸ	-10.6882
▁ᏣᏍᏓ	-10.6883
ᏛᎩᏍᎬ	-10.6885
ᏛᏍᏗ	-10.689
▁ᏚᎴᎯᏌᏅᎢ	-10.689
ᎵᎷᎬ	-10.6894
▁ᏧᏩᏔᏁ	-10.6894
▁ᎤᏩᏅ	-10.6897
▁ᎣᏥᏬᏂᏍᎬ	-10.6897
ᎯᎸᏉᏕᏍᏗ	-10.6904
▁ᎤᎷᏤᎴᎢ	-10.6907
ᏥᏲᏍᏙᏓᏁ	-10.6909
▁ᎠᏯᎥᎢ	-10.6912
ᎾᏄᎪᏫᏒ	-10.6912
▁ᏚᎾᏓᏅ	-10.6913
▁ᎤᏬᎯᏨᏃ	-10.6914
▁ᎤᏍᏚᎢᏒᎩ	-10.6915
▁ᎠᏂᎦᏔᎯᏳ	-10.6916
▁ᏧᎦᏴᎵᎨᎢ	-10.6916
▁ᎬᏩᏍᏛᏗᏍ	-10.6917
▁ᎤᏰᎸᏅᎩ	-10.692
▁ᏥᎪᏩᏛ	-10.6922
▁ᏄᏛᏁᎸᎾ	-10.6923
▁ᎠᎾᎵᏍᏓᏴᏗᏍᎬ	-10.6923
▁ᎤᎪᎮᎢ	-10.6923
▁ᎤᏄᎪᏤᎢ	-10.6927
▁ᏥᏧᏏ	-10.6932
▁ᎤᏁᎫ	-10.6933
▁ᎤᏕᎰᎯᏍᏗᏳ	-10.6934
▁ᎤᏰᎸᏅᎢ	-10.6935
▁ᏓᏥᏯ	-10.6939
▁ᎤᏣᏗ	-10.6941
▁ᏗᏥᏰᎸᎢ	-10.6943
▁ᎤᎵᏍᏆᏕ	-10.6945
▁ᏂᎨᏥᏪᏎᎸ	-10.6946
▁ᎧᏃᎮᎭ	-10.6946
▁ᎢᏥᎲᎢ	-10.6949
ᎧᎿᏅᎩ	-10.695
▁ᎤᏔᏲᎸ	-10.6953
ᎡᏥᏍᏓᏩᏕᎩ	-10.6954
▁ᏑᏟᎶᏛᏉ	-10.6955
ᏲᏍᏗ	-10.6962
▁ᎤᎧᏛᎢ	-10.6964
▁ᏓᎩᏲᎯᏎᎸ	-10.6968
▁ᎤᏂᎴᎢ	-10.697
▁ᎤᎨᏳᏎᏍᏗ	-10.6971
▁ᏕᏛᏅ	-10.6971
▁ᏕᏦᏕᏍᏗ	-10.6976
▁ᏦᏥᏩᎾᎦᎳ	-10.6976
ᏓᏏ	-10.6978
▁ᏗᏣᏓᎨᏳ	-10.6981
▁ᎤᏚ	-10.6981
ᏯᏅᎯᎸ	-10.6983
▁ᎤᎦ	-10.6983
▁ᏂᏕᎬᏁᎲ	-10.6984
▁ᏂᎨᏒ	-10.6992
ᎦᏙ	-10.6994
▁ᏚᏂᏚᎲ	-10.6995
▁ᎢᏐ	-10.6996
▁ᏧᎾᏄᎪᏫᏎᏗ	-10.7
▁ᎠᏤᎷᎯ	-10.7002
▁ᏂᏣᏍᏛ	-10.7011
ᎾᏄᎪᏫᏎᏗᏱ	-10.7011
▁ᎬᏩᏃᎯᏳ	-10.7017
▁ᏥᎪᎥᎩ	-10.7019
▁ᎤᎵᏍᏆᏛ	-10.702
▁ᎤᎾᏅᏅ	-10.7027
▁ᎧᎳᏩᏗᏒᎢ	-10.7037
▁ᏂᏚᎩᏨᏂᏒᎢ	-10.7037
▁ᏫᏨᏲᎵ	-10.7046
▁ᏚᎴᏅᎩ	-10.7047
▁ᎤᏂᏩᏛᏗ	-10.7048
▁ᏗᎬᏩᎾ	-10.7049
▁ᏚᎧᎿᏅᏃ	-10.705
ᏆᏚᎵᏍᎬ	-10.7051
▁ᏗᎦᏄᎪ	-10.7055
ᏥᏃᏍᏛ	-10.7057
▁ᏝᏉ	-10.7059
ᏂᏴᎲᎩ	-10.7059
▁ᏧᏂᏗᏱ	-10.706
ᎤᏪᎪᏗᏱ	-10.7065
ᎦᏙᎥᏎ	-10.7069
ᏙᎵᏍᏗᏱ	-10.7073
▁ᏕᏣᏘᏃ	-10.7077
ᏂᏆᏘᎯ	-10.7079
▁ᏣᏓᏡᏗᏍᎪ	-10.708
ᏎᎰᎢ	-10.7083
▁ᎤᏅᏅ	-10.7088
▁ᎤᏍᏆᏂᎪᏛ	-10.7092
▁ᏓᏆᏙᎥᎢ	-10.7094
ᏥᏴᏔᏂ	-10.7095
ᎩᏂᏴᏗᏱ	-10.7095
▁ᏕᏨ	-10.7098
▁ᎾᏅᏁ	-10.7099
▁ᏗᎤᎷᏨ	-10.7101
▁ᎦᏲᎦ	-10.7102
▁ᎢᏴ	-10.7102
▁ᎢᏒ	-10.7105
▁ᎢᏨᏃᏁᎸ	-10.7106
▁ᎠᏍ	-10.7107
▁ᏗᎦᎸᏫᏍᏓᏁᏗᏱ	-10.7108
ᏗᎹ	-10.7115
▁ᎢᏥᏍᏆᏂᎪ	-10.7118
▁ᏍᎩᏍᏓᏩᏕ	-10.7121
ᎯᏍᏗᏍᎨᏍᏗ	-10.7122
▁ᎣᏥᎩᎵᏲᎬ	-10.7124
ᏥᏁᎸᎯ	-10.7127
▁ᎢᎠᏓ	-10.713
ᎶᎮᏍᏗ	-10.7132
▁ᏄᎾᏍᏛᎢ	-10.7135
▁ᏕᎩᏂᏴ	-10.7135
▁ᎤᏙᎴᎰᏒᎩ	-10.7137
ᎿᎢᏳ	-10.7137
▁ᏱᏄᎾ	-10.714
ᎧᎿᏩᏗᏙᎮᏍᏗ	-10.7148
ᏣᎳᏏᏕᏂ	-10.7149
▁ᎤᏁᎳᏫᏎᎸ	-10.7151
▁ᏥᏂᎦ	-10.716
ᏚᏓᏕᏫᏒ	-10.716
▁ᏕᎨᎦᎸ	-10.7166
▁ᎢᎦᏛᏍᎩᏂ	-10.7185
ᎲᏍᏗ	-10.7186
▁ᎤᏚᎵᏍᎬᎢ	-10.7195
▁ᎠᏥᏁᎸ	-10.7197
ᏓᏛᏁᎸ	-10.7197
ᏟᏏᏍᎪ	-10.7197
▁ᏭᏍᏗ	-10.7204
▁ᎠᏍᎦᏂᏍᎩᏂ	-10.721
▁ᎠᏲᎱᏍ	-10.7211
ᏫᏍᎪᎢ	-10.7211
▁ᏗᎧᏁᎬ	-10.7215
▁ᎣᎩᏂ	-10.7219
ᏅᏓᏗᏍᎨᏍᏗ	-10.7219
ᎸᏅᎩ	-10.7231
▁ᎢᏦᎯᏳᏅ	-10.7233
ᏅᏙ	-10.7237
ᎵᏓᏍᏗ	-10.7241
▁ᎤᏍᏆᏂᎪᏎ	-10.7249
▁ᏄᏂᎪᎸ	-10.7262
ᏩᏘᏍᎩ	-10.7265
▁ᏗᎧᎵᎢ	-10.7271
▁ᎡᎪᎢ	-10.7273
ᏚᎵᏍᎨ	-10.7278
ᏥᏪᏏ	-10.7278
ᎬᏗᎭ	-10.7283
ᏥᏅᏍᏓᏕᎸᎩ	-10.7285
ᏁᎢᏍᏔᏁ	-10.7288
▁ᎠᏂᎵᎾ	-10.7289
▁ᎡᏥᏁᏗ	-10.729
▁ᏱᎦᏰ	-10.7292
ᏙᎴᎰᏒ	-10.7299
ᎵᏍᏓᏴᏙᏗ	-10.7303
▁ᎤᏌᎳᏓᏅ	-10.732
▁ᎤᎾᎵᎮᎵᏤ	-10.732
▁ᏓᏲ	-10.7321
▁ᎤᏢᎬ	-10.7325
ᏓᏠ	-10.7332
ᎧᎵᎢᏍᏗᏱ	-10.7332
▁ᎢᎯ	-10.7334
ᏓᏛᏁᎮᏍᏗ	-10.7339
ᏔᏍᏗ	-10.734
▁ᎤᏂᏃ	-10.734
▁ᎤᏪᎵ	-10.7349
ᏫᏍᎩ	-10.7352
ᏍᏆᏂᎪᏗᏍᎩ	-10.7353
ᎬᏩᎶ	-10.7355
▁ᏕᎬᏩᏂ	-10.7359
▁ᎤᏂᏁᎢᏍᏔᏅ	-10.7359
▁ᏥᏍᎦᎾ	-10.7362
ᎬᏩᏂᎪᏩᏛ	-10.7363
▁ᏱᏄᏍᏕ	-10.7363
ᏗᎵᏍᎪᎸᏙᏗ	-10.7366
ᎥᏍᎨᎢ	-10.7369
ᏙᏥᏩᏛᎲᎩ	-10.737
ᏲᎯᏎᎸᎯ	-10.7372
▁ᏅᏩ	-10.7373
Ꮮ	-10.7381
ᏓᏁᎲᎢ	-10.7386
ᏨᏲᏪᎳᏁᎭ	-10.7388
ᏣᎵᏍᎦᏍᏙᏛ	-10.7389
ᏩᏛᎲ	-10.7391
ᏨᎢ	-10.7395
ᏃᎮᏍᎩ	-10.7395
▁ᏗᎦᏘᏯ	-10.7408
▁ᎤᏲᎱᏒᎩ	-10.7409
▁ᎾᎯᏳᎢ	-10.7409
;"	-10.741
ᎨᎾᏂ	-10.7412
▁ᎤᏁᏅ	-10.7416
ᏪᎳ	-10.7421
ᏍᏓᎦᎸ	-10.7422
▁ᏳᏂᏰᎸ	-10.7423
ᏥᏩᏛᎲ	-10.7425
▁ᏧᏁᏤᎴ	-10.7434
▁ᎠᎵᏰᎢ	-10.7438
ᏂᏌᏂ	-10.744
▁ᎾᏉᎯᏳ	-10.7443
ᏫᏎᎢ	-10.7447
ᏓᏙᎵᏍᏓᏁᎭ	-10.7451
ᎦᏰᏃ	-10.7456
▁ᏚᏂᎭ	-10.7459
▁ᎠᏆᎵᎮᎵᏍᏗ	-10.7462
ᏘᏄᎦ	-10.7475
ᏚᎩ	-10.7484
ᏱᏆ	-10.7486
ᏙᎴ	-10.7487
ᏍᏆᏂᎪᏛ	-10.7493
▁ᏥᏂᏥ	-10.7493
▁ᏈᎵ	-10.7505
ᎡᏍᏗ	-10.7519
ᎬᏩᏔᏲᏎᎸᎩ	-10.7519
▁ᏓᎾᏗᏔᏍᎨ	-10.7522
▁ᏥᏯᎵᎡᎵᏤ	-10.7522
▁ᏗᏣᏄᏬ	-10.7524
ᏒᏗᏱ	-10.753
ᏎᎪᎩᏒ	-10.7533
▁ᏫᏚᎾ	-10.7544
ᏓᏁᎭ	-10.7545
▁ᏗᏦᎸ	-10.7546
ᎾᏓᏡᎬ	-10.755
ᏎᎲᎢ	-10.755
ᎦᎴᏔᏂ	-10.7552
▁ᎣᏤᎲ	-10.7556
ᎪᎵᏰᏍᎪᎢ	-10.7556
ᏴᏫ	-10.7559
ᏍᏆᏂᎪᏗᏳ	-10.7559
▁ᎯᎩᎵᏲᎬ	-10.7563
ᏎᎵ	-10.7566
▁ᏙᎬ	-10.7568
ᏕᎰᎯᏍᏙᏗᏱ	-10.7569
▁ᏂᏗᎦ	-10.7571
ᎯᏛ	-10.7572
▁ᎢᎾᎨᏉ	-10.7573
ᎦᏚᎩᏱ	-10.7573
▁ᎧᏁᎨ	-10.758
ᏥᏛ	-10.7584
▁ᎾᏥᎸᏉ	-10.7586
ᎵᎭ	-10.762
ᏍᎦᏎᏗ	-10.7621
▁ᎠᎦᏙ	-10.7629
ᏨᎭ	-10.763
▁ᏓᎧᏁ	-10.7639
▁ᏂᎤ	-10.7641
ᏑᎵ	-10.7651
▁ᎣᏍᏕ	-10.7659
ᏓᏂᎧᎿᏩᏕ	-10.7661
ᎾᏛᏁᎰᎢ	-10.7662
Ꮁ	-10.7664
ᏓᏁᎲᎾ	-10.768
▁ᎤᎵᏏᎾᎯᏍᏗ	-10.7692
▁ᏄᏛᏅᎢ	-10.7693
▁ᎢᎦᎵᏍᏓᏁᏗ	-10.7693
ᏥᎦᏔᎭ	-10.7694
▁ᎤᏬᏢᏅᏅ	-10.7695
ᎾᏛᎦ	-10.7701
ᎪᎵᏰᏍᎨᎢ	-10.7711
ᏪᏛ	-10.7722
▁ᏗᏥᏲ	-10.7726
ᏏᏃ	-10.7727
▁ᎾᏥ	-10.7728
ᏗᏉ	-10.774
▁ᏱᏥᏰᎸ	-10.7743
ᏛᏗᏍᎨᏍᏗ	-10.7747
▁ᏂᏨᏪᏎ	-10.7755
ᏥᏁᎢᏍᏗᏍᎬ	-10.7757
ᏃᏴᎵᏍ	-10.7758
▁ᏧᎬᏩᎴ	-10.7761
▁Ꮋ	-10.7771
ᏚᎵᏍᎬ	-10.7773
▁ᏅᏓᏍᎩ	-10.7779
ᏁᏍᎨ	-10.7782
ᏓᏁᎸᎩ	-10.7786
ᎨᏳᎯ	-10.7791
ᏁᏙᎲ	-10.7795
▁ᎠᏂᏃᎮᏍᎨ	-10.7796
ᏛᏂᏗᏍᏗ	-10.7797
▁ᎠᏍᎪ	-10.7799
ᏎᎴᎢ	-10.78
▁ᏣᏍᎦᏅᎪ	-10.7805
ᎶᏒᎯ	-10.7806
ᏥᎪᏩᏘᎭ	-10.7819
ᎦᎳ	-10.7822
▁ᏱᏙᎬ	-10.7822
▁ᎢᏤᎵ	-10.7822
ᏓᏡᎬ	-10.7823
▁ᏱᏗᎦ	-10.7826
ᏓᏕᏲᎲᏍᎨᏍᏗ	-10.7828
▁ᏧᏁᏢᏔᏅ	-10.7839
ᎵᏍᏚᎶ	-10.7839
ᏘᏅᏒᎩ	-10.7841
ᎳᏁᎢ	-10.7843
▁ᎠᏥᎸᏉ	-10.7846
ᏒᎸᎩ	-10.7846
ᏥᏪᏎᎸᎭ	-10.7848
ᏢᏔᏅᎯ	-10.7848
▁ᎢᏥᏰᎸᏒ	-10.7868
ᎩᏍᏗᏱ	-10.787
ᎩᏍᎪ	-10.7882
ᎤᎶᏒᎩ	-10.7889
ᏍᏘ	-10.789
▁ᎨᏥᏙᎵᏍᏗ	-10.7893
ᏓᏂᎸᏤᎢ	-10.7905
ᏁᏍᏗ	-10.7907
▁ᏫᏓᏯᏂᏍ	-10.7911
ᎠᎩᏏᏙᎯ	-10.7916
▁ᎤᏂᏣ	-10.7926
▁ᎨᏙᎲ	-10.7936
▁ᎣᎩᏍᏛᏗᏍ	-10.7951
▁ᎠᏂᎪᏩᏘᏍᎨ	-10.7955
ᎩᏚᎢᏍᏓᏁᎸ	-10.7959
ᏲᎭ	-10.7961
ᏗᏍᏗᏱ	-10.7962
ᏍᏓᏩᏗᏒᎩ	-10.7974
▁ᎢᏗᏍᎦᎾ	-10.7975
ᎦᏔᎮᏍᏗ	-10.7976
▁ᏚᏪᎧ	-10.7991
ᏓᎦᎶᏏ	-10.801
▁ᎤᏛᏓᏍ	-10.8018
▁ᎦᎪᏗᏱ	-10.8019
▁ᎤᏍᏆᎸᎯᏗᏒ	-10.802
ᎤᎷᏨ	-10.8028
ᏓᏎᎪᎩᏍᏗᏱ	-10.8028
ᏈᏂ	-10.803
ᏬᎳ	-10.8036
ᎶᏏ	-10.8037
▁ᎢᎠ	-10.8041
ᎩᏁᏤᎸᎯ	-10.8044
ᏄᎪᏩ	-10.8048
▁ᎠᎩᎾᎥ	-10.8062
▁ᎠᏂᎵ	-10.8064
ᎸᏃᏘᎭ	-10.8085
ᎸᏙᏗ	-10.8085
ᏗᏍᎦᎩ	-10.8089
▁ᏨᏓ	-10.809
ᏥᎪᏩᏛ	-10.8097
ᎵᏍᏔᏅ	-10.8111
ᏲᎵᎸᎭ	-10.8116
▁ᏄᏪᏎᎸ	-10.8128
▁ᏤᎩ	-10.8135
▁ᏕᎦᎸᏫᏍᏓᏁᎸ	-10.8139
▁ᏚᏓᏘᎿᎥ	-10.814
▁ᏓᏂᎳᏫᎥ	-10.8142
▁ᏧᏂᎦᏴᎵᎨ	-10.8144
ᎸᏉᏗᎭ	-10.8145
▁ᏦᎢᏉ	-10.8145
▁ᏅᏓᎦᎵᏍᏙᏗᏍᎬ	-10.8149
ᏏᏗ	-10.8149
ᏓᎴᏅᎯ	-10.8152
▁ᎤᏂᎸ	-10.8158
▁ᏄᏅᏁᎸ	-10.8159
▁ᏂᏥᏪᏎ	-10.816
▁ᏥᎩᎵᏲᎬ	-10.8162
ᏛᏍᎪᎢ	-10.817
▁ᎤᎾᏄᎪᏫᏏ	-10.8172
ᏲᎯᏎᎴ	-10.8185
▁ᎤᏃᎯᏳᏅ	-10.8186
▁ᏗᏂᏃ	-10.8189
▁ᎤᏬᏚᎯ	-10.8192
ᏎᎵᏙᏗ	-10.8193
▁ᏱᏂᏣᎵᏍᏓᏁ	-10.82
ᏩᏛᎱᎦ	-10.82
▁ᎥᏆᏬᏍᏙᏗ	-10.82
▁ᏙᏧᏁᏅᏒ	-10.82
▁ᏥᏂᏥᏪᎠ	-10.82
▁ᎠᏳᎾᎦ	-10.82
▁ᏂᏙᏓᎦᏪᏎᎵ	-10.8201
▁ᏙᏓᏥᏲᎱᏏ	-10.8201
▁ᏅᏥᏪᏎᎸᎩ	-10.8201
▁ᏙᏓᏳᏲᏏ	-10.8201
▁ᏂᏦᎯᏳᎲᏍᎬᎾ	-10.8201
▁ᎤᏅᏂᏍᏗᏱ	-10.8201
▁ᎬᏩᏕᏁᎴᎢ	-10.8201
▁ᎤᏬᏯᏁᏒ	-10.8201
▁ᎨᎵᏌᏕ	-10.8201
▁ᏘᎦᏙᎵ	-10.8202
▁ᏄᎾᏓᏛᎩ	-10.8202
▁ᏧᎾᏓᏅᏬᏗᏱ	-10.8202
▁ᎪᎢᏳᎲᏍᎦ	-10.8202
▁ᎤᎾᏓᏛᏅᎯ	-10.8202
▁ᏓᎦᎾᏄᎪᏥ	-10.8202
▁ᎠᏂᏏᎾᏌᏂ	-10.8203
▁ᎤᏚᎸᎲ	-10.8204
ᎠᏎᎵᏛᏍ	-10.8204
▁ᎠᏍᏙᏍᎩ	-10.8205
ᏓᎦᎶᏐᏂ	-10.8205
▁ᏚᎵᏍᏚᎢᏎᎢ	-10.8205
▁ᏥᎣᎵ	-10.8205
▁ᏗᎫᎪᏗᏍᎩ	-10.8206
▁ᏚᏬᎡᎢ	-10.8206
▁ᏚᏪᏲᏁ	-10.8207
▁ᏗᎫᎪᏗᏱ	-10.8207
▁ᏗᎦᎴᏴ	-10.8208
▁ᎠᏂᎦᏲᎵᏳ	-10.8208
▁ᎤᏁᏉᎢᏍᏗᏱ	-10.8209
▁ᏚᏚᎪᏔᏅ	-10.8209
▁ᏂᎦᎾᏰᏍᎬᎾ	-10.821
▁ᎤᏂᏍᎦᎴᎢ	-10.8211
▁ᎦᏓᏙᎵᏍᏗᏍᎬ	-10.8211
▁ᏗᏂᏢᏗᏱ	-10.8212
▁ᎤᏂᏃᎮᏗ	-10.8212
▁ᎤᏬᏪᎳᏅᎯ	-10.8213
▁ᎠᎩᏃᎮᏍᎩ	-10.8214
▁ᏫᏯᏅ	-10.8214
▁ᎤᎦᏑᎲᎢ	-10.8214
▁ᎠᏤᏍᏙᎩᎯ	-10.8215
▁ᎬᏩᏂᏴᏗᏱ	-10.8216
ᎥᏏ	-10.8218
▁ᏁᏪᏎᎴᎢ	-10.8218
▁ᎭᏓᏅᎾ	-10.8218
▁ᎦᎷᎪᎢ	-10.8218
▁ᎤᏂᏁᎢᏍᏗᏱ	-10.8219
ᏍᏕᎸᎲ	-10.8221
ᏥᏁᏗᏱ	-10.8223
▁ᎢᏨᏬᏁᏔᏅ	-10.8224
ᏱᏢᏗ	-10.8227
▁ᎠᏥᏂᏌᏅ	-10.8229
▁ᏕᎦᏃᏣᎸ	-10.823
▁ᎣᏥᏃᎮᏍᎩ	-10.823
▁ᎤᎾᏁᎳᏗᏍᏗᏱ	-10.8232
ᎵᏍᎦᏍᏙᏛ	-10.8233
ᏍᏆᏂᎪᏔᏂ	-10.8234
▁ᎣᏤᎯ	-10.8234
▁ᏚᏂᎧᏁᎢ	-10.8235
▁ᎡᏥᎨᏳᎢ	-10.8235
▁ᎠᏁᎵᏍᎨᎢ	-10.8235
ᎢᏥᎦᏔᎾᎢ	-10.824
▁ᎤᎾᏠᎾᏍᏛ	-10.8241
▁ᎢᏦᎵᎩ	-10.8247
▁ᏕᎦᎧᎲ	-10.8248
▁ᏧᏓᎴᏅᎢ	-10.8248
▁ᏧᏂᏁᏗᏱ	-10.8251
ᏴᏁᎵ	-10.8253
▁ᎠᎶᎻ	-10.8253
▁ᎤᎾᏓᏙᎵᏍᏗ	-10.8253
▁ᏚᏂᏲᏎ	-10.8254
ᏪᏎᎸᎩ	-10.8254
ᏣᏛᏁᎮᏍᏗ	-10.8255
▁ᎠᏍᏓᏱᏗᏍᎩ	-10.8255
▁ᏚᏳᎪ	-10.8258
▁ᎤᏓᏅᏙᎩᎯ	-10.8259
ᎡᎪᎢ	-10.8259
▁ᏧᎨᏳᎯᏳ	-10.8262
▁ᎤᎾᏣᎢ	-10.8265
▁ᏗᏤᎷ	-10.8267
▁ᏓᏆᎴᎷ	-10.8271
▁ᎠᎵᏍᏓᏴᎲᏍᎬᎢ	-10.8277
▁ᎤᏪᏙᎴᎢ	-10.8279
▁ᎤᏪᏁᎢ	-10.8282
ᎾᏰᎯᏍᏗ	-10.8284
▁ᏚᏂᏢᎬᎢ	-10.8284
▁ᏭᏂᎷᏤᎢ	-10.8288
ᎵᏍᏔᏅᎯ	-10.829
▁ᎾᎩᏪᏒ	-10.829
▁ᏕᎦᏍᎩᎸᎢ	-10.8291
ᏂᏙᎲᎢ	-10.8291
▁ᏥᏍᎦᏅᏤᎸ	-10.8292
▁ᏥᏬᏂᏍᎬ	-10.8293
ᏐᏅᎢᏍᏔᏅᎯ	-10.8295
▁ᏫᏗᏥ	-10.8297
▁ᏂᎦᏪᏎ	-10.8299
▁ᎤᏩᏔᏅᎩ	-10.8301
ᎬᏍᎪᎸᏁ	-10.8302
▁ᎣᎦᏓ	-10.8309
▁ᎤᏂᏰᎸᏎ	-10.8311
▁ᏚᏑᏰᏒ	-10.8315
ᎦᏔᎲ	-10.832
▁ᎠᏂᏙᎾᎥᎢ	-10.8322
▁ᏣᏚᎵᏍᎪ	-10.8322
▁ᏣᎦᎴ	-10.8323
▁ᏂᎦᎥᎢ	-10.8323
▁ᏅᏩᏓᎴᎢ	-10.833
▁ᎾᏛᏁᎰ	-10.8331
▁ᏓᏂᎧᏅ	-10.8331
ᏍᎦᏅᏨᎢ	-10.8335
ᎾᏙᏓᏆ	-10.8335
▁ᎢᏍᏗ	-10.8339
ᏤᎳ	-10.8343
▁ᏚᏁᎴᎢ	-10.8348
▁ᏂᎬᏁᎮ	-10.8351
ᎵᏍᏓᏁᎵᏕᎬ	-10.8352
▁ᎠᎢᏒᎩ	-10.8352
▁ᏧᏓᎴᏅᎲ	-10.8356
ᎢᏍᏔᏂ	-10.8357
▁ᎡᏣᎸ	-10.8359
▁ᏛᎪ	-10.8374
ᏂᏏᏍᎨᏍᏗ	-10.8377
ᏣᏙᎴᎰ	-10.8383
▁ᎤᏲᎱᏎᎢ	-10.8386
▁ᎤᏪᎧᎲ	-10.8386
ᏁᏤᎵ	-10.8391
ᏲᎯᏎᏗᏱ	-10.8397
▁ᏚᏂᎧᎵ	-10.8399
▁ᏴᎦᎦᏗ	-10.8401
▁ᎠᏂᎾᏄᎪᏫᏍ	-10.8401
ᎪᏃ	-10.842
▁ᏂᏕᏨ	-10.8423
ᏍᎦᎢᎮᏍᏗ	-10.8426
ᎾᏍᏉ	-10.8429
ᎦᏥᏯᏠᎢᏍᏓᏁ	-10.8431
▁ᎬᏩᎵᎪᏁ	-10.8439
▁ᏂᏨᏪᏎᎸ	-10.8439
▁ᎢᏨᏁ	-10.8445
ᎵᎪᏁᎸᎯ	-10.8448
ᎾᏄᎪᏫᏍᎦ	-10.8449
▁ᏱᏚᏳᎪ	-10.8451
▁ᏓᏥᏲ	-10.8453
ᏁᏟᏴᏎ	-10.8455
▁ᎤᏂᏁᏨᎩ	-10.8462
▁ᎠᏆᏓᏅᏙᎩ	-10.8464
ᏩᏒ	-10.8468
▁ᏕᎬᏕ	-10.8471
▁ᏳᏰᎸᏁ	-10.8471
▁ᏂᎦᏛᏁᎲ	-10.8477
▁ᎵᏓ	-10.8478
ᏍᏕᎢ	-10.848
ᏅᏓᏗᏍᏙᏗ	-10.848
ᏴᏛ	-10.8481
▁ᎤᎾᏦ	-10.8482
ᏚᎪᏓᏁᏗ	-10.8484
▁ᎤᏓᎪᎵᏰᏗ	-10.8485
ᎳᏍᎪᎯ	-10.8488
ᎪᎯᏳᏗ	-10.8493
ᏣᏓᏅᎦᎸᏛ	-10.8494
ᏅᏔ	-10.8503
Ꮬ	-10.8511
▁ᏧᏃᎸ	-10.8515
ᏍᎪᏂᎯ	-10.8517
▁ᏗᏓᎴᏂᏍᎬᎢ	-10.852
ᏰᎵᏎ	-10.8522
▁ᏧᏄᎪᏙᏗ	-10.8524
▁ᎬᏩᏛᏛᏅᎩ	-10.8532
ᏴᎳ	-10.8545
▁ᎠᏂᎪᏩᏘᏍᎬ	-10.8546
▁ᎤᏅᏁ	-10.8552
▁ᏂᏓᏛᏁᎲ	-10.8555
▁ᎤᎶᏒᏍ	-10.8556
ᎪᏩᏗᎭ	-10.8557
▁ᎦᎸᏉᏗᏳᏍᎩᏂ	-10.8562
ᏲᎱᏍᎦ	-10.8563
▁ᏙᏓᎦᏅ	-10.8571
▁ᎢᏍᎩ	-10.8573
▁ᎤᏁᎸ	-10.8575
▁ᎢᏥᎨᏳᎯ	-10.8579
ᎨᏅᏴ	-10.8581
ᏗᏔᎲ	-10.8586
▁ᎦᎵᎷᎨᏍᏗ	-10.8589
▁ᎠᏆᎫᏴ	-10.8593
▁ᎤᏂᎪᎲᎢ	-10.86
ᎾᏠᏱ	-10.8604
▁ᎨᏥᏯᏅ	-10.8606
ᏂᏪᏎ	-10.8608
ᎾᏍᎩᏯ	-10.8611
ᏍᏕᎵᏍᎬ	-10.8613
ᎮᎸᎯ	-10.8615
ᏅᏛ	-10.8626
▁ᎤᎾᏓᏅᏔᏩᏕ	-10.8628
ᎸᏫᏍᏓᏁᎴ	-10.8631
ᏍᏈ	-10.8633
ᏴᎭ	-10.8636
▁ᏛᎩ	-10.8638
▁ᎯᏰ	-10.8642
ᏓᎢᏅᏗᏱ	-10.8643
▁ᎢᎨᏥ	-10.8645
ᏰᏍᏗ	-10.8647
▁ᎢᎡ	-10.8651
ᎵᎸ	-10.8652
▁ᎤᏬᎭ	-10.8653
▁ᎤᏩᏛ	-10.8655
▁ᎤᏁᏉᏤ	-10.8655
ᏛᏅᎢᏍᏔᏅᎯ	-10.866
ᏄᏪᏒᎩ	-10.8662
ᎦᎸᏉᏗ	-10.8665
ᏂᏅᎪᎠ	-10.868
▁ᎤᏢᎨ	-10.8682
ᏖᎵ	-10.8686
ᏗᏏ	-10.8688
ᎿᎥᎾ	-10.8694
▁ᎤᎵᏍᎪᎸᏙᏗ	-10.8704
ᎵᏂ	-10.8711
ᏔᏫᎢᏍᏗᏱ	-10.8712
▁ᎤᏂᎧᎵ	-10.8713
ᏕᏲᏅᎯ	-10.8716
ᏘᏃᎸᎩ	-10.8721
▁ᏗᎬᏩᏂᏐᏢ	-10.8722
▁ᎠᏫᏃ	-10.8728
ᏚᏓᎴᏍᏗᏱ	-10.8735
ᏕᏘᏴ	-10.8735
▁ᎢᏥᎦ	-10.8736
▁ᎣᏍ	-10.8737
ᏍᏚᏗ	-10.8745
▁ᎤᎭ	-10.8753
▁ᎢᏳᏪᏍᏗ	-10.8758
▁ᎤᏣᏘᏂᏉ	-10.876
ᏬᏁᏙᏗ	-10.8766
ᏓᏬᏍᏙᏗ	-10.8777
ᎸᏉᏗᏍᎩ	-10.8784
ᎪᎱᏍᏗ	-10.8796
ᎩᎧᎭ	-10.8806
ᎦᏔᎲᎩ	-10.8811
▁ᏓᏕᏲᎲᏍᎨ	-10.8817
ᏁᏤᎢ	-10.8823
▁ᎢᏥᎧᎵᎢ	-10.8837
ᏥᏁᎢᏍᏗᎭ	-10.8839
ᏓᏅᏬᏗ	-10.8843
ᏂᎴ	-10.8857
▁ᎬᏩᎨᏳᎯ	-10.8869
ᎪᎵᏰᏗ	-10.8876
▁ᎬᏩᎾᏓ	-10.8881
▁ᎤᏓᏅᏖᎸ	-10.8884
▁ᎢᎶ	-10.8886
ᏓᏗᏍᏗ	-10.8887
▁ᎡᎶᎯᏉ	-10.8888
ᎠᏓᏅᏙ	-10.889
ᏛᏎᎢ	-10.8903
ᏰᎢ	-10.891
ᏏᏰᏃ	-10.8911
ᎣᏍᏛ	-10.8918
ᏂᏍᎦᎩ	-10.8922
ᏍᏆᏂᎪᏔᏅ	-10.8924
ᏕᎪᎢ	-10.8937
▁ᎠᏞ	-10.8945
▁ᎢᏨᎪ	-10.8952
ᏍᏕᎾ	-10.8952
ᏅᏓᏓ	-10.8955
▁ᏙᎤ	-10.8967
▁ᎤᏪᏙᎵᏍᏗ	-10.8971
ᎯᏉ	-10.8981
▁ᏱᏂᎪ	-10.8981
▁ᎠᎦᏴᎵᎨᏍ	-10.8981
▁ᏂᏚᏂ	-10.8986
▁ᏕᏣᏓᏲᎵ	-10.9
▁ᏕᎭ	-10.9012
ᏙᎲᎩ	-10.9038
ᎡᎲᎢ	-10.9043
ᏗᏔᏍᏗᏱ	-10.9044
ᏚᎢᏍᏓᏁᎴ	-10.9063
ᎵᎻ	-10.9064
ᏍᏆᏂᎪᏕᏍᏗ	-10.9065
ᏙᎵᏨᎯ	-10.907
▁ᎤᏂᎲ	-10.9071
ᏤᎵᎦ	-10.9078
ᏎᎮ	-10.9081
ᏏᏗᏒ	-10.9087
▁ᏂᏗᏣ	-10.9088
ᎸᏍᎦ	-10.9089
ᎪᎲᏍᎬ	-10.91
ᏂᏧᏈᏍᏗ	-10.9104
▁ᏚᎵ	-10.9105
▁ᎤᏕ	-10.9106
▁ᎠᏂᏉ	-10.9112
▁ᎤᎾᏠ	-10.9116
▁ᎠᏉ	-10.9119
ᎬᏂᎨᏒ	-10.9121
▁ᎤᏒᎢ	-10.913
ᎿᏕᎦ	-10.9131
ᏣᏛᏁᎲᎢ	-10.9137
ᎪᏩᏘᏍᎬᎩ	-10.9138
ᏍᎩᏯ	-10.9141
▁ᎠᎦᎵᏍᎪᎸᏓᏁᎸ	-10.9145
▁ᎠᏥᏙᎵᏍᏗ	-10.9147
ᏅᏯ	-10.9151
ᏙᎮᎢ	-10.9154
▁ᎤᏂᏅ	-10.9155
ᎦᎷᎩ	-10.9157
ᏛᏐᏅᎯ	-10.9171
ᏥᏁᎸ	-10.9175
▁ᏱᎨᏣ	-10.9176
ᏓᏲ	-10.9178
▁ᏕᎨᏒ	-10.918
▁ᎢᏨᏲᏪᎳ	-10.9182
ᏚᎵᎭ	-10.9188
▁ᎤᎾᏚᎵᏍᎨ	-10.9198
▁ᎤᏬᎯᏳᎯ	-10.9204
▁ᎢᏦᎵᏍ	-10.9207
ᏅᏓᏗᏍᏗᏱ	-10.9211
▁ᎤᏩᏒᎯ	-10.9211
▁ᏛᏥ	-10.9217
▁ᏥᏍᏓ	-10.9218
▁ᏗᎬᏙᏗ	-10.9224
ᏓᏙᎵᏍᏓᏁᏗ	-10.9228
ᏓᏅᏛᎵ	-10.9232
▁ᏱᏂᏥᏪ	-10.9232
▁ᎤᏂᏃᏁ	-10.9241
ᏴᏁᏗᏱ	-10.9244
ᏍᏆ	-10.9245
ᎧᎿᏩᏛᏍᏗ	-10.9251
ᏘᏰ	-10.9254
ᏓᏯᏂᏍᎪ	-10.9267
▁ᎢᏰ	-10.927
ᏥᎪᎥ	-10.9283
ᏘᏳ	-10.9284
▁ᎤᎾᏛᏓᏍ	-10.9285
▁ᎠᎵᏥᏙ	-10.9286
ᏓᏅᏖᎴ	-10.9291
ᏥᎤᏍᏕᏎᎸ	-10.9296
ᏴᏔᏁᎢ	-10.9299
▁ᏔᎳ	-10.9307
ᏗᏂ	-10.9308
ᎵᎮᎵᏍᏗᏱ	-10.9313
ᏚᏳᎪᏛ	-10.9313
▁ᎠᎾᏁᎷᎩ	-10.9331
ᏰᎸ	-10.9332
ᏚᎵ	-10.9334
▁ᏕᎤᎴ	-10.9335
▁ᎤᎩ	-10.9337
▁ᎭᏰᎳᏍᏗ	-10.9343
ᎳᏅ	-10.9349
ᎠᏁᎯ	-10.9353
Ꮱ	-10.9354
ᏍᏓᎳ	-10.9355
▁ᎢᏣᏕ	-10.9357
▁ᎤᏂᏣᏘᏰᏃ	-10.9361
ᏡᏔᏂ	-10.9369
▁ᏚᎧᎿᏁ	-10.9377
▁ᎠᏲ	-10.9382
ᏁᎮ	-10.9384
▁ᏥᏁᏣᏛᏁ	-10.9384
▁ᏱᏂᎦ	-10.9386
▁ᏧᏬ	-10.9388
ᏂᎬᎬᎢ	-10.9389
▁ᏫᏱ	-10.9391
▁ᏓᎨᏥ	-10.9393
▁ᏍᎩᏁ	-10.9397
ᎢᏧᎳᎭ	-10.9399
▁ᎣᎦᏒ	-10.9402
ᎾᏓᎳ	-10.9411
ᏙᎸᎯ	-10.9417
▁ᎡᎶ	-10.9422
▁ᏝᏰ	-10.9426
▁ᏴᎨᏨ	-10.9427
▁ᎢᎬᏩᏅᏁ	-10.9431
ᏇᏓ	-10.9433
ᏔᎵ	-10.9433
▁ᎢᎤ	-10.9439
ᎰᏩ	-10.944
▁ᎨᏦᎯᏳ	-10.9443
ᏂᏒ	-10.9456
ᏴᎢ	-10.9456
▁ᎤᏓᏙ	-10.9457
ᏅᏗᏍᎪ	-10.9465
▁ᏝᏬ	-10.9466
ᏍᏓᏴ	-10.9471
▁ᎬᏩᏁ	-10.9472
ᎠᏂ	-10.9477
ᎷᏥᎸ	-10.9478
ᎷᏨ	-10.9479
ᎺᎵ	-10.9481
ᏳᎪᏗ	-10.9486
▁ᎢᏓᏙᎴᎰᎯ	-10.9489
ᎦᏓᎭ	-10.9489
ᏁᎢᏍᏗ	-10.9491
▁ᏥᏅᏗᎦᎵᏍᏙᏗ	-10.9491
▁ᎾᎿᏉ	-10.9493
ᏆᏏ	-10.9493
▁ᎾᏋᏁ	-10.95
ᏛᏁᎰᎢ	-10.951
ᎯᏳᎲᎦ	-10.9511
▁ᎠᎩᏁᏤ	-10.9515
ᎬᏍᎦᎳ	-10.9532
ᎸᎢᏍᏗ	-10.9534
ᏥᎳᏅᏓᏕ	-10.9535
▁ᏄᎪᎸ	-10.9542
▁ᏧᏃ	-10.9545
ᎾᏰᏍᎦ	-10.9562
ᏥᎾᏰᏍᎬᎢ	-10.9563
ᏲᏞᏒ	-10.9564
ᏓᏅᏔᏩᏕᎬ	-10.9564
ᏂᎦᎴ	-10.9566
ᎯᎮᎢ	-10.9569
▁ᎾᏥᏪᏎᎴ	-10.9571
ᎩᏰᎸᎭ	-10.9578
▁ᎢᏥᏁᏉ	-10.9578
▁ᏯᏓᏅᏖ	-10.9586
ᎤᎬᏫᏳᎭ	-10.9588
▁ᏓᎬᏩᎵ	-10.959
ᏣᏓᏅᏖᏍᎨᏍᏗ	-10.9591
▁ᎤᎵᏍᏕᎸᏙ	-10.9591
ᎪᏢᏔᏅᎯ	-10.9599
▁ᎦᏙᎦ	-10.9603
ᎠᏗᏒ	-10.9606
ᏍᏚᎢᎡᎸ	-10.9612
ᏩᎾᎦᎳᎯᏳ	-10.9613
▁ᏁᏣ	-10.9616
ᏂᎦᏛ	-10.962
ᏥᏃᎮᎭ	-10.9623
ᏓᎩᎸᏫᏍᏓᏁᎲ	-10.9623
▁ᏑᏟᎶᏛ	-10.9624
▁ᎠᎩᏅ	-10.9626
ᏓᏡᏗᏍᎪᎢ	-10.9626
ᏕᎨ	-10.9629
▁ᎥᏝᏰ	-10.9629
ᏓᏂᎸᎩ	-10.963
ᏗᎦᎵᏍᏙᏗᎭ	-10.9641
ᏈᏓ	-10.9641
ᏓᎵᏅᏟ	-10.9646
▁ᎣᎦᎵ	-10.9647
▁ᎤᎿ	-10.9661
▁ᏚᏂᏣ	-10.9662
▁ᏗᏩᎾᎦᎳ	-10.967
ᎩᎡᎸ	-10.967
ᏅᎢᏍᏔᏅᎯ	-10.9676
ᎬᏗᏍᎨᎢ	-10.9693
ᏢᏈᏍᏗ	-10.9694
ᎳᏍᏔᏁ	-10.9697
ᏣᏓᏁᎮᏍᏗ	-10.9706
ᎾᏓᏗᏍᎪ	-10.9713
ᏣᎴᏛ	-10.9715
▁ᎦᎴᏂ	-10.9717
ᎦᏖᏃᎲ	-10.9717
ᏍᏓᏁᎸ	-10.9718
▁ᏧᏂᏰᎸ	-10.9731
ᏄᎪᏫᏏ	-10.9735
ᏂᎦᏛᏁᎰᎢ	-10.9735
ᏪᏏ	-10.974
ᎪᎲ	-10.9752
ᏨᏒ	-10.9758
ᎦᏥᏅᏬᏗ	-10.9758
▁Ꮠ	-10.976
▁ᎤᏃᎮᎸ	-10.9763
▁ᏂᏣᏛᏁᎰ	-10.9764
ᏧᏣ	-10.9766
ᏴᏍᏗᏱ	-10.9767
▁ᎧᏃᎮᏍᎬ	-10.977
▁ᎣᏓ	-10.9771
ᎷᏤᏗ	-10.9775
▁ᏕᏦ	-10.978
▁ᏧᏭᎪ	-10.9781
ᏅᎡᎵ	-10.9783
ᏍᏗᏍᎨᎢ	-10.9784
ᏥᏯᏅᏗ	-10.9786
ᎵᏍᎪᎸᏓ	-10.9792
ᎾᎾᏛᏁᎰ	-10.9794
ᏍᏓᏩᏛᏒᎩ	-10.9797
ᎵᏍᏙᏗᏱ	-10.9799
▁ᏓᎩᎪᎲ	-10.98
▁ᏚᏅᏩᏁ	-10.9801
ᎵᏍᎪᎸᏗᏍᎬ	-10.9802
▁ᏂᏚᏂᏪᏎᎴ	-10.9804
▁ᏧᎶᏎ	-10.9804
▁ᏕᎦᎳᏅᏛ	-10.9806
▁ᏓᎾᏓᏅᏖᏍᎬ	-10.9806
▁ᏓᏓᏁᎳᏗᏒ	-10.9806
ᎲᏍᎦ	-10.9807
ᎧᏃᏗ	-10.9807
▁ᏭᏂᏴᎴ	-10.9809
▁ᎢᏨᏁᎢᏍᏗᏍᎬ	-10.9809
▁ᎠᏗᏔᏍ	-10.9809
▁ᎤᎿᎥ	-10.981
▁ᏄᎵᏍᏓᏁᎸ	-10.9811
▁ᎤᏓᏙᎵᏍᏔᏁ	-10.9812
▁ᎤᏓᏑᏴ	-10.9812
▁ᎾᏆᎵᏍᏔᏅ	-10.9812
▁ᎾᏂᎡ	-10.9813
▁ᎠᎩᎪᏁᎸ	-10.9815
▁ᎠᎾᎵᎮᎵᎬ	-10.9815
▁ᏬᎩᎷᏨ	-10.9816
▁ᎠᏥᎸᏉᏙᏗ	-10.9817
ᏍᏗᏰᎬ	-10.9817
ᏑᎵᎪᎬᎾ	-10.9817
ᎦᎶᎨᏒ	-10.9818
▁ᏚᎸᏫᏍᏓᏁᎮ	-10.982
▁ᏚᎾᎴᏅ	-10.982
ᎿᏩᏗᏒ	-10.9821
ᏅᎲᎭ	-10.9824
▁ᎠᏐᏢᎢᏍᏗᏍᎬ	-10.9824
▁ᎤᏃᎯᏳᏁ	-10.9825
▁ᎠᎩᎵᏲᎬ	-10.9828
▁ᏕᏥᎨᏳ	-10.9834
ᎦᎸᎢᏛ	-10.9834
▁ᎤᏃᏴᎬ	-10.9834
▁ᏚᎩᏒ	-10.9834
ᏍᏓᏩᏛᏎ	-10.9835
▁ᏗᎻ	-10.9835
▁ᏗᏕᎶᏆᏍ	-10.984
▁ᏂᎦᎵᏍᏔᏂ	-10.984
▁ᏣᏁᏨ	-10.984
ᏓᏯ	-10.9841
ᏨᏰᎳᏗᏙᎭ	-10.9842
▁ᎠᎵᏍᏕᎵᏍᎬ	-10.9843
ᏲᎦᏛᏁᏗ	-10.9844
ᏏᎾᏍᏛ	-10.9844
▁ᎦᎾᏄᎪᏥᎸ	-10.9847
▁ᎡᎩᏁᎸ	-10.9847
▁ᎦᏃᎪ	-10.9849
ᏢᏉᏙᏗ	-10.9851
▁ᏳᎾᏚᎵ	-10.9851
▁ᎤᎶᎨᏒ	-10.9852
▁ᎠᎾᏛᎩ	-10.9852
▁ᎢᏥᎦᏔᎯ	-10.9852
▁ᎢᏨᏲᏎ	-10.9853
ᏓᏅᏖᏍᎪ	-10.9853
▁ᎤᏍᏓᏩᏛᏎ	-10.9853
ᏚᎲ	-10.9854
ᏬᏁᏔᏁ	-10.9855
▁ᎢᏳᏩᏂᏐᏗ	-10.9855
▁ᏗᎬᏩᎸᏌ	-10.9856
▁ᏇᏗᏂ	-10.9857
▁ᎣᎾᏫ	-10.9857
▁ᎥᏞ	-10.9857
▁ᏫᏨᎷᏤᏗ	-10.9859
ᏜᏏᏛᎡᎲᎾ	-10.986
ᎵᎨ	-10.9863
▁ᏓᎧᎿᏩᏗ	-10.9863
▁ᎦᎷᏨ	-10.9863
▁ᏂᎨᏎ	-10.9864
ᏩᏙᎯᏯᏛ	-10.9864
▁ᎤᏰᎸ	-10.9865
ᏣᎵᎡᎵᏤᏗ	-10.9865
ᏓᎴᎲᏍᎬᎩ	-10.9866
▁ᎦᏃᏙᏗ	-10.9866
ᏍᏕᎵᏌᏕᏒᎭ	-10.9867
ᏣᏪᏐᎸᏍᏓ	-10.9867
▁ᎠᎦᏔᏙᎥᏗᏍᎩ	-10.9867
▁ᎠᎵᏱᎵᏒᎢ	-10.9867
▁ᎡᎵᎣᏈᎦ	-10.9867
▁ᎡᎾᎢᏓᏍᏗᏱ	-10.9867
▁ᎢᎵᎡᏌ	-10.9867
▁ᎤᏪᏯᎸᏤᎢ	-10.9867
▁ᎥᏖᎣᎩ	-10.9867
▁ᏁᏍᏗᏪᏎᎸᎭ	-10.9867
▁ᏂᎠᏂᏪᎭ	-10.9867
▁ᏂᎧᏪᏍᎬᎩ	-10.9867
▁ᏓᎦᎫᏴᎯ	-10.9867
▁ᏓᎪᏄᎶᏏᏙᎮᏍᏗ	-10.9867
▁ᏓᎵᏖᎸᏂᏙᎮᏍᏗ	-10.9867
▁ᏓᏛᎯᏍᏓᏁᎮᏍᏗ	-10.9867
▁ᏓᏳᏗᏩᏏ	-10.9867
▁ᏕᏥᏅᎪᎥᏗᏍᎨᏍᏗ	-10.9867
▁ᏗᏔᎳᏗᏍᏗᏱ	-10.9867
▁ᏙᏓᏳᎸᏫᏍᏓᏁᎵ	-10.9867
▁ᏥᏯᎵᎪᏁᎯ	-10.9867
▁ᏩᏂᎶᏒᎭ	-10.9867
▁ᏱᏍᎩᏲᎢᏳᏁᎢ	-10.9867
▁ᏱᏚᏓᏌᏝᎮᏍᏗ	-10.9867
▁ᏱᏣᏁᎢᏍᏔᏁᏍᏗ	-10.9867
ᏅᏓᎨᏨᏁᎵ	-10.9867
ᏚᎾᏓᏩᏛᏔᏁᎢ	-10.9867
▁ᎠᏂᏁᏄᎳᏍᏗᏍᎪ	-10.9867
▁ᎦᏃᎴᏍᎬ	-10.9867
▁ᎨᏤᎳᏗᏙᎭ	-10.9867
▁ᏆᎻᏈᎵᏱ	-10.9867
▁ᏍᎩᏯᏅᏓᏗᏍᎬᎢ	-10.9867
▁ᏓᏓᏬᏍᏗᏍᎬᎩ	-10.9867
▁ᏗᏋᏅ	-10.9867
▁ᏚᏂᏖᎸᏁ	-10.9867
▁ᏠᏆᎹ	-10.9867
▁ᏱᏙᎬᏩᎸᏫᏍᏓᏏ	-10.9867
▁ᎤᏂᏍᏛᏛᎯ	-10.9867
▁ᏍᎩᎨᏳᎭᏧ	-10.9867
▁ᏣᏗᏫᏍᏓ	-10.9867
▁ᎯᏍᏆᎵᏍᎨᏍᏗ	-10.9867
▁ᏱᎾᏥᎸᏉᏙ	-10.9867
ᏥᏍᎩᏅᏛᎯ	-10.9867
▁ᏕᏦᏢᎯᏏ	-10.9867
▁ᏗᏟᏍᏙᏗ	-10.9867
▁ᏯᏎᎦᎩ	-10.9867
▁ᎢᏍᏉᏎᎭ	-10.9867
▁ᎢᏣᎫᏱᏍ	-10.9867
▁ᏥᏚᏃᎱ	-10.9867
▁ᏫᏓᏗᏅᏗ	-10.9867
▁ᏬᎩᏃᎸᎩ	-10.9867
▁ᎤᏲᏏᏌᏁᎢ	-10.9867
▁ᏓᏰᎵᎯᏍᏗᏍᎬ	-10.9867
▁ᏙᏛᏂᏴᎳᏏ	-10.9867
▁ᏱᏅᏓᎦᎵᏍᏙᏓ	-10.9867
▁ᏱᏗᏥᏍᏓᏲ	-10.9867
▁ᏳᏲᎱᏎᎸ	-10.9867
▁ᎾᏂᏴᎬᎾ	-10.9867
▁ᏓᏉᏙᎥ	-10.9867
▁ᏫᏴᎨᏥᎷᎩ	-10.9867
▁ᎠᎦᏠᏯᏍᏔᏅᎩ	-10.9867
▁ᎠᏓᎾᏌᎲᏍᎩ	-10.9867
▁ᏱᎦᏥᎪᎥᏍᎦ	-10.9867
▁ᎠᏲᏓᏝᎲᎢ	-10.9867
▁ᏩᏚᎵᏏ	-10.9867
▁ᏚᏬᏑᎴ	-10.9867
ᏙᏥᎵᏦᏛᎦ	-10.9867
▁ᏫᏚᎾᏘᏃᎮᎸᎩ	-10.9867
▁ᎤᏘᏃᎴᎢ	-10.9867
▁ᏄᎵᏍᏚᎸᎾ	-10.9867
▁ᏗᎬᏩᎾᏛᎪᏙᏗ	-10.9867
▁ᎤᎾᏓᏁᏟᏴᏒᏒ	-10.9867
▁ᏂᏤᎵᏍᎬᎾ	-10.9867
▁ᎤᏕᏒᏂᎸᎯ	-10.9867
▁ᎨᏥᏍᎩᏅᏗᏍ	-10.9867
▁ᏐᎣᏁᎵᏁ	-10.9867
▁ᎧᏃᎨᏂ	-10.9867
▁ᏄᎾᏓᏅᏛᎾ	-10.9867
▁ᏒᎦᏙᎯ	-10.9867
▁ᏥᏂᏴᏁᎭ	-10.9867
▁ᏫᎾᏴᎯ	-10.9867
▁ᏓᏳᏂᏄᎪᏨᎩ	-10.9867
▁ᏗᏂᏏᎲᏍᎩ	-10.9867
▁ᏌᎾᏱ	-10.9867
▁ᏱᏂᏣᏍᏕᏍᏗ	-10.9867
▁ᎭᎴᎲᎦ	-10.9867
▁ᏂᎦᎵᏍᏔᏂᏙᎮᏍᏗ	-10.9867
▁ᎠᏓᏰᎮ	-10.9867
▁ᏗᎨᎦᏛᏅᎯ	-10.9867
▁ᏗᏇᏅᏒ	-10.9867
▁ᎯᏯᏓᏙᎵᏍᏓᏁᎮᏍᏗ	-10.9867
▁ᏂᎪᎵᎬᎾ	-10.9867
▁ᏓᏳᏓᎴᏅᎩ	-10.9867
▁ᎠᎾᏓᎩᎡᎯ	-10.9867
▁ᏅᏓᎬᏴᏁᎵ	-10.9867
▁ᎡᏓᏤᎵᎦ	-10.9868
▁ᏓᏁᏙᎲᎩ	-10.9868
▁ᏥᏓᏓᏂᎸᎪᎢ	-10.9868
▁ᏂᏣᏓᏅᏛᎾ	-10.9868
▁ᏅᏓᎨᏥᏅᏏᏛ	-10.9868
▁ᏗᎾᏓᏙᏕᏍᏗᏍᎩ	-10.9868
▁ᏂᎦᏥᏪᏎᎭ	-10.9868
▁ᏓᎬᎷᏤᎵ	-10.9868
▁ᏥᏍᎦᏅᎩ	-10.9868
▁ᎾᏂᎦᏔᎿᎥᎾ	-10.9868
▁ᎤᏓᏅᏓᏕᎢ	-10.9868
▁ᏂᏓᏓᏂᎸᎬᎾ	-10.9868
▁ᎠᎵᏍᏆᏛᎭ	-10.9868
▁ᏁᎨᏒᎾ	-10.9868
▁ᎬᏩᏰᏍᏔᏁ	-10.9868
▁ᏍᎩᏁᎲᏏ	-10.9868
▁ᎢᏣᎵᏍᏓᏴᏗᏍᎨᏍᏗ	-10.9868
▁ᏄᎾᏓᏁᏟᏴᏎᎢ	-10.9868
▁ᏥᏂᎦᏛᏁᎭ	-10.9868
▁ᎤᏔᎳᏬᏍᎬᎢ	-10.9868
▁ᏴᏛᏂᎶᏐᏂ	-10.9868
▁ᏄᎾᏁᎸᎾ	-10.9868
ᎦᏌᏯᏍᏛᎾ	-10.9868
▁ᎬᏬᏍᏔᏅᎯ	-10.9868
ᎩᎵᎨᏂ	-10.9868
▁ᎢᏨᏰᎳᏗᏙᎮᏍᏗ	-10.9868
▁ᏍᎩᏲᎢᏳᎲᎦ	-10.9868
▁ᏥᏨᏰᎳᏗᏙᎲᎩ	-10.9868
▁ᎣᏣᏓᏅᏟ	-10.9868
▁ᏥᎦᏚᎭ	-10.9868
▁ᏅᏛᏅᏁᎵ	-10.9868
▁ᏳᏥᏍᎪᎸ	-10.9868
▁ᏕᏓᎧᏂᏍᎬ	-10.9868
▁ᏓᏂᏂᏓᏛ	-10.9868
▁ᎤᎾᏕᎶᏆᏍᏗᏱ	-10.9868
▁ᏚᎵᏍᏚᎸᎩ	-10.9868
▁ᏧᏩᎿ	-10.9868
▁ᎤᏱᎸᏒᎩ	-10.9868
▁ᏂᏥᏪᎠ	-10.9868
▁ᏍᎩᏂᏙᎵᎩ	-10.9868
▁ᏭᎦᏔᎲᏍᏔᏅ	-10.9868
▁ᏱᏗᏥᏍᎦᎢᎮᏍᏗ	-10.9868
▁ᏧᎾᏙᎢᏛ	-10.9868
▁ᏱᏓᏲᎩ	-10.9868
▁ᎠᏍᎦᏲᎯ	-10.9868
▁ᎾᎾᎵᏍᏗᎭ	-10.9868
▁ᎭᏅᏓᏓ	-10.9868
▁ᎠᎩᎷᏤᎮᏍᏗ	-10.9869
▁ᎤᏂᏔᎳᏬᏍᎬᎢ	-10.9869
▁ᏱᎯᎦᏔᎮ	-10.9869
▁ᎨᏤᎳᏗᏙᎮᏍᏗ	-10.9869
▁ᏣᎪᏎᎰᎢ	-10.9869
▁ᎤᎾᏓᏄᏴᏗ	-10.9869
▁ᎤᎵᏰᎢᎶᎸ	-10.9869
▁ᏍᎩᏯᏛᎦᏁᎸᎯ	-10.9869
▁ᏗᎦᏩᏒᎩ	-10.9869
▁ᏕᏨᏰ	-10.9869
▁ᏗᎬᏩᏂᎾᏝᎢ	-10.9869
▁ᎤᎾᏗᏒᎸ	-10.9869
▁ᎠᏓᏓᏱᎮᏍᏗ	-10.9869
▁ᏓᏨᏯᏛᏛᏂ	-10.9869
▁ᏠᏗᏯ	-10.9869
▁ᎤᎾᏣᏪᏐᎸᏍᏙᏗᏱ	-10.9869
▁ᏯᎩᏩᏛᎲ	-10.9869
▁ᎢᏥᏴᎯᎮᏍᏗ	-10.9869
▁ᏑᏓᎵᏍᎪᎯ	-10.9869
▁ᎠᏌᏍᏛ	-10.9869
▁ᎤᏂᏂᏴᎮ	-10.9869
▁ᏓᏂᎳᏍᏓᎳᏩᏗᏒᎢ	-10.9869
ᎵᏍᏙᏔᏁ	-10.9869
▁ᏱᎦᏂᏆᏘᎭ	-10.9869
▁ᎠᎩᏍᏕᎵᏍᎩ	-10.9869
▁ᎢᎨᏓᏍᏗᏱ	-10.9869
▁ᏚᎾᏚᏓ	-10.9869
▁ᏯᏬᏅ	-10.9869
▁ᎢᏏᎳᎻ	-10.987
▁ᎥᎩᏅᏟ	-10.987
▁ᏫᏙᏓᎨ	-10.987
▁ᎢᏨᏲᎵᎦ	-10.987
▁ᏂᎦᎸᏉᏗᏍᎬᎾ	-10.987
▁ᎡᏣᏓᏅᏛᎵ	-10.987
▁ᏙᏓᏦ	-10.987
▁ᏕᏣᎸᏫᏍᏓᏁᎮᏍᏗ	-10.987
▁ᏗᏂᏍᎪᎵ	-10.987
▁ᎠᏅᏍᎬᎢ	-10.987
▁ᏚᎧᎿᏂᏙᎸ	-10.987
▁ᎠᎵᏍᎪᎸᏓᏁᏗ	-10.987
▁ᏗᏂᎴᏂ	-10.987
ᎶᎾᏍᏗᏍᎨᏍᏗ	-10.987
▁ᏳᏍᎦᏅᏨ	-10.987
▁ᏍᏇᎵᏎᏗᏱ	-10.987
▁ᏓᏟᎶᏍᏗᏍᎬᎢ	-10.987
▁ᏳᏴᎵᎸ	-10.987
▁ᎤᏬᏪᎳᏅᎩ	-10.987
▁ᎬᏩᏴᎸᎯ	-10.987
▁ᎠᎩᏁᎢᏍᏗᏱ	-10.987
▁ᏗᏂᏂᏙᎯ	-10.987
▁ᎢᏣᏛᎪᏗ	-10.987
▁ᎢᏨᏍᏓᏩᏕᏅ	-10.987
▁ᏚᏰᎵᏒ	-10.987
▁ᏚᏅᏍᏓᏕᎴ	-10.987
▁ᎦᏟᏏᏍᎨᏍᏗ	-10.987
▁ᏧᏁᎩᏳ	-10.987
▁ᎭᏓᏅᏓᏓ	-10.987
▁ᎤᏬᎯᏤ	-10.987
▁ᏌᎵᎹ	-10.9871
▁ᏳᎵᏍᎪᎸᏓᏁᎴ	-10.9871
▁ᎢᎦᏪᏍᎩ	-10.9871
▁ᏌᏗᏏ	-10.9871
▁ᏚᎷᏆᏗᏅ	-10.9871
▁ᏗᎩᎸᏫᏍᏓᏁᎯ	-10.9871
▁ᎠᏂᎾᏰᏍᎩ	-10.9871
▁ᎢᏳᏪᏎᎸᎯ	-10.9871
▁ᎨᏣᎷᏤᏗᏱ	-10.9871
▁ᏘᏅᏏᏓᏍᏗ	-10.9871
▁ᎠᎾᎵᏅᏢ	-10.9871
▁ᎡᎩᏩ	-10.9871
▁ᎢᏨᏅᎵ	-10.9871
▁ᏳᏓᏅᏒ	-10.9871
▁ᏥᎨᎳᏗᏙᎮ	-10.9871
▁ᎡᎭᏠᎠᎯ	-10.9871
▁ᎠᏆᎴᏂᏓᏍᏗᏱ	-10.9871
▁ᎭᏓᏙᎵᏍᏗᏍᎬ	-10.9871
▁ᎢᏨᏯᏛᏁᏗᏱ	-10.9871
▁ᎭᎵᏍᏕᎸ	-10.9872
▁ᏑᏓᎵᎦᎵ	-10.9872
▁ᏴᏗᏓᎴᎲᏍᎦ	-10.9872
▁ᏕᎦᎫᏍᏓᎥ	-10.9872
▁ᏗᏂᏁᏟᏴᏍᎩ	-10.9872
ᏏᏏᏍᎩ	-10.9872
▁ᏤᏣᏛᏅᎩ	-10.9872
▁ᎦᏬᏂᏍᎩ	-10.9872
▁ᎢᏥᏂᎬᏎᎲᎢ	-10.9872
▁ᎤᏂᏌᎳᏓᏁ	-10.9872
▁ᎢᎦᏚᏓᎴᏍᏙᏗᏱ	-10.9872
▁ᏗᏥᎸᏫᏍᏓᏁᎯ	-10.9872
▁ᎭᎵᏍᏓᏴᎲᎦ	-10.9872
▁ᎡᎩᏁᏗᏱ	-10.9872
▁ᏧᏓᎴᏅᏔᏅᎯ	-10.9872
▁ᎡᏥᏙᎵᏨᎯ	-10.9872
▁ᏗᎳᏑᎶ	-10.9872
▁ᎢᏥᎾᏫ	-10.9872
▁ᎤᎵᏍᏚᎸᎩ	-10.9872
▁ᏧᏂᏲᎱᎯᏍᏗ	-10.9872
▁ᏭᏂᏴᏍᏗᏱ	-10.9872
▁ᎤᏓᏳᏓᎴᏅᎯ	-10.9873
▁ᏥᎨᏣᏓᏑᏯ	-10.9873
▁ᎦᏂᎳ	-10.9873
▁ᏚᏲᏍᎨᏍᏗ	-10.9873
▁ᎾᏐᏂ	-10.9873
▁ᎠᎵᏰᎢᎶᎦ	-10.9873
▁ᏚᏌᎳᏓᏁ	-10.9873
▁ᏂᏥᏪᏒᎭ	-10.9873
▁ᏌᎩᏯ	-10.9873
▁ᏗᏤᏲᎲᏍᎩ	-10.9873
▁ᎤᎧᎵᏦᏅ	-10.9873
▁ᏧᏂᎦᏯᎷᏗ	-10.9873
▁ᏓᎩᎸᏫᏍᏓᏁᎸ	-10.9873
▁ᏧᎦᎿᏁ	-10.9873
▁ᎠᏂᎪᏩᏗᏍᎬ	-10.9874
▁ᏕᏣᏓᏅᏖᏍᏗ	-10.9874
ᎾᎥ	-10.9874
ᏍᏓᏩᏕᏅ	-10.9874
▁ᎬᎩᎸᏉᏗᎭ	-10.9874
▁ᎡᏥᏯᎡᏍᏗ	-10.9874
▁ᎢᎫᏓᎴᏍᏗᏱ	-10.9874
▁ᏳᏂᎪᎮᎢ	-10.9874
▁ᎤᎾᏓᏙᎵᏍᏙᏗᏱ	-10.9874
▁ᎯᏍᎩᎦᏚ	-10.9874
▁ᏭᏃᏁᎸᎩ	-10.9874
▁ᎠᏂᏯᏙᎯᎯ	-10.9874
▁ᎠᏍᏆᎵᏍᎬ	-10.9874
▁ᏫᏨᏲᏪᎳᏁᏗᏱ	-10.9874
▁ᏱᏂᏣᏛᎦ	-10.9875
▁ᎤᏓᏴᏒᎩ	-10.9875
▁ᏂᏕᎬᏁ	-10.9875
▁ᏧᏪᏲᎲᏍᎩ	-10.9875
▁ᏗᏤᎵᏏ	-10.9875
▁ᎣᎦᎵᏍᏓᏴᏗᏱ	-10.9875
▁ᏫᏚᏂᏯᏅᎲ	-10.9875
▁ᎥᎩᏍᏕᎸᏗᏱ	-10.9875
▁ᎨᎪᏢᏅᎯ	-10.9875
▁ᎠᏂᎦᏲᎵᏉ	-10.9875
▁ᏂᏙᏓᎬᏁᎵ	-10.9875
▁ᎢᏯᏆᎵᏍᏓᏁᏗ	-10.9875
▁ᏥᏭ	-10.9875
▁ᏧᏂᎷᏤᎸ	-10.9875
▁ᏚᏏᏔᏛ	-10.9876
▁ᎢᏲᎦᏛᏁᏗᏱ	-10.9876
▁ᏦᎩᎾᏫᏱ	-10.9876
▁ᎠᏂᎷᏨᎭ	-10.9876
▁ᎤᏓᏅᎡᎴᎢ	-10.9876
▁ᏗᏥᏙᏓ	-10.9876
▁ᏱᏥᏯᎠ	-10.9876
▁ᎤᏍᏆᎸᎯᏕ	-10.9876
▁ᎢᏥᏲᎮᏍᏗ	-10.9876
▁ᎤᎾᏤᎸᎯ	-10.9876
▁ᎨᎵᏲ	-10.9876
▁ᎮᎳ	-10.9876
▁ᎤᎾᎳᏍᏓᎡᏗ	-10.9876
▁ᎤᏬᎯᏳᎯᏍᏛ	-10.9876
▁ᎤᎾᎪᎸ	-10.9876
▁ᎤᎦᏔᏔᏁᎢ	-10.9876
▁ᏕᏥᏁᏤᎭ	-10.9876
ᏤᎸᏍᎦ	-10.9876
▁ᏧᏲᏏᏍᎨ	-10.9876
▁ᎢᏥᏰᎸᏎᏍᏗ	-10.9877
▁ᏙᏓᏥ	-10.9877
▁ᏫᎷᎩ	-10.9877
ᎬᎭᎷᏰ	-10.9877
▁ᎤᏓᏴᏛ	-10.9877
▁ᎠᎦᏬᎥ	-10.9877
ᏖᎸᎲᏍᎦ	-10.9877
▁ᏦᏥᎦᏔᎭ	-10.9877
▁ᎤᎾᏓᏅᏍᏗᏱ	-10.9877
▁ᎤᏂᎪᎵᏰᏗᏱ	-10.9877
▁ᎠᏛᏍᎨᎢ	-10.9878
▁ᎤᏂᏁᎢᏍᏗ	-10.9878
▁ᏥᎧᏃᎮᎭ	-10.9878
▁ᏥᏤᎾ	-10.9878
▁ᏗᏣᎵᏂᎪᎯᏍᏙᏗᏱ	-10.9878
▁ᎬᎩᏁᏤᎸᎯ	-10.9878
▁ᎬᏩᏄᎪᏤ	-10.9878
▁ᏚᏘᏅᏒᎩ	-10.9878
▁ᎢᏥᎩᎵᏲᎢᏍᏗᏱ	-10.9878
▁ᏚᏫᏞᏫᏒ	-10.9878
▁ᎤᏂᏛᏗᏍᎩ	-10.9878
ᏁᎶᏕᏍᏗ	-10.9878
▁ᏋᏗᏱ	-10.9878
▁ᎠᏥᎢᏍᏗ	-10.9879
▁ᎥᏘᏍᎩ	-10.9879
▁ᎢᏨᏲᎢᏳ	-10.9879
▁ᎢᏣᎴᏂᏓᏍᏗᏱ	-10.9879
▁ᎢᏳᏂᏧᏈᏍᏗ	-10.9879
▁ᎡᏥᎸᏉᏓ	-10.9879
▁ᎤᎾᏠᏯᏍᏗ	-10.9879
▁ᏗᎨᏥᏰᎯ	-10.988
▁ᎠᏆᎵᎮᎵᏨᎩ	-10.988
▁ᏫᏥᎶᎯ	-10.988
▁ᏙᏗᎧᏂᏍᎬ	-10.988
▁ᎠᎩᏯᎥᎢ	-10.988
▁ᏧᎪᎳ	-10.988
▁ᎤᏗᎦᎵᏍᏙᏗᏍᎨᏍᏗ	-10.988
▁ᎢᏣᏗᏔᏍᏗᏱ	-10.988
▁ᏣᏍᏕᎸ	-10.9881
▁ᎤᏗᏩᏒᎩ	-10.9881
▁ᎤᏅᏓᏛ	-10.9881
▁ᎬᏩᏍᏚᎢᏍᏗ	-10.9881
▁ᎡᎯᏄᎪᎢ	-10.9881
▁ᎬᎩᎷᏤᏗᏱ	-10.9881
▁ᎣᎾᏫᏱ	-10.9881
▁ᎢᏤᎳᏗᏙᎭ	-10.9881
▁ᎤᎾᏓᏅᏓᏕᎢ	-10.9881
▁ᎢᏤᏙᎮᏍᏗ	-10.9881
▁ᎾᎫᎢᏍᏛᎾ	-10.9881
▁ᏥᏥᏯᎠ	-10.9882
▁ᎠᏥᏚᎢᏍᏓᏁᎸ	-10.9882
▁ᎡᏥᏍᏕᎸᏗ	-10.9882
▁ᎠᏉᎯᏳᎲᏍᎩ	-10.9882
▁ᏥᏂᏚᏩᏁᎸ	-10.9882
▁ᎡᏥᎸᏉᏗᏍᎨᏍᏗ	-10.9882
▁ᎤᏂᏐᏢᎢᏍᏔᏅᎩ	-10.9882
▁ᏓᏍᏕᎵᏍᎬᎩ	-10.9882
▁ᎠᏱᏍᎨᏍᏗ	-10.9882
▁ᎠᏂᎶᏍᎩ	-10.9882
ᏏᏙᏂ	-10.9882
ᏴᎳᏏ	-10.9883
▁ᏄᏲᎱᏒᎩ	-10.9883
▁ᎤᏂᏲᏍᏙᏗᏱ	-10.9883
▁ᏱᏂᏣᏛᏁᎭ	-10.9883
▁ᏥᎦᏘᏏᏗᏢ	-10.9883
▁ᎠᏂᎩᎵᏲᎬ	-10.9883
▁ᏍᎩᎢᏍᏗᏱ	-10.9883
▁ᎢᎩᏍᏕᎵᎭ	-10.9883
▁ᎤᏁᏓᏍᏗ	-10.9883
▁ᎢᏥᏈ	-10.9883
▁ᏭᏂᏴᎸᎩ	-10.9884
▁ᎤᏔᏕᎪᏗ	-10.9884
ᏑᏴᏁ	-10.9884
▁ᎤᎾᏗᏔᎲ	-10.9884
▁ᎡᏤᏲᏅᎢ	-10.9884
▁ᎡᏦᎯᏳᎲᏍᎩ	-10.9884
▁ᏗᏆᏓᎴᏅᎢ	-10.9884
▁ᎬᏬᎯᏳᏅᎯ	-10.9885
▁ᏙᏗᎧᏅᎢ	-10.9885
ᏟᏐᏗ	-10.9885
▁ᏄᏂᏰᎸ	-10.9885
▁ᎠᏓᏱᎯ	-10.9885
ᏥᎪᏗ	-10.9885
▁ᎠᏂᏂᏜ	-10.9885
▁ᏦᏥᏰᎸᎢ	-10.9885
▁ᎦᎬᏩᏐᏢᏕᎢ	-10.9885
▁ᏱᏥᏩᏘᏍᎪᎢ	-10.9886
▁ᎠᏓᎨᏗᏱ	-10.9886
ᏍᎫᏕᏎ	-10.9886
▁ᎠᏯᎣᎢ	-10.9886
▁ᎢᏥᏴᏍᏗᏱ	-10.9886
▁ᎠᏓᏬᏍᏗᏱ	-10.9886
ᏓᏅᏘᏐ	-10.9886
▁ᏧᏂᎸᏫᏍᏓᏁᏗ	-10.9886
▁ᎤᏂᏍᏆᏂᎪᏍᎨᎢ	-10.9887
▁ᏫᎤᏂᎶᏎᎢ	-10.9887
▁ᏕᎭᏕᏲᎲᏍᎬᎢ	-10.9887
▁ᎠᎫᎢᏍᏗᏍᎬᎢ	-10.9887
▁ᎢᏥᎩᎵᏲᎬᎢ	-10.9887
▁ᏓᎾᎵᏍᏓᏴᎲᏍᎨᎢ	-10.9887
▁ᎢᏨᏁᏤᎲ	-10.9887
▁ᏂᏥᏰᎸ	-10.9887
▁ᏳᏩᏛᎮᎢ	-10.9887
▁ᎡᎵᏍᎬᎢ	-10.9888
▁ᎲᏓ	-10.9888
▁ᏄᎾᏚᎵ	-10.9888
▁ᏓᎩᎧᎭ	-10.9888
ᎪᏢᎭ	-10.9888
▁ᏧᏂᏣᏔ	-10.9889
▁ᏄᏍᏗᏕᎬᎢ	-10.9889
▁ᎠᎩᏲᎱᎯᏍᏗᏱ	-10.9889
▁ᏳᏰᎸᎭ	-10.9889
▁ᏥᏕᏙᎭ	-10.9889
▁ᎾᎯ	-10.9889
ᏏᎾᎯ	-10.9889
ᏒᏁᎰ	-10.989
▁ᎤᏍᏆᏂᎪᏔᏁᎢ	-10.989
▁ᎠᎩᎾᏄᎪᏫᏎᎸᎩ	-10.989
▁ᎢᏥᎦᏔᎰ	-10.989
▁ᏚᏁᏒ	-10.9891
▁ᏱᎦᎨᏎᏍᏗ	-10.9891
▁ᎤᏓᎦᎵᏍᏙᏗᏍᎬᎩ	-10.9891
ᏥᏌᏃ	-10.9892
▁ᏕᎤᏙ	-10.9892
ᏗᏥᎦᏘᏯ	-10.9892
▁ᎨᏥᏛᏙᏗᏱ	-10.9893
▁ᎢᎳᏍᏓ	-10.9893
▁ᎤᏟᎶᎥᎩ	-10.9893
▁ᎦᎸᏉᏔᏅᎯ	-10.9893
▁ᏱᎦᏗᎭ	-10.9893
▁ᎣᏥᏃᎮᎭ	-10.9894
▁ᎠᏯᏫᏍ	-10.9894
▁ᎠᏂᏬᏂᏍᎩ	-10.9894
▁ᏭᎷᏤᎴᎢ	-10.9894
ᏍᏆᏃᏴᎪ	-10.9894
▁ᎤᏂᏍᏆᏂᎪᏙᏗᏱ	-10.9894
▁ᏕᏥᎵᎷ	-10.9894
▁ᎤᏛᏒᎯ	-10.9895
ᏓᏄᏴᏛᎾ	-10.9895
▁ᎧᏁᏨᎯ	-10.9895
ᏗᎩᏴᎩ	-10.9895
▁ᏥᏂᎬ	-10.9895
▁ᎤᎾᎵᏍᏓᏴᏅᎩ	-10.9895
▁ᏧᏍᏕᎸᏗᏱ	-10.9895
▁ᎢᏨᏰᎳᏗᏙᎭ	-10.9896
▁ᎤᏂᎾᏝᎢ	-10.9896
ᏄᏩᎥᎾ	-10.9896
▁ᎠᎾᎵᏥᏙᎲᏍᎦ	-10.9896
▁ᎤᏁᏓᏍᏗᏱ	-10.9896
▁ᏧᎨᏳᎯ	-10.9896
▁ᏓᏍᎫᏓᏛ	-10.9896
▁ᎠᏂᎦᏔᎮᏍᏗ	-10.9896
▁ᏂᏣᏛᎿᏕ	-10.9896
▁ᎯᎲᎦ	-10.9897
▁ᏍᎩᏯᏅᏛ	-10.9897
▁ᎡᎵᎻ	-10.9897
▁ᎢᏓᎵᎮᎵᎩ	-10.9897
ᏢᏈ	-10.9898
▁ᎤᏙᏯᏅᎯᏛ	-10.9898
▁ᏱᏅᏗᎦᎵᏍᏙᏗᏍᎨ	-10.9898
▁ᏣᏂᏃᎮᎭ	-10.9898
▁ᎬᏩᏂᏴᎲᎩ	-10.9898
▁ᎦᏰᏣ	-10.9899
▁ᎡᏦᎢᏳᏗᏱ	-10.9899
ᏂᎪᎲ	-10.9899
▁ᏱᏙᎨᏥ	-10.9899
▁ᎬᏩᎾᏝᎢ	-10.9899
▁ᏣᏓᏅᏖᏗᏱ	-10.99
ᎨᎬᏁᎵ	-10.99
▁ᎢᏣᏙᎴᎰᎯ	-10.99
ᏬᎯᏳᏁᎢ	-10.99
▁ᎡᏓᏓᏙᎵᏍᏓᏁ	-10.9901
▁ᎢᏤᏅᏍᏗᏱ	-10.9901
▁ᎠᏂᏐᏢᎢᏍᏗᏍᎩ	-10.9901
▁ᏥᏫᎦ	-10.9902
▁ᏄᏩᏂᏌᏅᎩ	-10.9902
ᏱᎵᏕᎲᎢ	-10.9902
▁ᏧᏫᏎᎢ	-10.9903
▁ᏗᏆ	-10.9904
▁ᎠᏙᏂᏍᎩ	-10.9904
ᎦᎾᏄᎪᏫᏍᎪ	-10.9904
▁ᎠᎾᏗᏍᎨᏍᏗ	-10.9904
ᏆᎴ	-10.9905
▁ᎤᎾᏕᏗᏱ	-10.9905
▁ᎢᏥᏍᏆᏂᎪᏙᏗᏱ	-10.9905
▁ᎢᏲᎩ	-10.9905
▁ᎠᏂᏔᏲᎯᎮᏍᏗ	-10.9905
▁ᎤᎬᏍᎪᎸᏁᎢ	-10.9906
▁ᏂᏥᏪᏍᎬᎢ	-10.9906
▁ᎠᏥᏌᎳᏓᏅ	-10.9906
▁ᎢᏧᏓ	-10.9906
▁ᎤᎾᏄᎪᏫᏎᎢ	-10.9907
▁ᏣᎵᏂᎩᏛ	-10.9907
▁ᎠᎩᎷᏤᎸᎩ	-10.9907
▁ᎤᎾᏣᏅᎩ	-10.9907
▁ᎨᏥᏰᎸᎢ	-10.9907
▁ᎠᏂᎷ	-10.9907
▁ᏗᏆᏓᏅᏛᎢ	-10.9907
▁ᏚᎸᏫᏍᏓᏁᎰᎢ	-10.9907
▁ᎠᏍᏚᎢᏍᎩ	-10.9908
▁ᎠᎫᏴᎡᏗᏱ	-10.9908
▁ᎢᏣᎵᎪᎯ	-10.9909
▁ᎠᏥᎢᏍᏗᏱ	-10.9909
▁ᏕᏥᎧᎿᏩᏗᏒᎢ	-10.991
▁ᎤᎾᏄᎪᏫᏍᏗᏱ	-10.991
▁ᏕᎦᏬᏁᏗᏍᎬ	-10.991
▁ᎣᎦᏤᎵᎦ	-10.991
▁ᎤᏕᏁᎢ	-10.991
▁ᏕᎩᎸᏫᏍᏓᏁᎸ	-10.9911
▁ᏨᏓᎸᎢ	-10.9911
▁ᎢᏣᏕᎶᏆ	-10.9912
▁ᏗᎧᏃᎩᏍᏗᏱ	-10.9912
ᏝᏅᎯ	-10.9913
▁ᏂᏚᏂᎨᏳᏒ	-10.9913
▁ᏲᎩᎭ	-10.9913
ᏘᏂᏒ	-10.9913
ᏁᏉᏥ	-10.9913
▁ᏕᎫᎪᏗᏍᎬ	-10.9913
▁ᎡᏤᎵᏎ	-10.9913
▁ᎤᎩᎵᏲᎢᏍᏗᏱ	-10.9913
ᎬᏉ	-10.9914
▁ᎤᏓᏙᎵᏍᏓᏁᎸᎩ	-10.9915
▁ᏥᎩᏯᎠ	-10.9916
▁ᏱᎬᏗᎭ	-10.9916
▁ᏕᎤᎸᏫᏍᏓᏁᎸ	-10.9917
▁ᎥᎩᏁᎸᎢ	-10.9918
▁ᎠᏇᏲᏅ	-10.9918
▁ᏗᎩᏅᏒ	-10.9918
ᏛᏅᎢᏍᏓᏁᏗᏱ	-10.9918
▁ᎾᏑᎵᎪᎬᎾ	-10.9919
▁ᎤᏓᏙᎵᏍᏔᏅᎩ	-10.9919
▁ᏗᎬᏩᏁᎶᏗ	-10.992
ᎦᏘᏏ	-10.992
▁ᏚᏍᏆᎸᏔᏅ	-10.992
▁ᎦᎧᎮ	-10.9921
▁ᏓᏍᎫᏓᏛᎩ	-10.9921
ᏚᏭᎪᏓᏁᎴ	-10.9921
▁ᎤᎾᏓᏅᎦᎸᏛ	-10.9921
▁ᏣᎷᎯᏍᏗᏱ	-10.9922
▁ᏙᏓᎧ	-10.9923
▁ᎠᏕᎰᎯᏍᏗ	-10.9923
▁ᎣᎩᎪᎲᎯ	-10.9923
▁ᎤᏪᎵᏎᎢ	-10.9924
▁ᎠᏛᏅᎢᏍᏔᏅᎯ	-10.9924
▁ᎦᎵᏦᏙᏗ	-10.9925
▁ᎤᏃᎮᏗᏱ	-10.9926
▁ᏱᏅᏧᎵᏍᏙᏔᏁ	-10.9927
▁ᎤᏁᏉᏤᎢ	-10.9927
ᏍᏚᏞ	-10.9928
▁ᏳᏜᏏᏛ	-10.9929
▁ᏚᎾᎵᏂᎬᎬ	-10.9929
▁ᎢᏥᏯᎥᎢ	-10.9929
▁ᎡᎩᏍᏕᎸᏗᏱ	-10.9929
ᎵᏍᎦᏍᏙᏙ	-10.993
▁ᏂᎨᏐᎢ	-10.993
ᏋᏕᏨ	-10.993
▁ᏤᏆ	-10.993
▁ᎠᎩᏃᎮᏍᎬᎢ	-10.9931
▁ᎢᏨᏁᎢᏍᏗᏍᎬᎢ	-10.9931
▁ᎤᏂᏲᎰᎢ	-10.9931
▁ᏣᏁᏨᎢ	-10.9931
▁ᏕᎦᎳᏅᏛᎢ	-10.9931
ᎵᏍᏓᏁᎸᎩ	-10.9932
▁ᎤᏃᏴᎬᎢ	-10.9933
▁ᏥᏄᎵᏍᏔᏁᎢ	-10.9933
▁ᏕᏣᎧᏛ	-10.9933
▁ᎾᏆᏍᏗ	-10.9934
▁ᎤᏃᎮᎸᎢ	-10.9935
▁ᏗᏂᏃᎩᏍᏗᏍ	-10.9935
ᏣᎵᎮᎵᎦ	-10.9935
▁ᎪᎵᏍᏗ	-10.9935
▁ᏳᏂᎭ	-10.9936
ᏛᎿ	-10.9936
▁ᏓᎾᏓᏅᏖᏍᎬᎢ	-10.9936
▁ᎦᏓᎷᏯᏛ	-10.9937
▁ᎧᎸ	-10.9937
▁ᏓᏅᏗᏍᎬ	-10.9937
▁ᎤᎧᎵᎢᏍᏗᏱ	-10.9937
ᎧᎲᏍᎩ	-10.9938
ᎵᏍᏔᏁ	-10.994
ᏕᏍᏗᏍᎨᏍᏗ	-10.9941
▁ᏂᏣᎵᏍᏔᏅᎩ	-10.9941
▁ᏚᏂᏲᎱᏒᎩ	-10.9941
▁ᏕᎦᎸᏫᏍᏓᏁᎸᎢ	-10.9941
▁ᎦᎳᎨᏴ	-10.9941
ᏗᎬᏩᎧᏃᏗ	-10.9942
▁ᏧᏂᎦᏴᎵᎨᎢ	-10.9942
▁ᎡᏥᏍᎦᏅᏤ	-10.9942
▁ᎠᏛᏁᎯ	-10.9943
▁ᎤᎾᏣᎡ	-10.9943
▁ᏣᏰᎯ	-10.9944
▁ᏗᏓᏁᎸ	-10.9944
▁ᎣᎩᎷᏤᎸ	-10.9945
▁ᎠᏐᏢᎢᏍᏗᏍᎬᎢ	-10.9945
▁ᏚᎪᏓᏁᎯ	-10.9945
▁ᏱᏨᏯ	-10.9945
▁ᏓᏟᎶᏍᏗ	-10.9946
▁ᎠᏟᏍᏕ	-10.9947
▁ᎢᏣᏚᎵᎭ	-10.9947
▁ᏁᎵᏍᎬᎾ	-10.9947
ᎯᎬᏍᎪᎸᎥᏍᎨᏍᏗ	-10.9947
▁ᎨᏣᏓᏑᏴ	-10.9948
▁ᎤᎵᏍᏓᏴᏗᏱ	-10.9948
▁ᏚᏟᎶᏍᏓᏁᎴᏃ	-10.9948
▁ᎢᏨᏁᎯ	-10.9948
▁ᎾᏞᎬ	-10.9949
▁ᏱᏗᏥᏳᎪᏓᏁ	-10.9949
▁ᏚᏄᏩᎥᎢ	-10.995
▁ᎠᏯᎥ	-10.995
▁ᏤᎪᎢ	-10.995
▁ᏩᎩᎶᏒᎩ	-10.995
▁ᏨᏗᎦᏚᎭ	-10.9951
ᏗᎨᏥᏰᎪᎢ	-10.9952
▁ᎠᏄᎯᏍᏗᏍᎬᎢ	-10.9952
▁ᎠᏯᎠ	-10.9953
▁ᏕᏣᎵ	-10.9953
▁ᏓᏂᏙᎬᎩ	-10.9953
ᏍᏙᏗᎭ	-10.9954
▁ᎤᏬᏂᎯᏍᏗᏱ	-10.9955
▁ᎨᎪᏣᎴᏛ	-10.9956
▁ᎾᎬᏁᎸᎭ	-10.9956
▁ᏂᏨᏁᎭ	-10.9957
▁ᎤᎵᏠᏯᏍᏛ	-10.9958
▁ᎤᎶᏄᎮᏗᏱ	-10.9958
▁ᎠᎾᎵᏥᏙᎲᏍᎩ	-10.9958
▁ᎦᎾᏄᎪᏫᏍᎪᎢ	-10.9958
▁ᎠᎾᎢᏎ	-10.9958
ᎪᎵᎦ	-10.996
▁ᎬᏃᏌ	-10.9961
▁ᎢᏣᎵᎮᎵᎬᎢ	-10.9962
▁ᎠᎩᏍᏛᏗᏍᎬᎢ	-10.9963
▁ᎣᏥᏁᎦ	-10.9964
▁ᏱᏥᏩᏛ	-10.9965
▁ᎢᏣᏓᏅᏛᎢ	-10.9966
▁ᎠᎩᎵᏲᎬᎢ	-10.9966
▁ᎡᏥᏲᎭ	-10.9967
ᏘᏅᏎ	-10.9968
ᏥᎦᏖᏃᎮᏍᏗ	-10.9968
▁ᎤᎵᎮᎵᏤ	-10.9968
▁ᏂᎦᎵᏍᏗᏍᎨ	-10.9968
▁ᎧᎸᎢ	-10.9968
▁ᎡᎳᏂ	-10.9969
▁ᏳᏪᎵᏎ	-10.997
ᏩᏛ	-10.9971
▁ᏚᏲᎵᎸ	-10.9971
▁ᏅᏋᏁᎸ	-10.9971
▁ᎤᏄᏬᏍᏗ	-10.9971
▁ᏂᏚᏛᏁᎴ	-10.9971
▁ᏥᏅᏗᎦᎵᏍᏙᏗᏍᎨ	-10.9972
ᏣᎧᏛ	-10.9972
▁ᏫᏓᏗᏁ	-10.9973
▁ᎤᏙᎯᏳᎭ	-10.9973
▁ᏱᏥᏁᎦ	-10.9974
▁ᎤᏂᏰᎸᏅᎩ	-10.9975
▁ᏄᏓᏛᏁᎴ	-10.9976
▁ᏭᏣᏅᎩ	-10.9976
ᎸᏅᎯ	-10.9978
ᏔᏪᏙ	-10.9978
ᏯᏍᏗ	-10.9982
▁ᏣᎪ	-10.9982
▁ᏂᎨᎬᏁᎸ	-10.9982
▁ᎤᏂᏬᏂᎯᏍᏗᏱ	-10.9982
▁ᏩᏂᏴᎯ	-10.9985
▁ᏓᎩᎪᎲᎩ	-10.9985
▁ᏍᎩᏯᏕᎶᏆᎡ	-10.9986
▁ᏱᎬᎩ	-10.9987
▁ᏭᎵᏰᎢᎶᎸ	-10.9987
▁ᏚᏓᏂᎸᏤ	-10.9988
ᏰᎢᎸᏍᏗᏱ	-10.9988
ᏙᏓᏨᏯ	-10.9989
ᏓᏅᎦᎸᎾ	-10.9989
ᏚᏳᎯᏛ	-10.9989
▁ᎠᎵᎮᎵᎪ	-10.999
▁ᎤᎵᏍᏆᏗᏍᏗᏱ	-10.999
ᏗᎣᏈ	-10.999
▁ᏩᎾᎦᎳ	-10.9991
ᏕᏙᎭ	-10.9996
▁ᏕᏥᎧᏅ	-10.9996
▁ᏇᎵᏏ	-10.9998
▁ᎣᏣᏓᏙᎵᏍᏗᏍᎬ	-10.9998
▁ᎠᏆᎵᏍᏓᏴᏗ	-10.9999
▁ᎤᏅᏁᎢ	-10.9999
▁ᏓᎧᏅ	-11
▁ᎨᏥᏁᏤᎸ	-11.0002
▁ᎤᏲᏨᎩ	-11.0004
ᎸᏗᏱ	-11.0004
▁ᎡᏆᏯ	-11.0005
▁ᏧᏭᏓ	-11.0005
▁ᏕᏣᏬᏍ	-11.0006
▁ᏂᏚᏪᏎᎸᎢ	-11.0006
▁ᏦᎪ	-11.0007
▁ᎠᏅ	-11.0009
▁ᎤᏁᏤᎸᎯ	-11.0009
▁ᎤᏂᎷᏨᎯ	-11.001
▁ᎠᏂᏃᎮᏍᎬᎢ	-11.001
▁ᎣᏣᎵᏥᏙᎲᏍᎬ	-11.001
▁ᏚᏁᎸᎩ	-11.0011
▁ᏫᎦᏅᏅ	-11.0011
▁ᏘᎪ	-11.0012
▁ᎢᏥᏁᏨ	-11.0013
ᎤᏂᏃᏕᏅ	-11.0013
▁ᏧᏂᏥ	-11.0014
▁ᏚᎾᏓᏂᎸᏨ	-11.0016
▁ᏂᎬᏩᏁᎸ	-11.0016
ᏍᏆᏗᏍᏗᏍᎩ	-11.0018
▁ᎤᏂᎷᏤᎭ	-11.0019
ᎳᏛᎩ	-11.0019
▁ᏥᏄᎾᎵᏍᏓᏁᎴ	-11.002
ᎫᏓᎴᏍᎩ	-11.002
▁ᎢᏯᏛᏁᏗᏱ	-11.0022
▁ᎾᏎᎵ	-11.0022
▁ᏫᏨᎷᏤᎸ	-11.0023
ᏡᎩ	-11.0024
▁ᏳᏲ	-11.0025
▁ᏅᏩᏙᎯᏯᏛᏉ	-11.0027
▁ᎤᏪᎷᎩ	-11.0028
▁ᏓᏂᏬᏂᏍᎬ	-11.0029
▁ᏓᏰᏏ	-11.0029
▁ᎠᎵᏍᎦᏁᏛᏉ	-11.003
▁ᏥᏚᏲᏎ	-11.003
ᎵᎥᏂᎵ	-11.0031
▁ᎬᏩᎾᏕ	-11.0034
▁ᎤᏰᎸᏅᎯ	-11.0034
▁ᎤᏂᏴᎲᎩ	-11.0034
▁ᏥᏁᎸᎢ	-11.0036
ᎦᏔᎲᏍᏗᏱ	-11.0036
▁ᎢᏳᏍᏗᏓᏂ	-11.0037
ᏡᏗᏍᎨᏍᏗ	-11.0039
▁ᎦᎵᏥᏙᎲᏍᎬ	-11.0039
▁ᏫᎬᏩᏂᏴ	-11.004
▁ᏥᎷᎩ	-11.004
ᏗᎤᏨᏎ	-11.004
▁ᎤᏜᏅᏛᎢ	-11.0041
▁ᎦᏅᎬᎢ	-11.0043
▁ᎤᎪᏩᏛᏗ	-11.0045
▁ᎤᏪᎷᏅ	-11.0046
▁ᎦᏌᏛᏍ	-11.0046
ᎦᏂ	-11.0046
▁ᎾᏅ	-11.0046
▁ᏣᏓᏁᏗ	-11.0049
▁ᏧᎾᏤ	-11.0049
▁ᎢᏥᏁᏗᏱ	-11.0049
ᏑᏩ	-11.0051
▁ᏧᏁᏍᎨᎮᎢ	-11.0052
▁ᏙᏓᏓ	-11.0053
▁ᏄᎾᎵᏍᏓᏁᎲ	-11.0053
ᎬᏫᏳᏌᏕᎨᏍᏗ	-11.0053
▁ᎠᏥᏁᎸᎯ	-11.0054
▁ᏕᎤᎷᎬ	-11.0057
▁ᎡᏥᏯᏅᎲ	-11.0057
ᏤᏲᎲᏍᎦ	-11.0057
▁ᏱᏣᏙᎴᎰᏍ	-11.0057
ᏥᏰᎸᎾᏁᎰᎢ	-11.0058
ᎵᎦᎵᏴᏒ	-11.006
▁ᎤᏙᏢ	-11.006
▁ᏄᎾᏛᏁᎸᎩ	-11.006
▁ᏥᎾᏰᏍᎦ	-11.006
▁ᎤᏩᏛᎲᎩ	-11.0061
ᎦᏅᏗᏱ	-11.0063
ᏱᎩᎵ	-11.0063
▁ᏃᏒ	-11.0065
▁ᏚᎾᏙᎥᎢ	-11.0066
▁ᎠᎢᏒᏃ	-11.0068
▁ᎥᎴ	-11.0068
▁ᎤᎿᎷᏎ	-11.0068
ᎯᏍᏙᏗᏱ	-11.0072
▁ᏂᎬᏩᏂᏪᏎ	-11.0072
▁ᏂᏕᎦᏪᏎ	-11.0072
▁ᏂᎦᏛᏅᎢ	-11.0072
▁ᎠᏁᏙᎮᎢ	-11.0073
▁ᏕᎦᏄᎪᎬ	-11.0073
ᏪᏒᏛ	-11.0074
▁ᏣᏂᏅᎩ	-11.0074
ᏂᏍᎬ	-11.0077
▁ᎦᎾᏄᎪᏫᏍᎪ	-11.0078
ᏥᏅᎦᎸᎡ	-11.0079
▁ᎣᏓᏅᏛᎢ	-11.008
▁ᎤᏂᎬᏫᏳ	-11.0085
ᏧᎾᏄᎪᏨ	-11.0086
▁ᎤᏚᎢᏍᏔᏅᎢ	-11.009
ᏢᏅᎥᏍᎩ	-11.0092
▁ᏫᎬᏩᎷᏤᎴ	-11.0092
ᏥᏁᎰᎢ	-11.0095
ᏛᏛᎲᏍᎨᏍᏗ	-11.0096
▁ᏕᎦᏚᎲᎢ	-11.0097
▁ᎤᏕᏒ	-11.0099
▁ᎤᎴᏫᏍ	-11.01
▁ᎠᏂᏍᎦᎩ	-11.0101
▁ᏕᎮ	-11.0102
ᎨᎵ	-11.0102
▁ᏫᎬᏩᏴ	-11.0104
ᏍᏚᎢᏒ	-11.0109
▁ᏓᎾᏓᏅ	-11.011
ᎪᎳ	-11.0112
ᏃᎵᏤ	-11.0112
▁ᎤᎦᏔᎲᏎ	-11.0112
▁ᏆᎩ	-11.0112
▁ᏄᏂᏪᏒᎢ	-11.0113
ᏪᎭ	-11.0113
▁ᎠᏆᏚᎵᏍᎬᎢ	-11.0113
ᏴᏜ	-11.0114
▁ᏧᏲᎱᏒ	-11.0115
ᏛᎥᎦ	-11.0117
▁ᏱᏅᏩᏍᏗᏗ	-11.0118
▁ᎢᏥᏍᎦᎾ	-11.0119
▁ᏚᎾᏓᏡᎬ	-11.012
ᏓᏁᏣᏍᏚᎶ	-11.012
ᏂᏣᏔ	-11.0121
▁ᎤᏚᎢᏍᏓᏁᎸ	-11.0122
▁ᎤᏕᏅᎢ	-11.0123
▁ᏬᏥ	-11.0124
▁ᎤᏎᎵ	-11.0125
▁ᎢᏣᏓᏅᏓᏛ	-11.0125
ᎾᏗᎦᎴᏲ	-11.0127
ᏏᏛ	-11.0128
▁ᎢᏳᏅᏁ	-11.0134
ᎬᏩ	-11.0137
ᎯᏞᏫᏒ	-11.0137
ᏚᏁᏤᎴ	-11.0137
ᎲᏃ	-11.0138
▁ᎠᏉᎯᏳᏒ	-11.0139
ᎷᎨᏍᏗ	-11.0139
▁ᏚᏂᏍᏆᎸᏔ	-11.0139
▁ᏚᏂᏅᏅ	-11.014
▁ᏘᎦᎵᏍᏙ	-11.0142
▁ᏓᏂᏍᎦᎢᎮ	-11.0143
ᏥᏟᏏᏍᎨᏍᏗ	-11.0144
ᎾᏓᏛᏁᎭ	-11.0145
ᏅᏓᏕ	-11.0145
▁ᎤᎾᏓᏟᏌ	-11.0145
▁ᎤᏩᏴᏒ	-11.0145
ᎷᏤᎸᎩ	-11.0145
ᏅᏍᏙᏗᏱ	-11.0149
▁ᎤᏂᏲᎮ	-11.0151
▁ᏥᏂᎩ	-11.0157
▁ᎠᏂᏬᏂᏍᎬᎢ	-11.0157
ᎵᏃᎮᏗᏍᎨᏍᏗ	-11.0159
▁ᏳᏲᎰ	-11.0159
▁ᎾᏲ	-11.0163
▁ᏯᎩᏍᏆᎸᎡ	-11.0166
▁ᎤᎬᎥᏍᎬ	-11.0167
▁ᎪᏙᎯ	-11.0168
ᏓᏙᎵᏍᏗ	-11.0168
▁ᎤᎾᎵᏥᏙᏅ	-11.0168
▁ᏚᏁᏤᎴᎢ	-11.017
ᏓᏛᏁᎵ	-11.0178
ᎨᏥᏍᏕᎸᏗ	-11.0182
▁ᎤᏓᎵᏓᏍ	-11.0185
▁ᎡᏗᎨᏳᎢ	-11.0189
▁ᏤᎦ	-11.0192
▁ᏫᏚᎧᎿᏅ	-11.0192
▁ᎢᏗᎬᏁ	-11.0192
▁ᏧᏁᏨᏃ	-11.0194
ᏤᏗ	-11.0199
▁ᎠᏁᎵᏍᎬ	-11.02
ᏣᏓᏅᎡᎸ	-11.0202
▁ᎠᏥᎪᎵᏰᎥ	-11.0208
ᏨᏁᎰ	-11.0211
▁ᎬᏒᎢ	-11.0211
▁ᎢᏥᎶ	-11.0213
ᏳᎵᏍᏙᏗ	-11.0215
▁ᎤᎵᏁᏨᎢ	-11.0215
ᏔᎳᏬᎯ	-11.0216
▁ᏓᏍᏓ	-11.0216
ᏥᎾᏄᎪᏫᏎᎸ	-11.0218
ᎦᏚᎲ	-11.0219
ᎫᏴ	-11.0221
▁ᎠᎩᏏᏙᎯ	-11.0222
ᏕᏅᎾ	-11.0223
▁ᎠᎩᏍᏚ	-11.0223
ᏰᎸᎯ	-11.0224
▁ᎢᏥᎦᎵᏍᏓᏗᏍ	-11.0224
ᎵᏠᏯᏍᏗ	-11.0227
ᏕᎦ	-11.0227
ᎬᏩᎳᏁ	-11.0229
▁ᏕᎨᏲᎲᏍᎨ	-11.0237
ᎴᏅᎲ	-11.0237
▁ᏂᎦᏛᏁᎰᎢ	-11.0238
ᏓᏁᎲᎩ	-11.0238
▁ᏗᎹ	-11.024
▁ᎭᎵ	-11.024
▁ᎤᎾᎴᏅᎲ	-11.0244
ᎬᏬᏎᎴᎢ	-11.0249
▁ᎢᏣᎵᎪ	-11.025
ᎾᏂ	-11.0253
▁ᎤᎦᏙᎥᏒ	-11.0256
▁ᏥᏯᏛᎦᏁᎸ	-11.0258
▁ᏦᎬ	-11.0258
▁ᎢᎦᎦᏛᎢ	-11.026
ᎵᏥᏙᏗ	-11.0262
ᏅᎢᏍᏗᏱ	-11.0263
▁ᎪᏚᎢᏍ	-11.0264
▁ᎠᎾᏁᏍᎨᏍ	-11.0265
ᏁᎰ	-11.0266
ᏂᎮᏍᏗ	-11.0267
▁ᎣᎬᏔᏅ	-11.0267
▁ᎤᎵᏰᏔᏁ	-11.0268
▁ᏥᎩᏁᎸ	-11.0272
▁ᏒᏟ	-11.0272
ᏅᏗᏱ	-11.0277
▁ᏄᏛᎿᏕᎬ	-11.028
▁ᎡᏣᏛᎦᏁᎸ	-11.0282
ᏍᎦᏅᎪᎢ	-11.0283
ᎵᏌᎳᏓᏅ	-11.0284
ᎾᏖᏉᎶ	-11.0288
▁ᏗᎦᏥᏯ	-11.0288
ᎩᏪᏎᎲᎩ	-11.0288
ᏗᏔᎲᎭ	-11.0288
ᎶᏄᎮᎸᎩ	-11.0288
▁ᎤᎵᏂ	-11.0289
ᏫᏂᏴ	-11.0292
ᏛᏙᏗ	-11.0292
▁ᏗᎦᎴ	-11.0294
▁ᏩᏍᏗ	-11.0296
ᎵᏌᎳᏓᏅᎩ	-11.0296
▁ᎬᏩᏂᏃᎮᏗ	-11.0297
ᏁᏤᎴ	-11.0297
ᎨᏳᏒᎾ	-11.0297
ᏓᏂᎸᎬᎾ	-11.0298
ᏓᏛᏙᏗ	-11.0298
▁ᏄᏓᎴ	-11.0298
▁ᏅᏗᎦᎵᏍᏙᏗᏍᎪᎢ	-11.0299
▁ᎣᏨᏗᏍᎬ	-11.03
▁ᏂᏍᏋᏁ	-11.0301
ᎢᎦᏘ	-11.0304
ᎾᏡᏗᏍᎩ	-11.0305
ᏥᎦᏖᏃᎭ	-11.0306
ᎫᏘᎶ	-11.031
▁ᏗᎬᏗ	-11.0311
ᎾᏓᏙᎵᏍᏗᏍᎪᎢ	-11.0311
▁ᎣᎩᎾᎵᎪ	-11.0314
▁ᏗᏣᏓᏅᏙᎩ	-11.0317
▁ᎣᏂᏍᎩᏂ	-11.032
▁ᏭᎾᏗᏅ	-11.032
ᏂᏆᏘᎸ	-11.0324
▁ᎢᏣᎵᏂᎬᏁ	-11.0326
ᏥᏄᎪᏫᏍᏗ	-11.0326
ᏂᏙᎸᎯ	-11.0327
▁ᎨᎸᎩ	-11.033
▁ᏕᎤᏲ	-11.0333
▁ᏂᎤᏪᏎ	-11.0338
▁ᎦᎵᎲ	-11.0339
▁ᏕᏣᏠᏱ	-11.0343
ᎩᎧᏁᎸᎯ	-11.0346
ᏴᏏ	-11.0349
ᎵᏍᏓᏴᎲᏍᎨᎢ	-11.0351
ᎩᎪᏩᏛᏗᏱ	-11.0354
ᎨᎶᎰ	-11.0356
▁ᎣᎩᏁ	-11.0358
ᎳᏉ	-11.0361
▁ᏕᎤᏙᎥᎢ	-11.0364
ᏴᏍᏕᏍᎬ	-11.0371
ᏘᏱ	-11.0371
▁ᏚᏕᏲᏅ	-11.0372
ᏁᎢᏍᏓᏁᎭ	-11.0373
▁ᏕᏣᏓᎨᏳᏒ	-11.0374
▁ᎬᏩᎪᎵᏰᏍᎬ	-11.0375
ᎧᎵᎢᏍᏔᏅ	-11.0377
ᏗᏔᎯ	-11.0377
ᏁᎲᎩ	-11.0378
▁ᏥᏗ	-11.0378
▁ᏥᎦᏃ	-11.0379
ᎦᏔᎲᎢ	-11.0385
▁ᎪᎯᏳ	-11.0385
▁ᎠᏆᏓᏤᎵᎦ	-11.0385
ᏂᏅᏏᏓᏍᏗ	-11.0388
▁ᎠᎩᏩᏛᎲ	-11.0389
▁ᏗᏤᎳᏍ	-11.0393
▁ᎤᏲᎮᏍᏗ	-11.0394
▁ᎠᎾᏓᏟᏏᏍ	-11.0395
ᏂᏨᏁᏍᏗ	-11.0399
ᎵᏁᏌᎸ	-11.0401
ᏓᏅᏖᏗ	-11.041
▁ᎡᏦ	-11.0412
ᏐᏢᎢᏍᏗᎭ	-11.0414
ᎦᎵᏱ	-11.0414
ᏣᏛᏁᎭ	-11.0415
ᏯᏘᏃᎯᏏ	-11.0415
ᎷᏏ	-11.0417
ᏅᎵ	-11.042
ᎾᏁᎭ	-11.0423
ᎵᏍᏕᎸ	-11.043
ᏁᏤᎸᎯ	-11.043
▁ᎤᏕᏒᏅ	-11.0431
ᎩᏂᎬᏎᎲ	-11.0433
ᎸᏔᏅᎯ	-11.0434
ᏕᏥᎤᏍᏕᏎᎸ	-11.0435
▁ᎤᎦᏘ	-11.0439
ᎡᎵᏍᎨᏍᏗ	-11.0442
▁ᎬᏩᏍᏓ	-11.0443
▁ᏚᏂᎸ	-11.0444
ᏕᏥᏲᏒ	-11.0447
ᎷᎯᏍᏗ	-11.0448
ᏁᎩᏎᎢ	-11.0451
ᏕᏤ	-11.0452
▁ᎤᏬᏂᏒ	-11.0456
▁ᎦᎯ	-11.0457
▁ᏥᏕᏣ	-11.0462
▁ᎤᏪᏢᏅ	-11.0463
▁ᏱᏣᏕᏯᏔᏁ	-11.0465
▁ᏄᎾᏓ	-11.0467
▁ᎠᎦᏁᎳᏅᎯ	-11.0473
▁ᏯᎭ	-11.0496
▁ᎠᎩᏍᏆᏛ	-11.0497
ᏁᏥᏪᏏ	-11.0497
▁ᎾᏥᏪᏎ	-11.0498
ᎾᏏ	-11.0499
ᎦᏟᎶᎡᎸ	-11.0501
ᏦᏢᏅᎯ	-11.0504
▁ᎦᏘ	-11.0504
▁ᏛᏨ	-11.0505
▁ᎢᏍᏕ	-11.0506
ᎦᏪᏍᎬᎩ	-11.0508
ᏲᎱᏒᎯ	-11.0509
▁ᏧᏂᏯ	-11.0513
▁ᎠᏆᎵᏃᎮᏔᏅ	-11.0516
▁ᎤᏪᏁ	-11.0521
▁ᏧᏘ	-11.0525
▁ᎧᏃᎮᏍᎨ	-11.0525
▁ᎤᏲᏨ	-11.053
ᎦᏢᏆ	-11.0534
▁ᎣᎩᏃᎮ	-11.0534
ᏬᎭ	-11.0534
▁ᏣᏰᎸᏅ	-11.0541
ᎩᏍᏆᏂᎪᏔᏅ	-11.0542
▁ᎠᏥᏯᏅᎲ	-11.0543
ᏥᏍᏕᎸᏗᏱ	-11.0545
ᎵᎪᎯ	-11.0546
▁ᎤᎾᏓᏅᎦᎸ	-11.0546
▁ᏃᎦᏍ	-11.0548
▁ᎤᏤᎵᎦᏯ	-11.0553
▁ᎠᏍᏆᏂᎪᏍᎨ	-11.0553
ᏙᎴᎰᏎ	-11.056
▁ᎤᎾᏁᎶᏔᏅ	-11.0563
ᎦᏥᏯᏓᏙᎵᏍᏓᏁᎭ	-11.0568
▁ᏳᏇ	-11.0569
ᎷᏥᏏ	-11.057
ᏓᏲᎵᏍᏗ	-11.0572
▁ᎠᏥᏁ	-11.0572
▁ᎬᏩᏃᎵᏍ	-11.0572
▁ᏓᏂᏃ	-11.0574
▁ᎤᏓᏁᏟᏴᏎ	-11.0576
▁ᎠᏓᏯᏅ	-11.0587
▁ᏭᏃ	-11.0591
ᎾᏛᏁᎯ	-11.0591
ᏅᏓᏗᏍᎬ	-11.0591
ᎿᎠ	-11.0594
ᎦᏃ	-11.0594
ᏁᎢᏍᏗᏍᎨᏍᏗ	-11.0596
▁ᎡᏥᎸ	-11.0602
▁ᎢᏕᎲ	-11.0603
▁ᎠᏂᏁᏉᎨ	-11.0605
ᏲᏏ	-11.0611
▁ᏕᎨᏥᏰ	-11.0612
ᎢᎦᏚᎩ	-11.0612
▁ᏅᎦ	-11.0612
ᎤᎪᎲ	-11.0613
ᏓᏙᎵᏍᏔᏂ	-11.0614
ᏒᎦᎸ	-11.0617
ᏕᏋᎯᏍᏗ	-11.0618
▁ᏥᏁᎸ	-11.062
ᎸᏉᏙᎢ	-11.0625
ᏃᎮᎸ	-11.0625
▁ᏭᎪᎲ	-11.0626
▁ᏂᏓᎾᏤ	-11.0633
ᏓᏅᏔ	-11.0636
ᎾᏝᎥᎾ	-11.0643
ᎵᏍᎦᏍᏙᏙᏗ	-11.065
ᏓᏨᏁᎵ	-11.065
ᎾᏁᏗᏱ	-11.0651
▁ᏗᏓᎴᎲᏍᎨ	-11.0651
▁ᎢᏓᏓ	-11.0655
▁ᎤᏍᏆᏂᎪ	-11.0661
▁ᎠᏆᏓᏅᏘ	-11.0662
▁ᎨᎬ	-11.0669
▁ᎤᏎᎵᏔᏅ	-11.0669
ᎭᏰᏃ	-11.0672
ᏅᎥᏏ	-11.0673
ᏂᏟ	-11.0676
▁ᏍᎩᏳ	-11.0676
▁ᎠᏢ	-11.0678
▁ᎣᎩᏰᎸᏒ	-11.068
▁ᎤᎵᏏᎲᏎ	-11.0684
▁ᏕᏣᏗ	-11.0686
▁ᏙᎤᏁᏅ	-11.0687
ᏴᏁᎸ	-11.0688
▁ᎬᏩᏘᏃᎸ	-11.0689
▁ᏧᏴᎴ	-11.0692
▁ᎪᎯᏳᏗᏱ	-11.0692
ᏇᏓᎵ	-11.0695
▁ᎯᏁᎬ	-11.0695
▁ᎣᎦᏁᎳ	-11.0699
ᏲᏍᏔᏂ	-11.0705
▁ᏄᏬ	-11.0709
ᏎᎮᎵ	-11.0709
ᏓᏁᏟᏴᏛ	-11.0719
▁ᏉᏏ	-11.0724
ᏍᏔᏁ	-11.0727
ᏍᏓᏩᏗᏓᏍᏗᏱ	-11.073
ᏭᏂ	-11.0733
▁ᏗᏍᏛ	-11.0734
ᏍᎦᏯ	-11.0738
ᎦᏰᏧ	-11.074
ᎳᏍᏓ	-11.0743
▁ᎬᏩᏃ	-11.0753
ᎸᏏ	-11.0754
▁ᎡᏐ	-11.0755
▁ᏂᏓᏂ	-11.0757
▁ᏗᎨᏧᎪ	-11.0758
▁ᎤᎵᏠᏯᏍ	-11.076
▁ᎦᏙᎥ	-11.076
▁ᏱᏚᏂᎸᏫᏍᏓᏁ	-11.0768
▁ᎠᎦᏗ	-11.077
▁ᎢᎪᎯᏳᏅ	-11.0776
▁ᎠᎾᏡᏗ	-11.0785
▁ᎤᏞ	-11.0787
ᎵᏍᏓᏴᎾᏁ	-11.0792
▁ᎠᏂᏍᏓᏩᏗᏒ	-11.0798
▁ᏧᏪᏰ	-11.081
▁ᎬᏩᏂᎾᏄᎪᏫᏒ	-11.0815
ᏕᎸᎩ	-11.0816
▁Ꮺ	-11.0817
▁ᏚᎸ	-11.0827
ᏍᏙᎢ	-11.0827
ᏨᏲᏎᎭ	-11.0829
▁ᎥᎩᏁᎸ	-11.0831
ᏰᎵᏎᏗ	-11.0832
ᏍᏚᎮᎢ	-11.0834
ᏣᏰᎸᎭ	-11.0836
▁ᏆᏏ	-11.084
ᏓᎸ	-11.0841
ᏯᏛᎩᎭ	-11.0841
▁ᏧᏚᎢᏍ	-11.0849
▁ᏱᏂᎬᏩ	-11.085
ᏐᎯ	-11.085
ᏗᏃ	-11.0853
▁ᎤᏂᏩᏛᎲ	-11.0854
ᏄᏪᎡᎢ	-11.0865
▁ᏭᎷᏤᎸ	-11.0868
ᏁᏙᎴᎢ	-11.0868
ᏂᎦᎵᏍᏓ	-11.0869
ᏍᏗᎦᏔᎭ	-11.0873
ᏯᎵᎡᎵᏤᎭ	-11.0875
▁ᎢᏨᏁᎸ	-11.0879
ᏲᎵᎸ	-11.088
▁ᎨᏥᏁ	-11.0888
ᏍᏓᏯ	-11.089
▁ᎬᏓ	-11.0897
▁ᎬᏂᎨᏒᎢ	-11.0899
▁ᏚᏅ	-11.0912
ᎵᏎᎢ	-11.0913
ᏦᎯᏳᎲᏍᎦ	-11.0919
ᎩᏍᎩᏂ	-11.0922
▁ᎠᎾᏙ	-11.0923
▁ᏚᏂᏂᏴ	-11.0924
▁ᎠᎩᎯ	-11.0927
ᎵᏍᏙᏔᏅ	-11.0929
▁ᎤᏢᏨ	-11.0931
▁ᏥᎾᏂᏪ	-11.0933
ᏟᏂᎬᏁᎰ	-11.0936
ᏲᎸᎩ	-11.0937
ᎸᎥᏍᎩ	-11.0937
▁ᏂᏓᏅᏁ	-11.0941
ᏪᏎᎭ	-11.0948
▁ᎦᏲ	-11.0948
▁ᎢᏣᏛᏁ	-11.095
ᏲᎱᏎᏗ	-11.0951
▁ᎬᏩᏛᏓᏍᏓᏁ	-11.0953
▁ᏫᏚᎧᎿ	-11.0953
ᎬᎾᏉ	-11.0955
▁ᎠᎾᏓᏱ	-11.0958
▁ᏩᏴ	-11.096
▁ᎣᏨᏗ	-11.096
ᎵᏍᎪᎸᏓᏁᎴ	-11.0962
ᎦᏟᎶᏍᏗ	-11.0964
ᎵᏍᏓᏴᏙᏗᏱ	-11.0965
ᏣᎵᎮᎵᏍᏗ	-11.0966
ᎪᏅ	-11.0966
ᎸᏉᏗ	-11.097
ᏛᏅᎩ	-11.0973
ᏐᏗᏱ	-11.0975
▁ᎤᏂᏁᏒ	-11.0976
ᏣᏛᎩᎭ	-11.0979
▁ᎢᏍᏓ	-11.0981
▁ᏓᏂᏙ	-11.0983
▁ᏓᎪ	-11.0984
▁ᎬᏩᏛ	-11.0986
ᏩᏂᎦᎸᎢ	-11.0987
▁ᏥᎦᏔᎲ	-11.0988
ᎯᏴᎭ	-11.0989
ᎵᏓᏍᏔᏅ	-11.0989
▁ᎤᎴᏂᎴ	-11.0994
ᏛᏓᎴᎲᏍᎩ	-11.1001
▁ᎠᏉᎯᏳ	-11.1002
ᏅᏬᏗ	-11.1008
▁ᎤᎾᎴᏅ	-11.1012
ᏍᏕᎵᏍᎬᎢ	-11.1015
▁ᏁᏨᏁ	-11.102
▁ᎦᎸᏍᏗ	-11.102
▁ᎠᏓᏍᏕᎵᏍ	-11.1022
▁ᎤᏂᎭ	-11.1022
▁ᎡᏣᏚ	-11.1022
ᏨᏃᏛ	-11.1026
ᏄᎸᏗ	-11.1027
ᎵᏍᏕᎵᏍᎬ	-11.1028
▁ᎬᏩᎵᏃᎮ	-11.1029
▁ᏴᎨᏣ	-11.1038
▁ᎢᎸᏍᎩᏉ	-11.1039
ᎦᎸᎳᏗ	-11.1041
▁ᏗᏗᏲ	-11.1044
▁ᎠᎪᏢᏅ	-11.1045
ᎪᎾᏛᏔᏅ	-11.1048
▁ᎦᏰᏗ	-11.105
▁ᎦᏣ	-11.1053
ᎩᎸᏉᏙᏗᏱ	-11.1053
ᏁᏉᎡᏗ	-11.1054
▁ᎨᏨ	-11.1057
ᏓᏙᎵᏍᏗᎭ	-11.1064
ᎷᏤᎸ	-11.1068
ᎴᎭ	-11.1074
▁ᎤᎾᏚᎸᏅᏗ	-11.1082
ᏰᎸᏍᎦ	-11.1084
ᎾᏰᏍᎬ	-11.1087
▁ᏱᏗᏣᏓ	-11.1089
ᎨᎦᏛᏅᎢᏍᏓᏁᎸ	-11.1094
▁ᏙᏓᏣ	-11.1096
ᏓᏁᎯ	-11.1097
ᏓᏁᎴᏍᏗ	-11.1099
▁ᏚᏭ	-11.1102
ᎾᎴᎯᏌᏅ	-11.1102
▁ᏧᏂᏙ	-11.1105
ᏍᏕᎸᏗᏱ	-11.1106
▁ᎤᏍᏘᏰᎬ	-11.1108
▁ᏫᎤ	-11.1121
ᏓᏛᏁᏗ	-11.1125
▁ᏕᏥᎸᏫᏍᏓᏁ	-11.1128
ᎬᏁᎲ	-11.1129
ᏰᎸᎭ	-11.113
ᏙᎩ	-11.1135
▁ᏗᏣᎸᏫᏍᏓᏁᏗ	-11.1135
▁ᎣᎩᏅᏏ	-11.1136
ᏍᏚᎢᏏ	-11.1138
▁ᎦᏁᏥ	-11.1141
▁ᎨᎥ	-11.1144
▁ᎤᏗᎴᎲᏍᎬ	-11.1145
▁ᎠᏟᏂᎬᏁ	-11.1147
ᏩᏗᏙᎯ	-11.1149
ᎮᎯ	-11.1151
▁ᏧᏂᏍᏕᎸ	-11.1153
▁ᎤᏲᎯᏍᏔᏅ	-11.1154
ᎶᏒᏍᏙᏗᏱ	-11.1159
▁ᎠᏓᎩᎡ	-11.116
▁ᎢᏨᏰᎵᏎ	-11.1161
▁ᎤᏁᏅᎢᏍᏗ	-11.1164
▁ᎢᎦᏠᏯᏍ	-11.1165
▁ᎠᏍᏆᎸ	-11.1168
ᏎᎮᏍᏗ	-11.1173
▁ᎬᏩᎵᎥᏂ	-11.1173
▁ᏗᏂᏲᎵᏉ	-11.1179
▁ᎢᏳᏂ	-11.1181
ᎸᏛ	-11.1189
▁ᏤᏥᏲᎯᏎᎸ	-11.1189
▁ᎯᏃᎮᏍᎬ	-11.1189
▁ᏯᎦᏔ	-11.1189
▁ᏱᏂᎨ	-11.1195
▁ᎤᎾᎵᏍᎦᏍᏙ	-11.1198
ᏕᏨ	-11.1202
ᏰᏛ	-11.1207
▁ᏧᎾᏚᎪᏓᏁ	-11.1212
ᎦᎶᎯᏍᏗᏱ	-11.1217
▁ᎬᏭᎯᏍᏗᏍ	-11.1219
▁ᏴᏓ	-11.1225
▁ᏣᎩ	-11.1228
▁ᎬᏩᏲ	-11.1232
ᎪᏗ	-11.1239
▁ᎦᏥᏯᎵᏥᏙᏁ	-11.1245
▁ᎠᏥᏅ	-11.1246
ᎪᏎᎮᏍᏗ	-11.1248
▁ᏱᎬᏩᏂ	-11.125
▁ᏓᎩᎸᏫᏍᏓᏁ	-11.1257
▁ᎬᏩᎷᏤᎮ	-11.1261
ᎢᎮᏍᏗ	-11.1268
ᏁᎨᏍᏗ	-11.127
▁ᏳᏚᎵᏍ	-11.1273
▁ᏚᏅᏏ	-11.1287
ᎦᏔᎰᎢ	-11.1289
ᏍᎦᎳᏁᎸ	-11.1296
ᏣᏓᏙᎵᏍᏓᏁᎮᏍᏗ	-11.1299
ᎲᏒ	-11.1301
▁ᎢᏥᏁᎬ	-11.1303
▁ᎦᏃ	-11.1304
▁ᎤᏚᏓᎳ	-11.1306
ᏉᏑᎴ	-11.1312
ᎯᏳᏗ	-11.1316
▁ᎤᏂᏃᎮ	-11.132
▁ᏱᏅ	-11.1328
▁ᎤᏓᏁ	-11.133
▁ᎢᎯᏯ	-11.133
ᎷᏅ	-11.1342
ᎾᏙᎴᎰᎯᏍᏗ	-11.1349
ᏏᏂ	-11.1354
▁ᏚᎦ	-11.1357
ᎣᏂ	-11.1358
ᎶᎸ	-11.1359
ᏄᎪᏫᏍᏗᏱ	-11.1361
ᏍᎩᎦᏔᎭ	-11.1362
▁ᎾᏆᏛᏅ	-11.1368
▁ᎠᏯᎡ	-11.1368
ᏥᏍᏕᎸ	-11.1374
▁ᏱᏗᎩ	-11.1378
▁ᏂᎬᎩ	-11.1378
▁ᏅᏧ	-11.1382
ᎪᏪᎸᎾ	-11.1384
▁ᎢᏨᏯᏓᏅᏖ	-11.1385
ᏛᏱ	-11.1385
▁ᏚᏲᎯᏎᎸ	-11.1389
ᏓᏅᏓᏗᏍᏙᏗ	-11.139
▁ᏙᏓᎨᏥ	-11.139
▁ᎠᎹᏉ	-11.1391
ᎦᏑᏰᏛ	-11.1395
ᎦᎾᏄᎪᎬ	-11.14
▁ᏫᏯ	-11.1402
ᏍᏛᎢ	-11.141
▁ᎤᏁᎢ	-11.1417
▁ᎣᏥᏬᏂ	-11.1419
ᎭᏛ	-11.1424
▁ᎠᎩᏃᎮ	-11.1436
▁ᎡᏥᏄᎪ	-11.1444
ᏓᏑᏰᏍᏗ	-11.1449
ᏛᏔᏅ	-11.145
▁ᏧᎫᏴ	-11.1453
ᎳᏫ	-11.1455
▁ᎤᏪᏙᎵᏨ	-11.1456
▁ᏱᏂᏙ	-11.1462
ᏁᏉᏤᏗᏱ	-11.1462
ᏥᎦᏔᎯ	-11.1462
▁ᏗᎵ	-11.1463
ᏅᏅ	-11.1471
ᏣᏓᏱᎸ	-11.1473
ᏕᎯ	-11.1479
ᎪᏔᏅ	-11.1481
▁ᎬᎩᏰᎸ	-11.1485
▁ᎤᏓᏙᎵᏍᏔᏅ	-11.1485
ᏓᏂᎸ	-11.1493
ᏃᏟᏍ	-11.1494
▁ᏙᏘ	-11.1501
ᏨᏗᏍᎪ	-11.1501
▁ᎢᎬᏬ	-11.1511
ᎫᏍᏙ	-11.1512
ᎵᏃᎮᏙᏗᏱ	-11.1517
ᏄᏪᏎᎢ	-11.1518
ᎡᏃ	-11.1519
ᏦᎯᏳᏒᎢ	-11.152
ᏧᏂᎸᏫᏍᏓᏁᎯ	-11.152
ᎵᏥᏙᏁᎸ	-11.1522
ᏔᏲᎯᎰ	-11.1527
▁ᎯᎦᏔ	-11.1541
▁ᏫᎦᎾᏄᎪ	-11.1564
▁ᎢᏣᏛᏁᎲ	-11.1566
ᏕᎵᏎᎭ	-11.1568
▁ᎩᎦᎨᏃ	-11.1572
ᏁᎢᏍᏗᏍᎬ	-11.1574
▁ᏒᏍᎦ	-11.1575
ᏏᏔᏛ	-11.1576
▁ᎠᎵᏥᏙᎲᏍ	-11.1585
▁ᎠᏥᏃᎮ	-11.16
ᎧᎾ	-11.1613
ᏂᏗ	-11.1617
▁ᎠᏂᏯᎥ	-11.162
ᎮᏰᏃ	-11.1625
ᏤᎮ	-11.163
ᎩᏒ	-11.1635
ᏯᏛᎦᏁᎵ	-11.164
▁ᎡᏥᎸᏉ	-11.1649
ᏂᏏᏅᎯ	-11.1657
ᏔᏲᏎᎸ	-11.1667
▁ᏕᎨᎦᏬᏍ	-11.1671
ᏍᏗᏍᎩ	-11.1675
▁ᎡᎦᎫᏴ	-11.1677
ᎵᏍᎬ	-11.1683
▁ᏱᏕ	-11.1686
▁ᎠᏂᏁᎸ	-11.1688
ᎬᏂᏍᏗ	-11.1692
▁ᎥᎬᏩ	-11.1693
▁ᏗᎦᏤᎵ	-11.1704
▁ᎤᏚᎵ	-11.1706
▁ᎬᏰᎸ	-11.1712
ᎬᏁᏗᏱ	-11.1716
▁ᎤᎵᏦ	-11.1719
ᏢᏈᏍᎦ	-11.1721
ᏪᏥ	-11.1727
▁ᎢᎬᏩᎵᏍᏓᏁ	-11.1728
ᏩᏛᎲᎭ	-11.1734
ᎦᏙᎥᏒ	-11.1735
ᏅᏁᎸᎯ	-11.1744
▁ᏱᏕᏣᏓ	-11.1754
ᏓᏃᎮᎭ	-11.1757
▁ᎤᎿᎷ	-11.1763
▁ᎡᏙᎲ	-11.1769
ᎦᎸᎲᎩ	-11.177
▁ᎦᎨᏥᏁ	-11.1775
ᏍᏓᏩᏕᎩ	-11.1781
▁ᏤᏥᎤᏍᏕᏎ	-11.1782
▁ᏗᎦᏃ	-11.1783
▁ᏱᏓᎧᎿᏩᏕ	-11.1795
▁ᎦᎾᏰ	-11.1798
ᎤᎶᏎᎢ	-11.1802
▁ᏚᎸᏫᏍᏓᏁ	-11.1807
▁ᏳᏩ	-11.1809
ᎵᏖᎸᏂ	-11.1809
ᎾᏰᎯᏍ	-11.1812
ᎭᏉ	-11.1817
ᏰᎸᎾ	-11.1818
▁ᎠᏁᎶᎯ	-11.1822
▁ᎤᎶᏎ	-11.1827
ᎵᏏᎾᎯᏍᏗ	-11.1828
▁ᏔᎵᎭ	-11.1829
ᎾᏓᏛᏁᎮᏍᏗ	-11.183
▁ᎬᏬᎵ	-11.1836
▁ᏯᎩᎪ	-11.1845
ᏍᏆᏂᎪᏔᏅᎯ	-11.1849
▁ᏱᏙᎩ	-11.1856
ᏣᏛᏂᏏ	-11.186
▁ᏚᎾᏗ	-11.1865
ᎿᎸᏍᏗᏍᎨᏍᏗ	-11.1867
ᏧᎪᏓᏏ	-11.1867
▁ᎠᎵᏰᎢᎶᎸᎭ	-11.1867
▁ᎤᏁᏄᎳᏍᏔᏁᎢ	-11.1867
▁ᎤᏓᏦᎯᏯ	-11.1867
▁ᏅᏩᏍᏗᏗᏎᏍᏗᏉ	-11.1867
▁ᏓᎬᏍᏓᏩᏗᏙᎵ	-11.1867
▁ᏗᏑᏫᏍᎩ	-11.1867
▁ᏥᎳᏇᎵ	-11.1867
▁ᏱᏅᏎᎦᎩ	-11.1867
▁ᎤᎦᏛᎴ	-11.1867
▁ᏣᏓᏪᎵᎩᏍ	-11.1867
▁ᎢᏍᎪᏂᏗᏢ	-11.1867
▁ᏩᎦᏖᎢ	-11.1867
▁ᏥᏫᏗᎨᎦᏘᏅᏍᏔᏁ	-11.1867
▁ᎢᏥᎪᎵᏰᎥᎭ	-11.1867
▁ᎤᏗᎴᎲᏍᎨᎢ	-11.1867
▁ᏣᏍᏕᏅᏨ	-11.1867
▁ᏙᏓᏰᏣᏬᏍᏔᏂ	-11.1867
▁ᎣᎦᏂᎩᏒᎩ	-11.1867
▁ᏗᏆᏄᏬ	-11.1868
▁ᎢᏰᎬᏁᎸᎯ	-11.1868
▁ᏭᏂᎦᏐᎠ	-11.1868
▁ᏩᏐᎾ	-11.1868
▁ᎤᏓᏠᏍᏔᏅᎩ	-11.1868
ᎫᎢᏍᏙᏗ	-11.1869
▁ᏗᎬᏩᏂᏯᎢ	-11.1869
▁ᎤᎦᏛᎴᎯᏍᏗᏱ	-11.1869
▁ᎠᎩᏍᏆᏗᏍᏗᏱ	-11.1869
▁ᎤᏒᎯᏰ	-11.1869
▁ᏗᎦᏁᎸ	-11.1869
▁ᏴᎦᏥ	-11.1869
▁ᏭᏘᏅᏍᏔᏁᎢ	-11.1869
▁ᏫᏥᎷᏤᏗᏱ	-11.187
▁ᎤᏪᏣᏄ	-11.187
▁ᏫᏗᎶᎯ	-11.187
▁ᎤᏗᏌᏓᏛ	-11.1871
▁ᎨᎦᏎᏍᏗᏱ	-11.1871
▁ᏧᏂᏄᎪᏫᏍᏗᏱ	-11.1871
▁ᏂᏥᎾᏰᏍᎬᎾ	-11.1871
▁ᏂᏥᏲᎯᏍᏗᏍᎬᎾ	-11.1872
▁ᎤᎾᎵᏃᎯᏴᎯ	-11.1872
▁ᏗᏣᏠᏱᎸᎩ	-11.1872
▁ᏗᏣᎴᎲᎦ	-11.1872
▁ᎤᎾᏁᎶᏔᏁ	-11.1872
▁ᏩᏥᏯᏅᏗᏱ	-11.1872
▁ᏧᏂᎦᏐᎠ	-11.1873
▁ᏗᎦᎾᎯᏍᏙᏗ	-11.1874
▁ᏂᎦᏅᎯᏒ	-11.1874
▁ᏗᏅ	-11.1874
▁ᏫᏥᎦᏘ	-11.1874
ᏥᏔᏲᏎᎭ	-11.1874
▁ᎢᏥᏔᏲᎯᎮᏍᏗ	-11.1875
▁ᏚᏃᎸᏎᎢ	-11.1876
▁ᎠᏯᏠ	-11.1876
▁ᎢᎤᏁᏅ	-11.1877
▁ᏚᏂᎩᏒᎩ	-11.1878
▁ᏙᏛᏁᎵ	-11.1878
▁ᎢᏦᎯᏳᎲᏍᎨᏍᏗ	-11.1878
▁ᎠᏂᎦᏘᏴ	-11.1878
▁ᎦᎶᏐᏅᎭ	-11.1879
▁ᏱᎦᏕᎣᏍᎦ	-11.1882
▁ᏱᏂᎦᎵᏍᏗᎭ	-11.1882
▁ᏓᎾᎵᏍᏓᏴᎲᏍᎬ	-11.1883
Ꮰ	-11.1883
▁ᎢᏣᏓᏅᏓᏗᏍᏗᏱ	-11.1883
ᎦᏔᎯᏳ	-11.1884
▁ᎠᎬᏂᏗᏳ	-11.1884
ᎨᏃ	-11.1885
▁ᏧᎵᏂᎩᏗᏳ	-11.1885
ᎭᏫ	-11.1885
▁ᎤᏣᎢᏒ	-11.1886
▁ᏧᏭᎪᏓᏁᏗᏱ	-11.1886
▁ᎠᎩᏄ	-11.1886
▁ᏙᏓᏲ	-11.1886
▁ᎠᏍᏆᎨᏂ	-11.1887
▁ᏚᏅᏂᏍᏔᏁ	-11.1889
▁ᎤᏗᏩᏎᎢ	-11.189
▁ᎬᏩᏛᏛᏗᏱ	-11.1891
ᏙᎯᏳᎭ	-11.1891
▁ᎤᏄᏖᏎ	-11.1891
▁ᎦᎳᏅᏛ	-11.1892
▁ᎤᏁᎵᏒᎩ	-11.1893
▁ᎤᎾᏓᏅᏒᎩ	-11.1894
ᏂᏲᏏᏍᎩ	-11.1894
▁ᎠᎦᏔᎲᎩ	-11.1896
▁ᎢᏥᎷᏨᎭ	-11.1896
▁ᎠᎦᏬᎡᎢ	-11.1897
▁ᎭᏓᏅ	-11.1898
ᏕᏅᎯ	-11.1901
▁ᎠᎩᎾᏫᏱ	-11.1901
▁ᎤᏪᎧᏅᎩ	-11.1901
ᎦᏘᎴᏅ	-11.1901
▁ᎢᏨᏯᏅᏓᏗᏍ	-11.1902
▁ᏗᎪᏪᎳᏅᎯ	-11.1904
ᏪᏐᏨ	-11.1904
▁ᎤᏂᏁᏉᏤ	-11.1907
▁ᎯᏍᏓᏩᏗᏙᎯ	-11.1912
▁ᏚᏃᏪᎸᎢ	-11.1916
▁ᏚᎵᏥᏙᏁᎴᎢ	-11.1917
ᏠᏱᎸᎩ	-11.1917
▁ᎠᏍᏚᎢᏛ	-11.1917
▁ᎬᏩᏍᏆᏗᏍ	-11.1918
▁ᎤᎾᏁᎶᏔᏅᎩ	-11.1919
▁ᎤᏒᎦᎸᎩ	-11.1919
▁ᎠᏂᎪᏩᏘᏍ	-11.192
▁ᎤᏥᎸᏒ	-11.1921
ᎶᎻ	-11.1924
▁ᏥᏄᏪᏎᎴᎢ	-11.1925
▁ᏅᏩᏛᏁ	-11.1927
▁ᎨᏣᎪᏩᏛᏗ	-11.1929
▁ᎤᎾᎵᏍᏓᏴᏅᎯ	-11.1929
ᏓᏐᎮ	-11.1929
ᏁᏔᏁ	-11.1929
▁ᎧᏁᏉᎨᎢ	-11.1932
▁ᏚᏅᏩᏅᎩ	-11.1936
ᎶᏛᎾ	-11.1937
▁ᎤᏍᏓᏩᏛᏒᎩ	-11.1938
▁ᎠᏁᏙᎮᏍᏗ	-11.1939
▁ᏕᎬᏩᏘᏃᎮᎴ	-11.194
ᏓᎢᏅᏎᎢ	-11.194
▁ᏄᏪᎡ	-11.1941
ᏘᏃᎮᏗᏱ	-11.1942
ᎴᏙᏗ	-11.1943
▁ᎾᏓᏛᏁᎲᎢ	-11.1944
▁ᎤᏪᏙᎵ	-11.1945
▁ᎤᏂᏴᎮ	-11.1946
▁ᎣᎦᏛᎦᏅᎯ	-11.1948
ᎦᏡᏗᏍᎬ	-11.1949
▁ᎢᏤᏙᎸ	-11.1949
▁ᏙᏛᎠᎴ	-11.1953
▁ᏓᏥᏁ	-11.1954
▁ᎦᏰᏌᏛ	-11.1955
ᎦᏉ	-11.1957
▁ᎮᏙᎲ	-11.1957
▁ᏚᎾᏄᎪᏫᏎᎸ	-11.1958
▁ᎥᎩᎸᏉ	-11.1959
ᏍᎩᏃ	-11.1959
▁ᏚᏬᏕᎯᎰᎢ	-11.1964
▁ᏄᎾᏛᏁᎴᎢ	-11.1966
▁ᎨᏙᎲᎢ	-11.1971
▁ᎤᏰᎶᎢᏍᏔ	-11.1972
ᏰᏗᎭ	-11.1979
ᎵᏨ	-11.1979
▁ᎤᏂᎶᏐᏅ	-11.198
▁ᏂᏚᏂᏪᏎᎴᎢ	-11.1982
▁ᎢᏣᏓᏑᏴ	-11.1983
▁ᎤᎦᎾᏬᏍᎬ	-11.1983
▁ᏫᏚᎷᏤᎴ	-11.1983
ᎻᏂ	-11.1984
ᏬᏁᏗᏍᎪ	-11.1984
▁ᎨᎾ	-11.1985
ᏍᎩᏰᎵᏎᎮᏍᏗ	-11.1985
▁ᎤᏄᏪ	-11.1988
ᏗᏅᏒᎩ	-11.1989
▁ᏧᏃᎯᏳᏗ	-11.199
ᏤᎵᎦᏯ	-11.2003
▁ᏥᏯᏙᎵ	-11.2003
ᎵᏍᎪᎸᏙᏗ	-11.2004
▁ᎠᏂᎾ	-11.201
▁ᎬᏩᏕᎰᎯᏍ	-11.2012
▁ᎠᎩᏁᎸᎯ	-11.2016
▁ᎬᏯ	-11.2016
▁ᎤᏍᏓᏩᏛᏎᎢ	-11.2017
▁ᎭᏙᏯᏅᎯ	-11.2017
▁ᎣᎬᏙᏗ	-11.2017
ᎾᏕ	-11.2018
▁ᏭᏂᎷᏨᎩ	-11.2019
ᎵᏍᎦᏍᏙᏗ	-11.2021
▁ᎠᏥᏛᏙᏗ	-11.2023
▁ᎤᏂᏲᎴᎢ	-11.2029
ᏏᏯ	-11.203
▁ᏕᎨᏥᏂ	-11.2034
ᏤᎶᎯ	-11.2034
ᏖᏍᏗ	-11.2034
ᏛᏂᏏ	-11.2035
▁ᎤᏰᎯᏍᎩᏂ	-11.2037
ᏂᎦ	-11.2047
▁ᎬᏬᎯᏳ	-11.2048
▁ᎣᎩᎦᎵᏍᏓᏗᏍ	-11.205
▁ᎡᏥᏙᎵᏍᏗ	-11.2051
▁ᏗᎦᎶᏗ	-11.2052
▁ᎤᏓᏁᏟᏴ	-11.2055
▁ᎤᏙᎯᏳ	-11.2056
ᎯᏍᏔᏂ	-11.2057
▁ᎢᏥᎪᏩᏛ	-11.2058
ᏘᏃᎮᎸᎩ	-11.2063
▁ᏥᏓᎩᏂᏴ	-11.2065
▁ᎢᎦᏚᏓᎴᏍ	-11.2065
ᏴᎲ	-11.2071
ᏥᎸᏉᏔᏅ	-11.2071
▁ᎨᏥᏰᎸ	-11.2072
▁ᏣᏂᏏ	-11.2073
▁ᎠᏍᏓᏱᏗᏍ	-11.2074
ᏓᏓᏱ	-11.2074
▁ᎯᎦᏔᎲ	-11.2075
ᎦᏁᎢ	-11.2075
ᏓᏙᎵᏍᏓᏁᎯ	-11.2078
▁ᏗᏂᏅ	-11.2078
▁ᎤᎴᏅ	-11.2082
▁ᎤᎾᏄᎪᏫᏎ	-11.2091
ᎾᏄᎪᏨᎩ	-11.2093
ᏲᎯᏎᎴᎢ	-11.2096
▁ᏗᎦᏰ	-11.2098
ᏨᏍᏛ	-11.2105
▁ᎢᎨᏎᎢ	-11.2107
▁ᏚᏃᎯᏳ	-11.2109
ᎵᏁᏨ	-11.2111
ᏥᏯ	-11.2116
ᏣᏃᏁᎵ	-11.2117
▁ᏳᏃᏴ	-11.212
ᏨᏁᏗᏱ	-11.2123
▁ᏫᏚᏯᏅᎲᎩ	-11.2132
▁ᏧᏢᏫ	-11.2132
▁Ꮇ	-11.2132
▁ᎤᎶᏐᏅᎯ	-11.2133
ᏯᏙᎮᎮᏍᏗ	-11.2134
ᏘᏍᏓᏁᎯ	-11.2136
ᎵᎬᎾ	-11.2137
▁ᏕᏅ	-11.2138
▁ᏧᏂᎬ	-11.2141
ᎬᏍᎦᎳᏁᎸ	-11.2142
▁ᎤᎵᏂᎬᎬᎢ	-11.2142
ᏁᏔᏅᎯ	-11.2148
ᏰᎵᏎᎭ	-11.2148
ᏲᎲᎾ	-11.215
▁ᏗᏍᏆ	-11.2152
▁ᎤᏂᏐᏢᎢᏍᏙᏗ	-11.2156
ᎾᏅᎥ	-11.2159
▁ᎢᏣᏠᏯᏍ	-11.216
ᏫᏎ	-11.2164
▁ᎬᏩᏍᏕᎸᎯᏙ	-11.2164
▁ᏚᏪᏙᎵᏨ	-11.217
▁ᏄᎳ	-11.2174
ᏛᏁᎢ	-11.2176
ᏛᎦᏅ	-11.2176
▁ᎤᏂᏔᏲᏎᎴ	-11.2178
▁ᎤᎾᏚᎵᏍᎬᎩ	-11.2181
▁ᏔᏓ	-11.2186
▁ᎾᏅᏁᎰ	-11.2195
ᏂᎦᏪᏍᎨᏍᏗ	-11.2202
ᏆᏕ	-11.2206
▁ᎨᏥᏛᎬ	-11.2207
▁ᎨᎬᏍᎦᎳᏁ	-11.2213
▁ᏫᎩ	-11.2216
ᏯᏛᎥ	-11.2219
ᏘᎾᏫᏛᎲᎩ	-11.2224
ᏆᏁᎶ	-11.2225
ᏍᎩᏓᏍᎬᎢ	-11.2227
ᎦᏌᏯᏍᏔᏅ	-11.2229
ᏙᎮᎯ	-11.2233
ᏨᎨᏫ	-11.2235
▁ᎦᏴᏓᏗ	-11.2236
▁ᎾᎾᏛᏁᎮ	-11.2239
ᎠᎩᎷᏨ	-11.2243
▁ᏚᎳᏍᎬᎢ	-11.2244
ᏂᏴᏗ	-11.2247
▁ᎬᏩᏄᎯ	-11.2249
ᏍᏔᏅᎢ	-11.225
▁ᎤᏅᏗᏱ	-11.2253
ᏳᏒ	-11.2269
ᎵᏩᏛᎡᎲᎢ	-11.2273
ᏘᎿᏫᏛ	-11.2282
▁ᏱᏚᏁ	-11.2286
ᏍᎩᎸ	-11.2288
ᏆᏗᏅᏛ	-11.2289
▁ᎢᎦᏛᏉ	-11.2293
▁ᏥᎪᎥ	-11.2293
ᏥᏪᏎᎴ	-11.2298
▁ᏚᏩᏛᎲ	-11.2302
ᏓᏁᎴᎢ	-11.2307
▁ᎢᏥᏟᏌ	-11.2311
▁ᏕᎬᏩᏠ	-11.2312
ᎬᏩᏂ	-11.2323
ᏍᏆᎸᎮ	-11.2326
▁ᎢᏥᎪᎲ	-11.233
ᎵᏏᎾᎯᏍᏛᎾ	-11.2333
ᎸᏍᏙᏗᏱ	-11.2338
▁ᏧᏩᏂ	-11.2344
▁ᏣᏛ	-11.2345
ᏂᏍᎨᏍᏗ	-11.2351
▁ᎤᏠᏱᎭ	-11.2352
▁ᏞᎦᏉ	-11.2354
▁ᏕᏨᏅ	-11.2354
▁ᎤᎾᎸ	-11.2355
ᎡᎰ	-11.2359
ᏅᏍᏓᏕ	-11.236
▁ᏚᏩᏛ	-11.236
ᎪᎵᏰᏍᎬᎢ	-11.236
ᏥᏍᎦᏅᎨᏍᏗ	-11.2362
▁ᎯᏁᎸ	-11.2364
ᏤᎵᎯᏍᎪ	-11.2364
▁ᏗᎷ	-11.2367
ᏔᏲᏎᎮ	-11.2368
ᎾᏗᏍᎪᎢ	-11.237
ᎩᎧᎿᏩᏛᏍᏗ	-11.2373
ᎶᏁ	-11.2374
ᏍᏆᏛᎯ	-11.2376
▁ᎠᎦᏎᏍᏗ	-11.2379
▁ᎤᏂᏩᏒ	-11.2382
▁ᎦᏛᎢ	-11.2385
ᎦᏁᎸ	-11.2386
ᏫᏍᏗ	-11.2387
▁ᎡᎾ	-11.2389
ᎶᏒ	-11.2393
▁ᏦᏍᏓ	-11.2398
▁ᎤᎾᎵᏍᏓᏴᏁ	-11.2401
▁ᎤᏍᏆᎸᏗ	-11.2404
ᏲᏎ	-11.2406
▁ᎢᎪᎯᏳᏒ	-11.2407
ᏂᎨᏒᎾ	-11.241
ᎬᏗ	-11.2411
▁ᏅᏓᎬᏩ	-11.2412
ᎩᎷᏨᎩ	-11.2415
ᏔᎲᎢ	-11.2421
ᎾᏛᏁᏗᏱ	-11.2423
ᎾᏗᏅᏎ	-11.2423
ᏍᏕᎸᎲᎩ	-11.2427
ᎳᏗᏓᏍᏗᏱ	-11.2433
▁ᎢᏣᏙᎴᎰ	-11.2436
ᏥᏃ	-11.2437
▁ᎣᏣᎵᏍᎦᏍᏙ	-11.2438
▁ᏫᎦᎾᏄᎪᎢ	-11.2445
▁ᎤᏂᏬᏂᏒ	-11.245
ᏓᏂᎸᎨᏍᏗ	-11.2458
▁ᏚᏄᎪᏫᏎ	-11.247
▁ᎤᏦ	-11.2476
▁ᎠᏆᏛᏅ	-11.2476
ᏂᏴᎯᎯ	-11.2479
▁ᎤᏂᏄᎪᏫᏒ	-11.2485
ᎵᏍᏓᏏ	-11.2486
ᎦᏟᏂᎬᏁ	-11.2486
ᏁᏛ	-11.2501
▁ᎠᏥᎪᏗ	-11.2504
▁ᎠᎩᏰᎸ	-11.2504
ᏓᏙᎵᏍᏓᏁᎵ	-11.2509
▁ᏥᏴ	-11.2512
▁ᏣᏚᎵᏍᎬ	-11.2519
▁ᏗᎪᎦ	-11.252
ᏓᏗᎭ	-11.2521
▁ᏚᏌᎳᏓᏅ	-11.2521
ᎾᏛᏁᎴ	-11.2521
ᏓᎴᏏ	-11.2522
▁ᏥᏨ	-11.253
▁ᏕᎨᏣ	-11.2536
▁ᏱᏁ	-11.2538
ᏂᏎᎢ	-11.254
ᏉᏉ	-11.2545
ᎨᏯ	-11.2547
ᏫᎨᏙᎲ	-11.2548
▁ᎢᎫ	-11.2552
▁ᏗᎨᎪᏍ	-11.2553
▁ᏱᏥᎵᏓᏍ	-11.256
▁ᎠᏂᏃ	-11.256
▁ᎤᏍᏚ	-11.2565
ᎵᏒᎩ	-11.2566
ᏬᎡ	-11.2569
▁ᎾᏍᎩᏍᎪ	-11.2573
▁ᎠᏬ	-11.2574
ᎾᏙᎴᎰ	-11.258
▁ᏅᏓᏍ	-11.2583
ᏍᏓᎸ	-11.2584
ᎡᎰᎢ	-11.2586
ᏣᏛᎩ	-11.2596
▁ᏲᏣ	-11.2608
ᎦᏌᏯᏍᏙᏗ	-11.2611
▁ᎤᏍᏚᏁ	-11.2615
▁ᎢᎦᏪᏍᏗ	-11.2617
▁ᏛᏇ	-11.2618
ᎪᎲᎩ	-11.2621
ᎪᏑᎴ	-11.2624
ᏩᎾᎦᎶ	-11.2628
ᏰᏗ	-11.2628
ᏰᎸᏍᎬ	-11.2631
ᏍᏚᎲ	-11.2633
Ꮶ	-11.2633
ᏕᎪᏢᎾ	-11.264
▁ᎠᏥᏍᏚ	-11.2646
ᏛᏓᏍᏓᏁᎮᏍᏗ	-11.2651
▁ᏕᎪ	-11.2659
▁ᎦᎨᏣ	-11.2675
▁ᏕᏧᎪ	-11.268
▁ᎤᏃᏴ	-11.269
ᏌᏛᎥᏍᎬ	-11.2693
▁ᏥᏥᏯ	-11.27
▁ᏧᏲ	-11.2705
▁ᏧᎵᏁ	-11.2706
▁ᏣᎦᏌᏯᏍ	-11.2706
ᎦᏓᎢᏅᏒᎩ	-11.2708
ᏣᏄ	-11.2711
ᎥᏍᎪᎢ	-11.2713
ᎴᏅ	-11.2718
▁ᎢᏥᎦᎵ	-11.2719
ᎾᏓᏂᎸᏨ	-11.2721
▁ᏦᎢᎭ	-11.2722
▁ᎠᏐᏢ	-11.2726
▁ᎨᏥᏅᏏᏙ	-11.2731
▁ᎤᎾᏓᏅᏖᏔᏁ	-11.2732
ᏍᎦᎢᏍᏗ	-11.2733
ᏓᏙᎵᏍᏓᏏ	-11.2735
▁ᏚᏙᏢ	-11.2735
ᎦᎵᏍᏔᏅ	-11.2747
ᏓᏤᎵᏛ	-11.2747
▁ᏥᏅᏩᏍᏗ	-11.275
▁ᎤᎾᎵᎪᏎ	-11.2755
ᏅᏒᎯ	-11.2762
ᏙᎴᎢ	-11.2764
ᏲᏪᎳᏏ	-11.277
▁ᏁᏥ	-11.2774
ᎦᏛᏃ	-11.2776
▁ᏧᏂᏅᎢᏍ	-11.278
ᎷᎩ	-11.2786
▁ᏅᏛᏍ	-11.2786
ᎸᏉᏙ	-11.279
ᏅᏓ	-11.2792
ᏔᎸ	-11.2794
▁ᏣᏓᎨᏳᏒ	-11.2794
▁ᎠᎾᏓᏙᎵᏍᏗᏍ	-11.2797
▁ᏱᎾᎾᏛᏁᎰ	-11.2799
▁ᏕᎨᏥᏅᏩ	-11.2801
ᏍᎦᏅᏤᎮᏍᏗ	-11.2805
ᏗᎦᎸᏉᏗ	-11.2807
▁ᎠᏥᏐᏅᏅ	-11.2808
ᎬᏍᎦᎸ	-11.2813
▁ᎨᏣᏙᎴᎰᎯ	-11.2814
▁ᏘᏯ	-11.2817
ᎬᏬᏎ	-11.2817
▁ᏥᏣᏚᎵ	-11.2821
▁ᏧᏲᎰ	-11.2824
▁ᏄᏩ	-11.2825
ᏕᎭ	-11.2827
▁ᏴᎬᏩ	-11.2828
▁ᎨᏥᏁᎸ	-11.2829
▁ᎠᏂᎦᏖᏃ	-11.2829
ᎵᏍᎨᏍᏗ	-11.2836
▁ᎢᎩᏛ	-11.285
ᏥᏁᏟᏴᏒ	-11.285
ᏥᏰᎸᎯ	-11.2852
▁ᏱᏓᏂ	-11.2858
▁ᎦᎵ	-11.2859
▁ᏗᎬᏩᏁ	-11.2859
ᏗᏍᏙᏗ	-11.2868
▁ᎤᎦᏙᎥ	-11.2876
▁ᎠᏆᏓᏅᏒ	-11.2876
ᏍᏗᏍᎬ	-11.2877
ᎵᏗ	-11.2882
▁ᎡᏙᏓᏃ	-11.2886
▁ᏣᏓᏰ	-11.2901
ᏃᎮᏍᎨᏍᏗ	-11.2902
ᏬᏁᏓ	-11.2904
ᏛᎦᏅᎢ	-11.2907
▁ᏧᏂᏁ	-11.2907
▁ᏪᏙ	-11.2922
▁ᏍᎩᏂᏴ	-11.2924
ᎵᎮᎵᏍᏗ	-11.2925
▁ᏧᎾᏚᎪᏓᏁᏗ	-11.2927
▁ᏧᎨ	-11.293
▁ᎠᏓᏙᎵᏍ	-11.2939
▁ᏯᏗ	-11.2939
ᏕᏨᎩ	-11.2944
▁ᎤᎷᏨᎢ	-11.2946
ᏕᎳ	-11.2948
▁ᎢᎬᏙᏗ	-11.2951
▁ᏂᎦᎵᏍᏙᏗ	-11.2967
▁ᏚᏲᎯᏎ	-11.2968
▁ᎤᏬᏢᏅ	-11.2972
ᏌᏁ	-11.2983
▁ᏕᎨᏥᏲ	-11.2983
ᎸᏉᏗᏍᎬ	-11.2984
▁ᏱᏚᎾ	-11.2986
ᎯᏍᏔᏁᎢ	-11.2991
ᏯᎥ	-11.2993
ᎵᏂᏆᏅᏁ	-11.2994
ᏍᎬᏍᎩᏂ	-11.2998
ᎾᎡᏍᏗ	-11.3
▁ᏗᎬᎩ	-11.3002
ᏆᏓᏅᏖᎸᎩ	-11.3003
ᎾᏓᎵᏁᎯᏕ	-11.3004
ᏄᏬᎡ	-11.3005
ᎲᎭ	-11.3006
▁ᎤᎵᏍᏆ	-11.3007
ᎦᏘᏲ	-11.3007
ᏄᏩᏅ	-11.3009
▁ᎢᏤᏯᏔ	-11.3011
ᏲᎢᏳ	-11.3016
ᏯᏓᏱ	-11.3017
▁ᎧᏃᏍᎦ	-11.3018
ᏃᎯᏴ	-11.302
ᏁᎢᏍᏗᏱ	-11.3024
▁ᎤᏒᎯ	-11.3028
ᎾᎵᏍᎪᎸᏔᏅᎯ	-11.3037
▁ᎤᏂᏍᎦ	-11.3038
ᏬᏨᎯ	-11.305
ᎵᏂᎪᎯᏍᏗ	-11.3052
ᏅᏨᎯ	-11.3058
▁ᎢᏣᏠᏯᏍᏙᏗ	-11.3072
▁ᎤᏔᏲᏎᎸ	-11.3073
ᎾᏗᏅᏗ	-11.3074
ᏣᏢᏆ	-11.3081
ᎯᏰ	-11.3084
ᏅᏫᏍᏗ	-11.3089
▁ᏧᏃᎯᏳ	-11.3089
ᏁᎬᎢ	-11.3091
▁ᎠᎱ	-11.3092
ᎴᏂᏓᏍᏗᏱ	-11.3093
ᏂᏆᏘᎮᏍᏗ	-11.3108
ᏂᎴᎢ	-11.3111
▁ᎾᏁ	-11.3111
▁ᎤᏤᏍᏙ	-11.3118
ᎵᏍᎪᎸᏓᏁᏗᏱ	-11.3119
ᏞᏤ	-11.312
ᏃᎮᏗᏱ	-11.312
ᎲᏍᎨᎢ	-11.312
ᏓᏅᏛ	-11.3123
▁ᎤᏲᎯ	-11.3124
ᏁᏤᎮᏍᏗ	-11.3126
▁ᏗᎦᏥ	-11.3126
ᏓᏛᏳᏤ	-11.3127
ᎤᎾᏨᏎᎢ	-11.3137
ᎪᎮ	-11.3137
ᏄᏬᏍᏗ	-11.3139
▁ᏱᏚᎵ	-11.3141
ᏜᏏᏛᎡ	-11.3145
▁ᎤᏂᏲᎢ	-11.3146
ᎦᎾᏩ	-11.3147
ᏪᏎᎮᏍᏗ	-11.3148
ᎪᏎᎢ	-11.3162
▁ᎢᏯᎦ	-11.3162
▁ᎢᏗᎦᏘ	-11.3167
ᏐᏴ	-11.3172
ᏣᎦᏔᎲᏛ	-11.3173
ᏰᎸᏎ	-11.3174
ᏤᏅ	-11.3179
▁ᎧᏁᏉᎨ	-11.318
▁ᎠᎩᏁᏉᏤ	-11.3181
ᏯᏑᏰᏛ	-11.3188
ᏍᏓᏩᏕᎦ	-11.3188
▁ᏥᎦᏙ	-11.3194
ᏧᏈᏍᏗ	-11.3195
ᏅᏘ	-11.3201
ᎦᏘᏓ	-11.3204
ᏄᎪᏫᏒᎩ	-11.3209
▁ᎨᏥᏂᏆᏘ	-11.3212
ᏎᎸ	-11.3216
ᏙᏗᏱᏉ	-11.3224
ᏛᎦᏁᎵ	-11.3225
▁ᎦᎨᏥᏐᏢ	-11.3226
▁ᏗᏂᎶ	-11.3243
ᎩᎷᏨ	-11.3244
ᏥᎳᏫᏎᎲ	-11.3253
ᎵᏥᏙᎲᏍᎨᏍᏗ	-11.3267
ᎥᏍᎩ	-11.3272
ᏍᎫᏕᏒᎩ	-11.3279
▁ᎤᏓᏅᎦᎸ	-11.3279
▁ᏗᎴ	-11.3285
ᎾᏚᎵᎭ	-11.3286
▁ᎤᎾᏛᎦᏁ	-11.329
▁ᏙᏦ	-11.3296
ᎶᏍᎬ	-11.3304
▁ᎬᏩᏛᏅ	-11.3306
▁ᏱᏥᎦᏔ	-11.3312
ᏓᏓᏅᏖᏍᎬᎢ	-11.3312
▁ᏕᎠ	-11.3313
▁ᏳᎸ	-11.3317
ᏱᎵᏙᎯ	-11.3318
ᏄᏍᏛ	-11.332
▁ᏂᏍᏋ	-11.3323
▁ᎡᏓ	-11.3328
▁Ꮞ	-11.3333
ᎯᎰᎢ	-11.3336
▁ᎠᏥᎩᎡ	-11.3337
▁ᎤᏁᎢᏍᏔᏁ	-11.3338
▁ᏓᏓ	-11.3345
ᏥᎩ	-11.3351
▁ᎤᎾᏁᎳ	-11.3358
ᎴᏂᏓᏍᏗ	-11.3359
ᎵᏍᏓᏴᏂ	-11.336
▁ᎢᏨᏯᎵᏥᏙᏁ	-11.3371
ᏗᏕᎬᎢ	-11.3371
▁ᎠᏂᏯᏫᏍ	-11.3379
ᎩᎬ	-11.338
▁ᏱᏥᏁ	-11.3388
ᏨᏁᏍᏗ	-11.3389
▁ᏂᏓᎾᏓ	-11.3393
▁ᎾᏥᏪᏎᎸ	-11.3395
ᏂᎪᎵᏰᎥ	-11.3398
ᏚᎵᏍᎨᏍᏗ	-11.3399
ᎦᏔᎲᏍᎬ	-11.3404
ᏓᏓ	-11.342
▁ᏕᏥᎧᎿᏩᏗ	-11.3421
ᏗᏅᏎᎢ	-11.3425
ᎾᎨ	-11.3427
ᏥᏪᏎᎮᏍᏗ	-11.3429
▁ᏳᏁ	-11.3429
ᏓᏕᎢ	-11.3429
▁ᏚᏅᎦᎸ	-11.343
ᏘᏍᎩ	-11.3444
▁ᎤᏪᎸ	-11.3447
ᏥᏱᎵᏙ	-11.3451
▁ᏓᏰᏥ	-11.3452
▁ᎦᏁᏟᏴ	-11.3453
ᎦᏘᏗᏍᏗᏱ	-11.3453
ᎵᏍᏓ	-11.3453
ᏓᏬ	-11.3456
ᎮᎸᎩ	-11.3461
ᏓᏙᎵᏍᏓᏁᎮᏍᏗ	-11.3468
▁ᏅᏩᏍᏗ	-11.3468
ᏰᎲᎾ	-11.3475
▁ᏍᎩᏂ	-11.3476
ᏗᎴᎬ	-11.3477
ᎫᏓ	-11.3484
ᏟᎶᎡᎸ	-11.3486
▁ᎢᏣᏓᏙᎵᏍᏓ	-11.3486
ᎾᎿ	-11.3492
ᏴᏓᏆᎶᎥᎩ	-11.3493
▁ᏕᏣᏕᏲ	-11.3494
ᏙᎦ	-11.3494
ᏱᏍᎪᎢ	-11.3499
ᎬᏩᎪᎲᎯ	-11.3505
ᏯᏅᏓᏗᏍᎪ	-11.3509
ᎩᎸᏗ	-11.3514
ᏁᏢᏔᏅᎯ	-11.3515
▁ᎤᎾᏨᏎ	-11.3516
▁ᏚᎾᎵᎪ	-11.3519
ᏓᏁᎮ	-11.353
▁ᏧᎾᏨᏍᏗ	-11.3531
▁ᏧᏏᏕ	-11.3531
▁ᏗᏲ	-11.354
▁ᎧᏁᎢᏍᏗᏍᎨ	-11.3555
ᎩᏍᎬ	-11.356
ᎬᏁᎵ	-11.3567
ᏲᎴ	-11.3568
▁ᏓᏂᏅ	-11.3569
▁ᎢᏣᏓᏁ	-11.3571
▁ᏣᏢ	-11.3575
ᎦᎵᏍᎪᎸᏓᏁᎸᎩ	-11.3582
▁ᎢᏥᎧᎵ	-11.3588
▁ᏂᏚᏅᏁᎸ	-11.3594
▁ᎤᏁᏍᎨ	-11.3597
ᏁᏥᏪᏎᎸ	-11.3602
ᏙᎯᏳᎲᏍᎦ	-11.3609
▁ᏱᏃ	-11.3612
▁ᎤᏍᏆᎸᎡ	-11.3612
ᎵᏥᏙᏁᎲᎢ	-11.3613
ᏨᏯ	-11.3618
ᏂᎾᏰᏍᎬ	-11.3625
▁ᏓᏅᏗ	-11.3625
▁ᎠᏲᏍᏗᏍ	-11.3626
ᎫᏓᎴ	-11.3631
ᏲᏍᎦ	-11.3634
ᏤᎸᎩ	-11.3635
ᎬᏂᏳᏉ	-11.3644
▁ᎤᎾᏓᏅᏖᎸ	-11.3645
ᏥᏰᎭ	-11.3647
ᏌᎴ	-11.3648
ᎩᎷᎯᏍᏗ	-11.3649
▁ᏧᎬᏩ	-11.3649
ᏅᎯᏉ	-11.3649
▁ᏱᏕᏣ	-11.3651
ᏁᏟᏴᎡᏗ	-11.3655
ᎶᎢᏍᏗᏱ	-11.3661
ᎩᏃᎮᎭ	-11.3662
▁ᏱᏩ	-11.3662
ᏖᏆᎶᎯ	-11.3668
▁ᎡᏥᎾᏰᏍ	-11.3668
ᎴᏁᎯ	-11.3669
ᏲᎪ	-11.3673
ᏫᏍᎬᎢ	-11.3674
ᎵᎮᎵᎦ	-11.3686
▁ᎥᏆ	-11.3689
▁ᏚᏂᏃᏁ	-11.3691
▁ᏓᏂᎳᏫ	-11.3692
ᎨᏳᏐ	-11.3694
ᏲᎦ	-11.3695
ᎤᎦᏔ	-11.3696
▁ᎠᎨ	-11.3697
▁ᏕᎨᎦᏛ	-11.3703
ᏂᎳᏕ	-11.3705
ᏰᎵᎯᏍᏔᏅ	-11.3709
ᏁᏙᎯ	-11.3719
▁ᎦᏙᎴᎣ	-11.372
▁ᏗᏧᎪᏓ	-11.3723
▁ᏯᏥ	-11.3723
ᎦᏓᎴᏅᎯ	-11.3726
ᏪᎧᏁᎢ	-11.3728
ᎩᏱᎵᏙᎭ	-11.3731
ᏍᏕᎸᎮᎢ	-11.3735
ᎬᏫᏳᏒ	-11.3743
▁ᎡᏥᎾᏰ	-11.3745
ᏃᏣᎵ	-11.3746
ᎩᏍᏓᏩᏗᏙᎯ	-11.375
ᎩᎪᎲᎯ	-11.3751
ᏚᏓᎴᏍᏗ	-11.3753
ᎾᏘᏁ	-11.3756
ᏍᎪᏒᎢ	-11.3758
ᎦᏖᏃᎭ	-11.3764
ᏣᎵ	-11.3769
▁ᎠᎦᏘᏅ	-11.377
▁ᏚᏪᎧᏁ	-11.3773
ᎾᏄᎪᏫᏎ	-11.3775
ᏖᏆᎶ	-11.3776
▁ᎠᏓᏅᏖᏍᎨ	-11.3779
ᎤᏅᏒ	-11.3786
ᎮᎵ	-11.3789
▁ᎡᏣᎵᏍᎪᎸᏓᏁ	-11.3791
ᏃᏎᎭ	-11.3793
ᎳᏍᏓᎡ	-11.3795
ᎩᎵᏲᏤ	-11.38
▁ᏱᏅᏗᎦᎵᏍᏙ	-11.3805
▁ᎤᏄᏢ	-11.3805
▁ᎤᏓᎴ	-11.3807
▁ᏕᏓᏓ	-11.3811
ᏯᏅ	-11.3812
ᏙᎵᎬᎾ	-11.3813
ᎧᎿ	-11.3814
▁ᏤᏣᏓᏂᎸ	-11.3815
▁ᎤᏬᏢ	-11.3817
▁ᏱᎪᎯ	-11.3829
ᏚᎲᎢ	-11.3831
▁ᎤᏪᎵᎯᏍ	-11.3834
ᎵᏅ	-11.3836
ᎦᏌᏯᏍᏗᏕᎩ	-11.3837
ᏃᏅ	-11.384
▁ᏱᏣᏓᏅᏖ	-11.3841
▁ᎢᏥᏅᏏᏙ	-11.3842
ᎷᎸᎥᏍ	-11.3843
▁ᏗᏣᎵ	-11.3847
▁ᎢᏤᎵᏎ	-11.3847
▁ᎤᎾᏣ	-11.3849
▁ᏚᏲ	-11.385
ᏁᏤᎭ	-11.3855
ᏗᎧᎿᏩᏗᏙᎯ	-11.3857
▁ᏄᏛᏁ	-11.3858
ᎪᏛ	-11.3859
▁ᎠᎩᏍᏆᏂᎪ	-11.386
ᎦᏌᏬᎢ	-11.3861
ᏂᏴᎭ	-11.3864
ᏙᎵᏨᎢ	-11.3872
▁ᎤᏲᏍᏔᏅ	-11.3874
ᏧᎬᏩᎶᏗ	-11.3876
ᏁᏤᎸ	-11.3878
ᏥᏯᏬᎥ	-11.3879
▁ᎡᏣᏛᎦᏁ	-11.388
ᏍᏗᏰᏔᏅᎩ	-11.3881
▁Ꮬ	-11.3884
ᏣᏲᎭ	-11.3885
ᏁᏟᏴᏍᏗᏱ	-11.3887
▁ᏧᎾᏓᏡ	-11.3887
ᏥᎷ	-11.3887
▁ᏥᏍᏓᏱ	-11.389
ᎠᏎ	-11.3891
▁ᎤᏂᏍᏛᏗᏍ	-11.3893
▁ᏧᎾᏁ	-11.3894
ᏕᏯᏔᏁᎭ	-11.3896
ᎪᏩᏘᏍᎪᎢ	-11.3896
▁ᏨᏆ	-11.3896
ᎵᏆ	-11.3897
ᎥᏍᎬ	-11.3901
ᏧᏙᎢᏛ	-11.3901
ᏤᎲᎩ	-11.3902
ᏲᎯ	-11.3902
▁ᎠᎵᏍᎦ	-11.3904
ᏠᎦ	-11.3907
ᎶᏁᏛ	-11.391
▁ᏅᎩᏃ	-11.3912
ᏄᏂᏪᏒᎩ	-11.3916
ᏍᏓᏁᏗᏱ	-11.3917
ᏰᎸᏒᎩ	-11.3919
▁ᏯᏇ	-11.3921
▁ᎤᏴᎳ	-11.3921
ᏥᏯᏓᏙᎵᏍᏓᏁᎭ	-11.3921
ᏌᏉ	-11.3922
ᎣᏆ	-11.3924
ᏁᎶᎯ	-11.3925
ᏣᏘᏁ	-11.3925
ᎵᎮᎵᏥ	-11.3926
ᎸᏫᏍᏓᏁᎰᎢ	-11.3927
ᎾᏫᏛᎮ	-11.3931
▁ᎠᏍᎩᏓᏍᎬ	-11.3933
ᏪᎢ	-11.3933
ᏲᎩ	-11.3934
ᎵᏍᏓᏴᎲᏍᎬᎢ	-11.3935
▁ᏂᎦᏥᏴᏁ	-11.3938
▁ᎤᏃᎯᏳ	-11.3939
ᏂᏃ	-11.3939
ᎠᏙᎴᎰᏍᎩ	-11.3941
ᎨᎳ	-11.3943
ᎵᏂᎩᏗᏳ	-11.3945
ᏩᏘᏍᎨᏍᏗ	-11.3951
ᎪᎸᎾ	-11.3962
▁ᏗᎩᏲ	-11.3963
ᏙᎲᎢ	-11.3966
ᏙᏅ	-11.3969
▁ᎦᏲᎦᏛ	-11.3971
ᏁᏯᏔᎲ	-11.3971
ᏍᏕᎵᏍᎪ	-11.3977
▁ᎦᏂ	-11.3977
ᏓᏱᎵ	-11.3979
ᏛᏗᏍᎬᎢ	-11.398
ᎦᎵᎰ	-11.3985
ᏁᏉᏤᎴ	-11.3993
▁ᏩᎦᏘ	-11.3994
ᎬᏫᏳ	-11.3997
ᏍᎦᎢᎲᎢ	-11.3998
ᏂᏱᎭ	-11.3999
ᎩᏅᎦᎸ	-11.4004
ᎵᏍᏓᏴᎲᎦ	-11.4005
ᎢᏏᎵ	-11.4007
ᏚᎸᏌᏛ	-11.4012
▁ᎢᏓᎴᏂᏙ	-11.4015
ᎤᏁᎢᏍᏔᏅ	-11.4017
ᎵᏂᎪᎯᏍᏔᏅ	-11.4017
ᎦᏙᏃ	-11.4023
ᎤᏚᎵᏍᎬ	-11.4027
Ꮊ	-11.4029
ᏗᏍᏗ	-11.4032
ᏠᎨᏏ	-11.4032
ᎠᏡᏗᏍᎩ	-11.4033
▁ᏰᏥ	-11.4037
ᎩᏰᎢ	-11.4039
ᏍᏙᏍᎨᏍᏗ	-11.4041
ᏓᎴᏒ	-11.4044
ᏌᎳᏓᏁ	-11.4051
▁ᎠᏢᏆᏍ	-11.4055
▁ᎥᏃ	-11.4057
ᏴᏫᏃ	-11.4059
ᏄᏪᏎ	-11.4061
▁ᎠᏥᏴ	-11.4062
▁ᎤᏩᏂᎸ	-11.4063
ᏕᎤᏙᎥ	-11.4064
ᎤᏣᏘᏂ	-11.4066
ᎿᏛᏁᎭ	-11.4066
ᏂᏒᎩ	-11.4068
ᏕᎰᏍᎨᏍᏗ	-11.4072
ᎤᏁᎬ	-11.4073
ᏗᎦᎶᏗ	-11.4074
ᏲᏍᏔᏅ	-11.4076
▁ᎢᏣᏅ	-11.4079
▁ᎠᏂᏁᎨ	-11.4081
ᏔᏲᎯᎲᎢ	-11.4082
▁ᏗᎧᎿ	-11.4083
ᏁᎴᏃ	-11.4084
ᏂᏚᏩᏁᎸ	-11.4084
ᎱᎶᏗ	-11.4085
ᏧᏁᏍᎨᎮᎢ	-11.4085
ᏚᎢᏍᏓᏁᎸ	-11.4085
ᏚᎾᏙᎥ	-11.4086
ᎤᎾᏛᎪᏗᏱ	-11.4086
ᎢᏗᏢ	-11.4087
ᏎᎵᏔᏅ	-11.4087
▁ᎠᏍᎩ	-11.4088
ᏚᏓᏂᎸᏤ	-11.409
ᏰᎯ	-11.4092
ᎡᏆ	-11.4093
▁ᎠᏤᎸ	-11.4097
ᏚᏙᎥ	-11.4097
ᏃᏈᏏ	-11.4097
ᏅᏍᏓ	-11.4099
ᎤᏁᎫ	-11.4099
ᏄᏪᏒ	-11.4103
ᏣᏴᎸ	-11.411
ᎦᏙᎬᎩ	-11.4112
ᎤᏂᎷᏤᎢ	-11.4117
▁ᎤᎾᏛᎦ	-11.4118
ᏄᎾᎵᏍᏓᏁᎰ	-11.412
ᏚᏂᏩᏛᎮ	-11.4123
ᎵᏦᏛ	-11.4137
ᏥᏙᎵᏍᏗᏱ	-11.4139
▁ᎠᏰᎵᏉ	-11.4142
ᎦᏯᎷᏗ	-11.4145
ᏩᎵ	-11.4148
ᎯᏎᎸᎯ	-11.4149
ᏫᏎᎸ	-11.4152
▁ᏗᎧᎿᏩ	-11.4154
▁ᎨᎫᏓᎴ	-11.4154
ᎪᏪᎵᎯ	-11.4159
▁ᏅᏓᎬᏩᏓᎴ	-11.4161
▁ᎤᎵᏍᏚ	-11.4166
ᏚᏓᎳᎡ	-11.4167
▁ᏥᎾᏆ	-11.4168
▁ᏓᎧ	-11.4176
▁ᎢᏥᎶᏄᎮ	-11.4176
ᏂᎪᎯ	-11.4177
▁ᏚᏟᎶᏍᏓᏁᎴ	-11.4182
▁ᎢᏨᏔᏅ	-11.4182
ᏩᏲᎯ	-11.4185
ᏂᏪᏍᎨᎢ	-11.4192
▁ᎠᏆᏛ	-11.4194
ᎦᎸᏍᏗ	-11.4196
ᏗᏗᏱ	-11.4198
ᏯᏆᏛᏁᎸ	-11.4207
ᏁᎩ	-11.4208
▁ᎦᎵᏥᏙᎲᏍ	-11.421
ᏳᎭ	-11.4214
ᏍᏛᏗᏍᎬᎢ	-11.4215
▁ᎡᏙ	-11.4216
ᎵᏰᎢᎸᏍ	-11.4218
ᏓᏑᏴᎢ	-11.4221
ᏨᏁᎸ	-11.4226
▁ᏍᎩᏯᏓᏅ	-11.4227
ᏟᏴᎡ	-11.423
ᏎᎪᎩᏏ	-11.4231
ᎨᏥᏁᎸ	-11.4235
▁ᏯᏇᎵ	-11.4235
ᏍᏔᏁᏍᏗ	-11.4236
ᏔᎴᏒ	-11.4237
ᏟᏌ	-11.424
ᏛᏉ	-11.4243
ᏓᏆᏛ	-11.4244
▁ᎠᏂᏰ	-11.4245
ᏕᎬᏲᎯᏏ	-11.4245
ᏍᏕ	-11.4246
ᎬᏩᏛᏛᏅᎩ	-11.4247
ᏧᎵᏍᏙᏔᏅ	-11.4252
▁ᏓᎵᏂᎪᎯᏍᏗᏍ	-11.4253
ᎶᏔᏅ	-11.4254
▁ᏫᏙᏥ	-11.4263
ᏁᏅᏒᎩ	-11.4263
▁ᏨᏙᏗ	-11.4266
ᏓᏂᎸᎪᎢ	-11.4267
ᏯᏙᏤᎮᏍᏗ	-11.4269
ᏦᏅ	-11.427
ᏍᏓᏩᏕᏒᎭ	-11.4273
▁ᏱᎬᏗ	-11.4274
ᏟᏍᏗᏍᎪᎢ	-11.4274
▁ᎯᏍᎫ	-11.4275
▁ᎠᎾᏙᎴᎰ	-11.4278
ᎫᎳ	-11.4278
▁ᎥᏓᏗ	-11.4278
▁ᏱᏕᎬ	-11.4281
▁ᎢᏣᏄᏬᏍ	-11.4281
▁ᎢᏨᏓ	-11.4285
▁ᏥᏕᎲ	-11.4287
▁ᏕᏥᏯ	-11.4289
ᏚᎸᏫᏍᏓᏁᎲᎩ	-11.429
▁ᎤᏂᏴᎲ	-11.4295
▁ᎢᎦᎵᏍᏓ	-11.4296
ᎦᏘᏏᏗᏢ	-11.4297
ᏆᏗᏍᏗ	-11.4297
▁ᎤᏂᎶᏎ	-11.4299
▁ᎠᏩᏘᏍᎪ	-11.4301
▁ᏫᎬᏩᏴᏔᏁ	-11.4301
▁ᏂᏓᏙᏓᏈᏒ	-11.4302
▁ᏱᏅᏩ	-11.4303
▁ᎨᏣᏡᏗᏍᎬ	-11.4303
ᎧᏙᏴ	-11.4304
▁ᏧᎳᏑᎶ	-11.4304
ᏯᎣ	-11.4304
ᏓᏛᏁᎲᎩ	-11.4304
▁ᎤᏃᏢ	-11.4305
ᎾᏛ	-11.4306
▁ᏗᏆᏓᏅᏛ	-11.4306
ᏍᎪᎯᏧᏈ	-11.4306
▁ᏕᏣᏁᎶᏛ	-11.4307
▁ᏂᏥᏪᏍᎬ	-11.4308
▁ᎤᏂᏇᏓᎸ	-11.4309
▁ᏥᎦᎷᎪ	-11.4309
▁ᏕᎦᏕᏲᎲᏍᎬ	-11.4309
▁ᏚᏑᏰᏎ	-11.4309
▁ᏚᏃᏪᎸ	-11.4309
▁ᏥᏂᎨᏎ	-11.4313
▁ᎢᏥᏙᎾ	-11.4313
▁ᎤᎾᏚᎵᏍᎪ	-11.4314
▁ᎠᏥᏰᎸᎾᏁᎴ	-11.4314
▁ᎣᏥᏃᎮᏍᎬ	-11.4314
ᏯᏓᏅᏓᏗᏍᏔᏅ	-11.4315
▁ᏕᏥᎧᎿᏩᏗᏒ	-11.4316
ᎮᎴ	-11.4316
▁ᎤᎸᏓᎸᎥᏍ	-11.4316
ᏙᏂᏍᎩ	-11.4316
▁ᎩᎦᎨᎢ	-11.4316
▁ᏥᏄᎵᏍᏔᏁ	-11.4316
▁ᏄᎾᏓᎴ	-11.4317
ᏓᎴᎲᏍᎩ	-11.4318
▁ᎬᎩᏁᏉᏤ	-11.4318
▁ᏭᏂᎶᏒ	-11.4318
▁ᎦᎸᎳ	-11.4321
▁ᏨᏓᎸ	-11.4322
ᎲᏍᏗᏱ	-11.4323
ᎦᎾᏏᏍᎩ	-11.4324
▁ᎢᏓᎵᎮᎵ	-11.4324
ᏄᎯᏍᏗᏍᎬ	-11.4325
▁ᎤᏛᏗ	-11.4325
▁ᎬᏩᎪᎮ	-11.4326
▁ᎤᏂᏂᎬᏎᎲ	-11.4327
▁ᎪᎱ	-11.4327
▁ᏂᎨᏐ	-11.4327
▁ᏧᏄ	-11.4328
▁ᎢᏯᏥ	-11.4328
▁ᎠᏂᏐᏢᎢᏍᏗᏍ	-11.4329
▁ᎤᏂᏚᎲ	-11.4329
▁ᏚᎷᎬ	-11.4329
ᏍᏛᏗᏍᎨ	-11.433
▁ᏂᏓᎾ	-11.433
▁ᎠᏉᎸ	-11.4331
▁ᎦᎵᏉ	-11.4331
▁ᎦᎫ	-11.4331
ᏂᏙᎲ	-11.4332
ᎾᏙᏓᏆᏍᎬ	-11.4332
▁ᏚᏂᎧᏁ	-11.4333
▁ᎤᎾᎵᏎ	-11.4333
ᎵᎥᏂᏍᏗ	-11.4334
ᏴᏔᏂᎸ	-11.4334
▁ᏱᎾᎩ	-11.4335
▁ᎬᏩᏛᎦᏁᎸ	-11.4335
ᎯᏍᏔᏅᎯ	-11.4336
ᏙᏣᏁ	-11.4337
ᏁᏍᎨᎲᎯ	-11.4338
ᎵᏍᏙᏰᏗ	-11.4338
ᏅᏁᎴ	-11.434
▁ᏅᏓᎦᏪ	-11.4341
ᏁᎵᏍᎨᎢ	-11.4342
▁ᎤᎾᏛᎦᏁᎸ	-11.4343
ᎬᏇᎯᏍᏗᎭ	-11.4345
▁ᎤᎾᏠᏤ	-11.4345
▁ᎬᏔᏲᏎ	-11.4346
▁ᎤᏴᏍᏕᏍ	-11.4347
▁Ꮢ	-11.4347
▁ᏥᏄᎵᏍᏔ	-11.4347
ᏓᎴᎲᏍᎦ	-11.4348
ᏓᏙᏕᏍᏗᏍᎩ	-11.4348
▁ᏂᏣᎵᏍᏓᏁ	-11.4349
▁ᏫᎨᏣᏲᎵ	-11.4349
▁ᎾᎩᏪᏎᎸ	-11.435
▁ᏕᎧᏅ	-11.4351
ᎦᏕᎣᏍᎦ	-11.4352
▁ᎤᏬᎯᏳᏅ	-11.4352
▁ᎦᏩᏒ	-11.4352
▁ᏣᏁᎮ	-11.4353
ᏍᎦᏰᎬᏍᏓ	-11.4353
ᎬᎭᎷᏯᏍ	-11.4353
ᏖᏛ	-11.4353
▁ᏦᎩᎾᏫ	-11.4354
▁ᏁᏓᏂ	-11.4355
ᏣᎵᏍᏓ	-11.4355
ᏓᎵᏂᎪᎯᏍᏙᏗ	-11.4355
▁ᎠᎫᎢᏍᏗᏍ	-11.4355
▁ᎢᏥᎩᎵᏲᎢᏍᏗ	-11.4356
▁ᎤᏍᏗᏰᏔᏁ	-11.4357
ᏃᎮᎴᎢ	-11.4357
▁ᎤᎵᏍᎪᎸᏔᏅ	-11.4358
ᎿᏍᏕᏢ	-11.4358
ᏈᎷ	-11.4358
▁ᎤᎾᏄᎪᏥ	-11.4358
▁ᎤᏂᏲᎰ	-11.4358
ᏓᏨᏯᏍᏗ	-11.4359
▁ᏭᎶᎯᏍᏗ	-11.436
ᏩᎵᏱᎶᎯ	-11.4361
▁ᏗᏥᎧᎿᏩᏛᏍᏗ	-11.4361
▁ᎡᏍᏓ	-11.4361
ᏕᎶᏆᏍᏗ	-11.4361
▁ᏕᎭᏕᏲᎲᏍ	-11.4362
ᏏᎾᏌᏅ	-11.4362
▁ᎺᏌ	-11.4363
▁ᎢᎩᏙ	-11.4364
ᏢᏆᏍᏙᏗ	-11.4364
ᏓᎵᏁᎯ	-11.4365
▁ᎠᎾᎵᏍᎦᏍᏙᏗᏍ	-11.4365
▁ᎢᏨᏍᏗᏰ	-11.4365
ᏢᏫᏍᏙᏗ	-11.4365
▁ᏧᏂᏁᏟᏴᏍᏗ	-11.4366
▁ᏗᎧᏃᎩ	-11.4366
▁ᎤᏃᎱᎦ	-11.4367
ᎳᎨᏯᏛ	-11.4367
ᏟᎶᏍᏔᏂ	-11.4367
▁ᎠᏩᏂᎦᎳ	-11.4367
ᏬᎯᎵᏴᏍᏓᏁᏗ	-11.4367
▁ᎠᎬᏓᎨᏂ	-11.4367
▁ᎠᎾᏁᎳᏗᏍᎪᎢ	-11.4367
▁ᎠᏚᎳᏗᏍᎨᎢ	-11.4367
▁ᎠᏛᏅᎢᏍᏔᏃᏅᎯ	-11.4367
▁ᎠᏜᏩᏍᏗᏍᎨᏍᏗ	-11.4367
▁ᎠᏯᏍᏜᏗᏍᎩ	-11.4367
▁ᎡᏣᎱᏍᏕᏎᎸᎯ	-11.4367
▁ᎢᎠᏥᏩᏛᎲᏃ	-11.4367
▁ᎢᎬᏩᏂᎩᏍᏔᏁ	-11.4367
▁ᎢᏍᎩᏌᏛᎥᏍᎦ	-11.4367
▁ᎢᏍᏙᏎᎸᎭ	-11.4367
▁ᎢᏓᎵᏍᏓᏴᏗᏍᎬᎢ	-11.4367
▁ᎢᏨᏰᏯᏔᏅᎢ	-11.4367
▁ᎣᏁᏏᏉᎳ	-11.4367
▁ᎤᎷᏦᏅᎯ	-11.4367
▁ᎤᏁᏐᎠᏒᎩ	-11.4367
▁ᎤᏂᎪᏁᎶᎯᏌᏘ	-11.4367
▁ᎥᏆᎨᏅᏛ	-11.4367
▁ᎥᏥᏯᏛᎦᏁᎸᎩ	-11.4367
▁ᎦᏃᎯᎵᏒᎩ	-11.4367
▁ᎨᏣᏁᏄᎳᏍᏗ	-11.4367
▁ᎬᏩᏂᏲᏥᏙᎸ	-11.4367
▁ᎭᏓᎦᏖᏙᎢᏍᎨᏍᏗ	-11.4367
▁ᎮᏏᎦᏯ	-11.4367
▁ᎯᏯᎵᏍᎪᎸᏓᏁᎮᏍᏗ	-11.4367
▁ᎶᏉᎹ	-11.4367
▁ᎾᎦᏔᎾᎥᎾ	-11.4367
▁ᏂᎦᏅᎦᎸᎲᎾ	-11.4367
▁ᏂᏗᏣᏓᏕᎵᏎᎲᎾ	-11.4367
▁ᏂᏗᏣᏢᏫᏎᎲᎾ	-11.4367
▁ᏂᏙᏣᎵᏍᏓᏁᎭ	-11.4367
▁ᏂᏚᎾᏓᏁᎶᏛᎾ	-11.4367
▁ᏄᎾᎵᎮᎵᏣᏛᎾ	-11.4367
▁ᏄᏂᎷᎶᏤᎲᎾ	-11.4367
▁ᏄᏍᏆᎸᎲᎾ	-11.4367
▁ᏄᏚᏯᏍᏛᎾ	-11.4367
▁ᏅᎤᏪᏎᎸᎩ	-11.4367
▁ᏅᏓᏳᏍᏗᏗᏒᎩ	-11.4367
▁ᏅᏛᎾᎵᏍᏔᏂ	-11.4367
▁ᏅᏧᏛᎿᏗᏎ	-11.4367
▁ᏈᎵᏕᎵᏈ	-11.4367
▁ᏈᏗᏂᏱ	-11.4367
▁ᏍᎩᏯᏐᎥᎦ	-11.4367
▁ᏐᏱᏁᎳ	-11.4367
▁ᏓᎾᏕᏒᎲᏍᎨᎢ	-11.4367
▁ᏓᏍᏆᎸᎮᎬᎢ	-11.4367
▁ᏕᎦᏓᏬᏍᏗᎭ	-11.4367
▁ᏕᎬᏩᎾᏍᏗᏍᎨᎢ	-11.4367
▁ᏕᎭᏅᏓᏗᏍᏗᏍᎨᏍᏗ	-11.4367
▁ᏕᎭᏕᎳᏍᏗᏍᎨᏍᏗ	-11.4367
▁ᏕᎯᏯᏓᏂᎸᏨᎭ	-11.4367
▁ᏗᎦᏅᏍᎨᏂ	-11.4367
▁ᏗᎨᏥᏅᏍᏕᏎᎸᎯ	-11.4367
▁ᏗᎩᎾᏓᏛᏙᏗ	-11.4367
▁ᏗᎫᎯᎶᎥᎢ	-11.4367
▁ᏗᎬᏪᏘᎸᎯ	-11.4367
▁ᏗᏓᏙᏕᎯᎯ	-11.4367
▁ᏗᏥᏌᎳᏛᎦ	-11.4367
▁ᏘᏍᏓᏩᏚᎦ	-11.4367
▁ᏘᏰᎵᎯᏍᏓ	-11.4367
▁ᏙᏓᎦᏥᏯᏟᎶᏍᏔᏂ	-11.4367
▁ᏙᏓᏦᎵᏍᏔᏂ	-11.4367
▁ᏙᏗᎨᎦᏨᏍᏔᏂᏒ	-11.4367
▁ᏙᏗᏂᎧᏁᎢ	-11.4367
▁ᏚᎧᎿᏩᏗᏙᎮᎢ	-11.4367
▁ᏚᎾᏁᏍᏓᏝᎰᎢ	-11.4367
▁ᏚᎿᎷᏔ	-11.4367
▁ᏚᏥᏍᏠᏨᎩ	-11.4367
▁ᏚᏪᏣᎦᎸᎮᎢ	-11.4367
▁ᏚᏯᏍᏜᏛ	-11.4367
▁ᏛᎵᏰᎢᎸᏍᏓ	-11.4367
▁ᏣᏉᏪᎳᏅ	-11.4367
▁ᏣᏥᏰᎸᎾᏁᎴᎢ	-11.4367
▁ᏥᎦᎵᎡᎵᎦ	-11.4367
▁ᏥᎬᎩᎾᎸᏍᏔᏅᎩ	-11.4367
▁ᏥᏕᎫᏓᎴᏍᏗᎭ	-11.4367
▁ᏥᏚᏱᎶᎴᎢ	-11.4367
▁ᏥᏯᏚᏣᎳᏅᎭ	-11.4367
▁ᏦᏪᎳᏅᎩ	-11.4367
▁ᏧᎦᏄᏓᏅᎯᏛ	-11.4367
▁ᏧᎾᎴᏅᏁᎢ	-11.4367
▁ᏧᏃᏕᎯᎯ	-11.4367
▁ᏩᎵᏍᏆᏗᎯᎲ	-11.4367
▁ᏩᏂᎦᏖᎢ	-11.4367
▁ᏩᏆᏘᏅᏍᏔᏅᎩ	-11.4367
▁ᏪᏣᏓᎤᎦ	-11.4367
▁ᏫᎦᎶᎯᏍᏗᏍᎬᏉ	-11.4367
▁ᏫᏄᎾᎵᏍᏓᏏ	-11.4367
▁ᏫᏗᏍᎩᏯᏘᏅᏍᏔᏅᎩ	-11.4367
▁ᏫᏙᏛᏂᏲᎯᏎᎵ	-11.4367
▁ᏫᏚᎦᏔᎲᏍᏙᏗᏱ	-11.4367
▁ᏭᏁᎳᏗᏓ	-11.4367
▁ᏯᎩᏂᎬᏎᎭ	-11.4367
▁ᏯᎾᏓᏛᎦ	-11.4367
▁ᏯᏂᏍᏙᎰᎢ	-11.4367
▁ᏱᏄᎵᏍᏓᏁᎮ	-11.4367
▁ᏱᏍᏆᏓᏙᎵᏍᏓᏁᎸ	-11.4367
▁ᏱᏕᎪᎬᏂᏍᏓ	-11.4367
▁ᏱᏚᏂᎿᏍᏕᏠᎢ	-11.4367
▁ᏱᏣᏍᎦᏅᏤᏍᏗ	-11.4367
▁ᏱᏥᎪᏁᎶᏍᎨᏍᏗ	-11.4367
▁ᏱᏦᎵᎨᏍᏗ	-11.4367
▁ᏱᏪᏣᏓᎢᏅ	-11.4367
▁ᏴᎬᏚᏓᎴᏍᏓ	-11.4367
ᎢᏗᎬᏤᎵᏛ	-11.4367
ᏓᏕᏘᏴᎮᎬ	-11.4367
▁ᎡᏓᎵᎡᎵ	-11.4367
▁ᎡᏥᎧᏁᏗᏱ	-11.4367
▁ᎢᎨᎬᎾᏕᎩ	-11.4367
▁ᎢᎩᏇᏓᎸ	-11.4367
▁ᎢᏯᎩᏪᏍᏗᏱ	-11.4367
▁ᎣᎦᎵᏥᏙᏗᏱ	-11.4367
▁ᎤᏍᏘᏰᏅᎯ	-11.4367
▁ᎤᏓᏕᏲᏗᏱ	-11.4367
▁ᏂᏚᎿᏍᏕᏢᎾ	-11.4367
▁ᏄᎾᏙᏓᏈᏒ	-11.4367
▁ᏓᎬᏩᎸᏍᎨᏍᏗ	-11.4367
▁ᏓᏓᎾᏩᏍᏛ	-11.4367
▁ᏗᎬᏩᏜᏍᏗ	-11.4367
▁ᏗᏂᏤᎷᎯᏍᎩ	-11.4367
▁ᏧᏃᏕᏍᏗᏍᎩ	-11.4367
▁ᏫᎤᏪᏅ	-11.4367
▁ᏳᏂᎷᏤᎮ	-11.4367
ᏬᎯᎵᏴᏍᏓᏁᎲᎢ	-11.4367
▁ᎠᏅᏳᏤᎲ	-11.4367
▁ᎠᏗᏅᏗᏉ	-11.4367
▁ᎠᏠᏄᎮᏛ	-11.4367
▁ᎢᏲᏨᏴᏁᏗᏱ	-11.4367
▁ᎤᎾᎪᎲᏍᏙᏗᏱ	-11.4367
▁ᎤᏂᏝᏗᏤ	-11.4367
▁ᎤᏄᏓᎴᏍᎩ	-11.4367
▁ᎤᏓᏅᏓᏛᎢ	-11.4367
▁ᎤᏖᎸᎳᏛ	-11.4367
▁ᎯᎪᎵᏰᎥᎩ	-11.4367
▁ᏂᏥᎦᏔᎾᎥᎾ	-11.4367
▁ᏅᏋᏁᎵᏙᎸᎢ	-11.4367
▁ᏅᏓᏳᎾᎵᏍᏓᏁᎵ	-11.4367
▁ᏕᏣᏓᏬᏁᏗᏍᎨᏍᏗ	-11.4367
▁ᏗᎩᎧᏁᏴᏗᏱ	-11.4367
▁ᏙᏛᏂᏲᎯᏎᎵ	-11.4367
▁ᏥᏂᏓᎦᏔᎰᎢ	-11.4367
▁ᏧᎦᏌᏬᎸᎯ	-11.4367
▁ᏩᏓᏁᏟᏴᏍᏓ	-11.4367
▁ᏱᎬᎿᏗᏍ	-11.4367
▁ᏱᏍᎩᏲᎢᏳᎲᏍᎦ	-11.4367
▁ᏱᏧᏢ	-11.4367
▁ᎠᎾᎵᏍᎪᎸᏗᏍᎩ	-11.4367
▁ᏥᏩᏂᎶᏍᎪ	-11.4367
ᎬᏩᏓᏟᏌᏁᎴᎢ	-11.4367
▁ᎡᎻᎳ	-11.4367
▁ᎢᏣᎦᏔᏅᏎ	-11.4367
▁ᎢᏣᏂᎩᏍᎨᏍᏗ	-11.4367
▁ᎤᏂᎪᎯᏙᎸᎯ	-11.4367
▁ᎪᎴᏏᏂ	-11.4367
▁ᎾᏆᎵᏍᏓᏁᎵᏙᎲᎢ	-11.4367
▁ᏙᏛᎠᎴᎯᏌᏂ	-11.4367
▁ᏚᏂᎦᏘᎸᏒ	-11.4367
▁ᏛᏃᎵᏥ	-11.4367
▁ᏫᎬᏩᏘᏅᏍᏔᏅᎩ	-11.4367
▁ᏯᏆᏘᏝ	-11.4367
▁ᎠᏍᎪᏂᏗᏢ	-11.4367
▁ᎤᏍᎩᏅᏕ	-11.4367
▁ᏌᎳᏓᏱᎵ	-11.4367
▁ᏓᏆᏚᏫᏍᏔᏅᎩ	-11.4367
▁ᏓᏥᏴᏂᎵ	-11.4367
▁ᏕᏥᏅᏫᏍᎨᏍᏗ	-11.4367
▁ᏥᎨᎦᏤᏪᎸ	-11.4367
▁ᏫᏙᏛᎾᎴᏔᏂ	-11.4367
ᏓᏓᏚᎪᏓᏁᎲ	-11.4367
▁ᎤᎵᏃᎮᏔᏅᎢ	-11.4367
▁ᎤᏁᏉᏥᏕᎬ	-11.4367
▁ᎬᏩᎩᏨᏗ	-11.4367
▁ᏂᎬᎩᏲᎸᎾ	-11.4367
▁ᏚᏁᎯᏍᏓᏁᎲ	-11.4367
▁ᏧᏕᏲᏗᏱ	-11.4367
▁ᏳᏚᏓᎴᏍᏔᏁ	-11.4367
▁ᎤᎳᏍᏚᏒ	-11.4367
▁ᏙᏓᎨᏥᏲᎯᏎᎵ	-11.4367
▁ᎤᏂᏯᏙᎴ	-11.4367
▁ᎤᏪᏩᏒᎢᏍᏗ	-11.4367
▁ᎤᏪᏯᎸᏅᎩ	-11.4367
▁ᏓᎾᎵᏃᎮᎵᏙᎲ	-11.4367
▁ᏥᏡᎦ	-11.4367
▁ᏱᏅᎬᎾᏛᎦ	-11.4367
▁ᏱᏅᏛᏅᏁᎵ	-11.4367
▁ᎢᏨᏯᏛᏓᏍᏓᏁᏗᏱ	-11.4367
▁ᏅᏓᎬᏩᏪᏎᎵ	-11.4367
▁ᏅᏗᎦᎵᏍᏗᏙᏗᏍ	-11.4367
▁ᏌᎨᎢᏳ	-11.4367
▁ᏥᏚᎾᏚᏓᏙ	-11.4367
▁ᏧᏍᏕᎸᏛ	-11.4367
▁ᏧᏍᏚᎢᎡᎸᎯ	-11.4367
▁ᎠᏓᎿᏍᏆᎶᏍᏗᏍᎩ	-11.4367
▁ᎤᏪᏇᏴ	-11.4367
▁ᏥᏚᏙᎠ	-11.4367
▁ᎧᏁᏉᏥᏎ	-11.4367
▁ᎢᎨᏣᎵᏍᏓᏁᏗ	-11.4367
▁ᎢᏨᎩᎵᏲᏤᎲ	-11.4367
▁ᏱᏗᏓᏓᏂᎸᎦ	-11.4367
▁ᎤᏅᏩᏅᎩ	-11.4367
▁ᏈᏥᏱ	-11.4367
▁ᏥᏕᏥᏙᎦ	-11.4367
ᏯᏥᎪᏁᎸ	-11.4367
▁ᎢᏥᎾᏄᎪᏩ	-11.4367
▁ᏓᎬᏩᏍᎪᏂᎵ	-11.4367
▁ᏓᏇᎷᎬ	-11.4367
▁ᏙᏥᏴᎬ	-11.4367
▁ᏚᎳᏫᏛ	-11.4367
▁ᏫᏚᏂᏯᏅᎮᎢ	-11.4367
▁ᏭᏗᏢᏍᏔᏅ	-11.4367
ᏚᎾᏚᏫᏍᏔᏁᎢ	-11.4367
▁ᎢᏍᏛᎨᏳᎢ	-11.4367
▁ᎥᏣᏂᎩ	-11.4367
▁ᏂᎩᏴᏁᎸ	-11.4367
▁ᏥᏁᏣᏛᎩᏍᎪᎢ	-11.4367
▁ᏦᎩᏂᎸᏫᏍᏓᏁᎯ	-11.4367
▁ᏫᎬᏩᏲᏥᏓᏍᏗ	-11.4367
▁ᎠᏛᏒᎥᏍᎩ	-11.4367
▁ᎤᏍᎫᏓᏛᎢ	-11.4367
▁ᏃᏥᏪᎭ	-11.4367
▁ᏚᏅᏂᎦᎸᎲᎩ	-11.4367
▁ᏱᏚᎾᏝᎠ	-11.4367
▁ᏥᎦᎶᏒᏍᏗᎭ	-11.4367
▁ᏧᏃᎸᏔᏂᏙᎰ	-11.4367
▁ᏫᏯᏴᎯᎮᏍᏗ	-11.4367
▁ᎤᎵᏥᏍᏋ	-11.4367
▁ᎤᏬᏢᎯᏐᏗ	-11.4367
▁ᎠᎩᎵᏴ	-11.4367
▁ᎣᏍᏗᏴᎩ	-11.4367
▁ᏂᏕᏣᏓᏛᏁᎮᏍᏗ	-11.4367
▁ᏗᎫᎪᏓᏁᎯ	-11.4367
▁ᏛᎵᏍᏆᏗ	-11.4367
ᎯᏍᏗᏰᏗᏍᎨᏍᏗ	-11.4367
▁ᎤᏓᏥᏃᎯᏍᏔᏅ	-11.4367
▁ᏕᎱᎪ	-11.4367
▁ᏧᎩᏥᏍᎪ	-11.4367
▁ᎠᏆᏛᎯᏎᎸᎯ	-11.4367
▁ᏙᏗᏫᏒᎢ	-11.4367
▁ᏣᏓᎦᏌ	-11.4367
▁ᏚᏁᏲᏁ	-11.4367
▁ᏥᏂᏥᏪᏍᎬᎩ	-11.4367
▁ᏴᎨᏦᎯᏳᎲᎦ	-11.4367
▁ᏴᎬᏲᎱᎯ	-11.4367
▁ᎤᎾᏁᎷᎩ	-11.4367
▁ᎠᏓᏁᏤᎯ	-11.4367
▁ᏥᎯᏃᏁᎵ	-11.4367
▁ᏯᏓᏛᏍᎪᎢ	-11.4367
▁ᏂᏙᏓᏳᏂᎶᏒᎯ	-11.4367
▁ᏗᏔᎸᎢ	-11.4367
▁ᎠᎩᏔᎳᏬᏍᎬ	-11.4367
▁ᏗᎨᏥᏴᎩᏅᎯ	-11.4367
▁ᏗᎬᏩᏕᏲᏗ	-11.4367
▁ᏙᎩᏲᏐᏅ	-11.4367
▁ᎤᏍᏢᏂᏍᏗᏍᎩ	-11.4367
▁ᎾᎦᏔᏛ	-11.4367
▁ᏂᏓᏛᏓᏍᏓᏁᎲᎾ	-11.4367
▁ᏍᏆᏕᎲᏏ	-11.4367
▁ᏕᎨᎦᏓᏂᎸᏨ	-11.4367
▁ᏱᏅᎨᏣᏛᎦ	-11.4367
▁ᏱᏣᏚᎵᏍᎨᎢ	-11.4367
▁ᎠᎾᏍᎩᏓᏒᎥᏍ	-11.4367
▁ᎡᏙᎢᏳᏒᎢ	-11.4367
▁ᏥᏥᎶᏄᎮᎵ	-11.4367
▁ᎠᏂᎦᏯᎷᎥᏍᎨᎢ	-11.4367
ᏲᎱᎯᏎᎭ	-11.4367
▁ᏙᏓᎦᏟᎶᏍᏔᏂ	-11.4367
▁ᏌᎩᎻ	-11.4367
▁ᏚᎾᏓᏠᎲ	-11.4367
▁ᎢᏳᏩᏓᏗ	-11.4367
▁ᏗᎩᎸᏫᏍᏓᏁᏗ	-11.4367
▁ᏗᏂᏁᏥᏱ	-11.4367
▁ᏥᏯᏚᎸᎡ	-11.4367
ᏏᏛᏂᎸᎩ	-11.4367
ᎩᎵᏲᏥᏙᎸᎢ	-11.4367
▁ᎢᎳᏯᎩᎻ	-11.4367
▁ᏘᎨᏫ	-11.4367
▁ᏖᏲᎲᏍᎩ	-11.4368
▁ᎡᎻᏂᏓᏈ	-11.4368
▁ᏧᎵᏯᏏ	-11.4368
▁ᏕᎯᏍᏓᏩᏗᏎᏍᏗ	-11.4368
▁ᏚᏂᎵᏬᏨᎩ	-11.4368
▁ᏩᏙᏑᎵ	-11.4368
▁ᏧᎾᎳᏏᏕᏄᎶᏗ	-11.4368
▁ᏱᏍᎩᎦᏔᎮᎢ	-11.4368
ᎨᎩᎩᎵᏲᎢᏍᏗᏍᎬᎩ	-11.4368
▁ᏱᏓᏂᏁᏟᏴ	-11.4368
▁ᎤᏃᎱᎦᏂᎸ	-11.4368
ᏓᎦᏁᏍᎨᎯ	-11.4368
▁ᎠᎵᏃᎮᏗᏍᎬ	-11.4368
▁ᎠᎾᎵᏍᏕᎵᏍᎩ	-11.4368
▁ᏨᎩᏅᏒ	-11.4368
▁ᎠᏂᏝᎲᏍᎪ	-11.4368
▁ᎠᏂᏫᏅᎨᏌᏂ	-11.4368
▁ᏗᎬᏩᎾᏓᏁᏟᏴᎡᏗ	-11.4368
▁ᎢᏣᏚᎸᏗᏱ	-11.4368
▁ᏣᏂᏙᎾᎠ	-11.4368
▁ᎠᏉᎯᏳᏓᏁᎯ	-11.4368
▁ᏎᏙᎩ	-11.4368
▁ᏄᏂᏍᎦᏅᏨᎾ	-11.4368
▁ᎠᎩᎷᎳ	-11.4368
▁ᏂᏓᎵᏍᏗᎭ	-11.4368
▁ᎾᏆᎵᏍᏓᏁᎵᏕᎬ	-11.4368
▁ᏤᏉᎯᏳ	-11.4368
▁ᏥᏚᏣᏃᏛᎩ	-11.4368
▁ᏩᏂᎶᎯ	-11.4368
▁ᎤᏙᎵᏍᏙ	-11.4368
▁ᎥᎩᏙᎵᏨᎩ	-11.4368
▁ᏚᏰᎵᏏᏙ	-11.4368
▁ᏴᎬᏓᏛᎦ	-11.4368
ᏴᏋᏁᎸᎯ	-11.4368
▁ᎢᏣᏢᏆᏍᎬ	-11.4368
▁ᏦᎩᎸᏫᏍᏓᏁᎸᎯ	-11.4368
▁ᎬᏩᏕᎰᏔᏁᎢ	-11.4368
ᎾᏘᏃᎮᎸᎭ	-11.4368
▁ᏅᏓᏳᏪᏒᎩ	-11.4368
▁ᎢᎦᎵᎪᏁᎯ	-11.4368
▁ᎤᏂᏁᏉᏨᎯ	-11.4368
▁ᏫᏥᎾᏄᎪᎢᏍᏗᏱ	-11.4368
▁ᏭᏂᎷᎯᏍᏗᏱ	-11.4368
▁ᎤᏚᎸᏅᎥᏍᎬᎢ	-11.4368
▁ᎢᎩᏲᎱᎯᏎᎸ	-11.4368
▁ᏓᏳᎾᏡᏔᏂ	-11.4368
▁ᏂᏚᎸᏫᏍᏓᏁᎲᎾ	-11.4368
▁ᏗᎬᏩᏂᏲᎱᎯᏎᎸᎯ	-11.4368
▁ᏂᏗᏥᏁᎲᎾ	-11.4368
▁ᏪᏣᏚᎦ	-11.4368
▁ᏛᏂᏁᏥ	-11.4368
▁ᏱᎬᏲᏎᎭ	-11.4368
▁ᏰᏦᏎᎮᏍᏗ	-11.4368
▁ᎠᎾᎴᏂᏙ	-11.4368
▁ᏂᏚᏁᎶᏛᎾ	-11.4368
▁ᎠᏂᏅᏜᎡᎢ	-11.4368
▁ᎧᏁᎮᏛ	-11.4368
▁ᏂᏣᏛᎩᏍᎬᎾ	-11.4368
▁ᏗᏦᏏᏏᏍᎩ	-11.4368
▁ᏧᏓᎾᏄᎪᏫᏍᏗᏱ	-11.4368
▁ᏂᏣᏛᏓᏍᏓᏁᎲᎾ	-11.4368
▁ᏓᎬᎾᏄᎪᏫᏎᎵ	-11.4368
▁ᎢᏗᏯᏙᎯ	-11.4368
ᏍᎩᏅᏗᏍᏗ	-11.4368
▁ᏂᏍᎩᏴᏁᎸ	-11.4368
▁ᏅᏓᎬᏩᎴᏅᏛ	-11.4368
ᎦᏙᏌᏗᏍᏛ	-11.4368
▁ᎠᎦᎫᏴᏓᏁᎮᏍᏗ	-11.4368
▁ᎢᏧᏅᏁᎸᎯ	-11.4368
▁ᏚᎾᏡᏕᏍᏗ	-11.4368
▁ᏦᏥᏚᎩ	-11.4368
▁ᏂᏕᎦᎵᏍᏓ	-11.4368
ᏗᎦᎸᏌᏓᏗᏍ	-11.4368
▁ᎠᏛᏲᎱᏏ	-11.4368
▁ᎣᏥᏍᏕᎵᏍᎩ	-11.4368
▁ᏄᎾᏓᏄᏴᏛᎾ	-11.4368
▁ᏅᏓᎬᏂᏌᏂ	-11.4368
▁ᎢᏯᎩᏳᏍᏈᏛ	-11.4368
▁ᎤᎾᏕᎰᎯᏍᏗᏍᎩ	-11.4368
▁ᏥᎬᏩᏂᏛᏔᏁ	-11.4368
▁ᏗᎨᏥᏅᏬᏗᏱ	-11.4368
▁ᎤᎵᏍᎨᏛ	-11.4368
▁ᏄᎾᏜᏏᏛᎡᎲᎾ	-11.4368
▁ᎹᏓᏯᏃ	-11.4368
ᏓᎦᎵᏍᏙᏔᏂ	-11.4368
▁ᎢᏣᏓᏟᏌ	-11.4368
▁ᎡᏥᏔᏲᏎᎮᏍᏗ	-11.4368
▁ᏲᏍᏗᎦᏔᎭ	-11.4368
▁ᏑᏙᏓᏆᏛ	-11.4368
▁ᏥᏕᏣᏓᏂᎸᏨ	-11.4368
▁ᏗᏓᏱᎵᏓᏍᏗᏱ	-11.4368
▁ᏓᏥᏔᏲ	-11.4368
▁ᏗᏧᎪᏗᏍᎩ	-11.4368
▁ᏛᏂᏍᏗᏍᎩ	-11.4368
▁ᎢᏳᏅᏂᏐᏗᏱ	-11.4368
▁ᎡᏥᏲᎢᏎᎸ	-11.4368
▁ᎤᎾᏓᎩᎸᏗ	-11.4368
ᏍᏓᏩᏕᎪᎢ	-11.4368
▁ᏂᏥᏔᏲᎯᎲ	-11.4368
▁ᎨᏧᎯᏍᏗᏍᎩ	-11.4368
▁ᎤᎵᏯᏍᏚᏁ	-11.4368
▁ᏱᏗᏥᏬᏂᎭ	-11.4368
▁ᎠᎾᏓᎸᏉᏗᏍᎩ	-11.4368
▁ᎤᏍᏆᎳᎯᏳ	-11.4368
▁ᏧᏃᏴᎪ	-11.4368
▁ᎠᎾᏙᎩᏯᏍ	-11.4368
▁ᏚᏲᏨᎩ	-11.4368
▁ᏥᏕᎦᎶᏄᎮ	-11.4368
▁ᎢᏨᏯᏅᏓᏗᏍᏗᏍᎬᎢ	-11.4368
▁ᏥᏂᎬᏂᏏ	-11.4368
▁ᎨᏣᏈᏗ	-11.4368
▁ᏃᎦᏠᎾᏍᏛᎾ	-11.4368
▁ᏕᎰᎯᏳᎲᏍ	-11.4368
ᏨᏱᏢᏅ	-11.4368
▁ᏕᏥᎪᎾᏛ	-11.4368
ᏅᏩᏍᏙᎢ	-11.4368
▁ᎡᏣᏛᏛᎲᎦ	-11.4368
▁ᏕᏨᏯᏬᏍᏗᎭ	-11.4368
▁ᎠᏆᏟᏂᎬᏁᎸ	-11.4368
▁ᏗᏥᎸᏫᏍᏓᏏ	-11.4368
▁ᏅᏓᎬᏩᏁᎵ	-11.4368
▁ᏧᎳᏏᏗᏱ	-11.4368
ᎩᎳᏩ	-11.4368
▁ᎤᎾᏓᏄᎸᏗ	-11.4369
▁ᎭᏛᎩᏍᎪ	-11.4369
ᏓᎦᏗᏔᎯ	-11.4369
▁ᏥᏕᎪᏪᎳ	-11.4369
▁ᏧᎾᏁᎳᏗᏍᏗᏱ	-11.4369
▁ᏫᏥᎧᏅᎯ	-11.4369
▁ᎠᎩᏅᏨᎩ	-11.4369
▁ᎣᏥᏔᏲᎯᎲ	-11.4369
▁ᎦᏄᎸᏒ	-11.4369
▁ᏚᏍᏓᏩᏛᏎᎢ	-11.4369
▁ᏯᏙᏢᎾ	-11.4369
▁ᏭᏅᎫᏛᎢ	-11.4369
▁ᎠᎵᎮᎵᏤᎰᎢ	-11.4369
▁ᎣᎦᏓᏅᏘᏳ	-11.4369
▁ᎣᎨᎲᎢ	-11.4369
▁ᏱᏣᏛᏛᎲᏍᎨᏍᏗ	-11.4369
ᏤᎳᏍᏔᏂ	-11.4369
▁ᏓᎬᏁᎵᏃ	-11.4369
▁ᎠᏐᏢᎢᏍᏗᏍᎨᏍᏗ	-11.4369
▁ᏥᏫᎦᎶᎯ	-11.4369
▁ᎷᏏᏯ	-11.4369
▁ᏚᏛᏅᎢᏍᏓᏁᎸ	-11.4369
▁ᏦᎦᏓᏅᏙ	-11.4369
▁ᎢᏣᏙᎩᏯᏍ	-11.4369
▁ᏕᎩᎸᏫᏍᏓᏁᎮᏍᏗ	-11.4369
ᎩᎩᎡᎵ	-11.4369
ᏋᏁᎵ	-11.4369
▁ᏧᏂᎵᎶᎲᏍᎦ	-11.4369
▁ᏂᎨᏥᏪᏎᎮᏍᏗ	-11.4369
▁ᏚᏂᎧᎮᏍᏗ	-11.4369
ᏙᏑᎴᎥᎩ	-11.4369
▁ᎬᏩᎵᏃᎮᏔᏁ	-11.4369
▁ᏣᎾᎵᏍᏓᏴᎲᏍᎦ	-11.4369
▁ᎤᏂᎸᏉᏔᏅᎩ	-11.4369
▁ᎠᏆᎦᏔᎲᏒ	-11.4369
▁ᎢᏗᏯᏫᏍᎨᏍᏗ	-11.4369
▁ᏕᏓᏁᎶᏛᎢ	-11.4369
▁ᏍᎩᏔᏲᏏ	-11.4369
▁ᏱᏣᏅᏔ	-11.4369
▁ᎯᏯᏓᏙᎵᏍᏓᏏ	-11.4369
▁ᏚᏂᏃᎩᏒᎩ	-11.4369
▁ᏫᎬᎷᏤᏗᏱ	-11.4369
▁ᎠᏆᏘᏂᏙᎲᎩ	-11.4369
▁ᎣᏇᏗ	-11.4369
▁ᏱᏚᎸᏫᏍᏓᏁᎮᎢ	-11.4369
▁ᎥᎩᏴᎩᏅᎯ	-11.4369
▁ᎢᏗᏍᏓᏩᏕᎩ	-11.4369
▁ᎤᎾᏛᏂᏛ	-11.4369
▁ᏫᏥᎶᏒᎩ	-11.4369
▁ᏚᏃᏣᎶᏤ	-11.4369
▁ᏱᏄᏛᏁᎸ	-11.4369
▁ᎢᏣᏛᏅᎢᏍᏕᏍᏗ	-11.4369
▁ᏍᎩᏯᎵᎡᎵᏍ	-11.4369
▁ᏫᏘᏯᏅ	-11.4369
▁ᏴᎬᏴᎭ	-11.4369
▁ᎢᏥᏰᏣᏍ	-11.4369
▁ᎠᏕᏄ	-11.4369
▁ᏓᏳᏍᏕᎸᎯ	-11.4369
▁ᎥᏇᏲᏅ	-11.4369
▁ᏓᏰᏥᏌᎳ	-11.4369
▁ᏗᏂᎧᏅᎢ	-11.4369
▁ᏗᎦᎸᏉᏔᏅᎯ	-11.4369
▁ᏤᏣᏟᏴᏏ	-11.4369
▁ᎠᏓᏓᏅᏓᏗᏍᏗᏍᎩ	-11.4369
▁ᏭᎾᏘᏅᏍᏔᏅᎩ	-11.4369
▁ᏧᎾᏓᏙᎵᏍᏓᏁᏗᏱ	-11.4369
▁ᎠᎾᏓᏛᏍᎬᎢ	-11.4369
▁ᏧᎬᏩᎳᏅᎯ	-11.4369
▁ᏧᎾᏢᏫᏍᏙᏗ	-11.4369
▁ᎠᏆᏯᏗ	-11.4369
▁ᎦᎾᏍᏙᎯ	-11.437
▁ᏓᏳᎸᏉᏔᏂ	-11.437
ᏁᏢᏗᎭ	-11.437
▁ᎤᏓᏍᏛᏗᏍᏗ	-11.437
▁ᏧᏂᏅᏬᏗᏱ	-11.437
▁ᎤᎾᎴᎾᎸᎯ	-11.437
▁ᎬᏩᎵᏍᏚ	-11.437
ᎵᏍᏙᎯᏍᏗᏱ	-11.437
▁ᎢᏍᎩᏴᏁ	-11.437
▁ᎮᎵᎭ	-11.437
▁ᏫᏰᏣᏓ	-11.437
▁ᎯᏍᏓᏩᏕᎨᏍᏗ	-11.437
▁ᎢᏣᎦᏌᏯᏍᏓ	-11.437
▁ᎬᏩᏓᏡᏫᏍᏔᏁᎢ	-11.437
▁ᎤᎯᎳᏅᎯ	-11.437
▁ᏩᎦᏘᏃᎸᎩ	-11.437
ᏚᏔᎲᎢ	-11.437
▁ᏄᎾᏍᏕᏍᏗ	-11.437
▁ᏧᏎᎪᎩᏍᏗᏱ	-11.437
▁ᏗᏂᏍᏆᏂᎪᏗᏍᎩ	-11.437
▁ᏫᏚᎧᎾᏅ	-11.437
▁ᎠᏃᏢᏅᎥᏍᎩ	-11.437
▁ᏥᏂᏕᏣᏛᏁᎰ	-11.437
▁ᎤᏂᏃᏍᎩᏍᏗᏱ	-11.437
▁ᏄᏙᎯᏳᏒ	-11.437
▁ᎡᏗᏯᎥᎢ	-11.437
▁ᎴᎻ	-11.437
▁ᏑᎹᏂ	-11.437
▁ᏍᎩᏯᎵᎪ	-11.437
▁ᏓᎧᎿᏩᏕᎨᏍᏗ	-11.437
▁ᏯᏅᏗᎭ	-11.437
▁ᎦᏬᏂᏒᎯ	-11.437
▁ᎠᏁᎷᎲᏍᎨ	-11.437
▁ᎤᏂᎾᏄᎪᏤᎸ	-11.437
▁ᏚᎾᏂᏏᏂᏙᎸ	-11.437
▁ᏕᏥᏍᏕᎵᏍᎬᎢ	-11.437
▁ᎨᏥᏛᏔᏅ	-11.437
ᏕᏘᏴᏛ	-11.437
▁ᎬᏩᎦᏘᏗᏍᎩ	-11.437
▁ᏳᏬᏎᎴᎢ	-11.437
▁ᎢᏥᎩᎵᏲᎨᏍᏗ	-11.437
▁ᏄᎾᎵᏏᎾᎯᏍᏛᎾ	-11.437
▁ᎧᏳᎦ	-11.4371
▁ᏦᎠᎾ	-11.4371
▁ᏯᏂᎷᎩ	-11.4371
▁ᏔᏘᏄᎦ	-11.4371
▁ᎠᏆᏙᎴᎰᎯᏍᏗᏱ	-11.4371
▁ᎤᏂᏂᏆᏘᏍᏗ	-11.4371
▁ᏱᏂᎬᏁᎰᎢ	-11.4371
▁ᎤᎩᎵᏲᏤᎢ	-11.4371
ᏓᏲᏣᏗᏒᏂ	-11.4371
ᎷᎲᎦ	-11.4371
▁ᎤᏲᎢᏳᎾᏛᎿᏕᎩ	-11.4371
ᎪᎲᏍᏔᏂ	-11.4371
▁ᏓᏰᏥᏁᎵ	-11.4371
ᏐᏈᎸ	-11.4371
▁ᏙᎩᎸᏫᏍᏓᏁᎸ	-11.4371
▁ᏯᎦᎵᏍᎨᎢ	-11.4371
ᎾᎬᏁᎸ	-11.4371
▁ᏟᏍᏆ	-11.4371
▁ᏕᎨᎦᎴᏗ	-11.4371
▁ᎣᎦᏅᏔ	-11.4371
▁ᏧᎾᏓᎴᏁᎢ	-11.4371
▁ᎨᎦᎫᏴᏛ	-11.4371
▁ᎢᎯᎦᏔᎭ	-11.4371
▁ᎤᎾᏕᏯᏔᏁᎴᎢ	-11.4371
▁ᎠᎪᏪᎶᏔᏅᎯ	-11.4371
▁ᏥᎦᏪᎳ	-11.4371
▁ᎢᏥᏍᏆᏂᎪᏍᎦ	-11.4371
▁ᏳᎬᏫᏳᎭ	-11.4371
ᎠᎦᏔᎲᏍᏓ	-11.4371
▁ᏗᎬᏩᏲᎯᏎᎸᎯ	-11.4371
▁ᏅᏩᏍᏕᏍᏗ	-11.4371
▁ᎣᎩᎶᏐᏅ	-11.4371
▁ᏚᎵᏍᏡᏰᎢ	-11.4371
▁ᏚᏯᏅᎮᎢ	-11.4371
▁ᏘᏂᏴ	-11.4371
▁ᏚᏍᏕᎸᎯᎸ	-11.4371
▁ᏱᏣᏛᏓᏍ	-11.4371
▁ᏚᎵᏔᏗᏅᏎ	-11.4371
▁ᎤᏂᏍᏕᏲᏅ	-11.4371
▁ᎦᏙᎩᏯᏍᎬ	-11.4371
▁ᏰᏥᎦᏔᎮ	-11.4371
▁ᏚᏍᎦᏤ	-11.4372
▁ᎤᏂᏍᏓᏩᏛᏛ	-11.4372
ᏤᏪᎸ	-11.4372
▁ᏗᏦᎸᏒᎯ	-11.4372
ᏁᎫᏥᏛ	-11.4372
ᏅᏍᏙᎯ	-11.4372
ᏄᏬᎯᏍᏔᏂ	-11.4372
▁ᎠᎩᏂᏆᏘᎮᏍᏗ	-11.4372
▁ᎣᏣᏓᏁᏟᏴᏍ	-11.4372
▁ᏧᏂᎸᏌᏓᏕᏗ	-11.4372
▁ᎤᏒᎯᏴ	-11.4372
▁ᎨᏣᏕᏯᏙᏗᏍᎩ	-11.4372
ᏑᎴᏍᎪ	-11.4372
▁ᎤᎾᏜᏅᏓᏕᏗᏱ	-11.4372
▁ᎤᎾᏘᎿᏫᏛᎲᎩ	-11.4372
▁ᎤᏂᏔᎳᏬᏒᎩ	-11.4372
▁ᏭᏗᏅᏒᎩ	-11.4372
▁ᏓᏂᏴᎨ	-11.4372
▁ᏦᏨᏃᏛ	-11.4372
▁ᎠᏆᎴᏁᎸ	-11.4372
▁ᎯᎦᏍᎦᏂ	-11.4372
▁ᎠᏥᏰᎸᎾᏁᎸᎩ	-11.4372
▁ᏕᏥᎦᏅᎩ	-11.4372
▁ᎠᏆᏎᎵᏔᏅ	-11.4372
▁ᎢᏥᏍᏛᏗᏍᎨᏍᏗ	-11.4372
▁ᏰᏥᎦᏔᎭ	-11.4372
ᎴᏲᎡᎸ	-11.4372
▁ᏳᏂᎾᏗᏅᏎ	-11.4372
▁ᎤᎦᏛᎾ	-11.4372
▁ᎬᏩᏂᏐᏢᏗ	-11.4372
▁ᎡᏥᎶᏄᎡᎸ	-11.4372
▁ᏗᏥᎦᎵᏍᏓᏕᏗ	-11.4372
▁ᏕᏥᏲᏍᎨᏍᏗ	-11.4372
▁ᎣᎦᏚᏓᏕᏫᏒ	-11.4372
▁ᎬᏩᏍᏕᎸᎯᏙᎮᎢ	-11.4372
▁ᎭᎦᏌᏯᏍᏓ	-11.4372
▁ᏂᏚᎾᎵᏂᎬᎬ	-11.4372
ᎾᎵᏛᎯ	-11.4372
▁ᎤᎶᏒᏍᏕᏍᏗ	-11.4372
▁ᎤᏂᏐᏅᏤᎴ	-11.4372
ᎦᎵᏍᏗᏰᏓᏁᎭ	-11.4373
▁ᏚᏫᏒᎢ	-11.4373
▁ᎢᏥᎾᏰᏍᎩ	-11.4373
▁ᏗᎦᎳᏫ	-11.4373
▁ᏗᎧᏃᎨᏂ	-11.4373
▁ᏳᏲᏤᎢ	-11.4373
▁ᎢᏨᏯᏑᏰᏛ	-11.4373
▁ᏱᏗᏧᎪᏗᎭ	-11.4373
▁ᏚᏓᏅᎡᎸᎩ	-11.4373
ᏓᎬᏅᏁᎵ	-11.4373
ᎱᏩ	-11.4373
▁ᏱᏚᎴᏅ	-11.4373
ᏢᏆᏍᏙᏗᏍᎨᏍᏗ	-11.4373
▁ᎭᎵᎮᎵᎨᏍᏗ	-11.4373
▁ᏗᏂᏃᎩᏍᎩ	-11.4373
ᏙᏅᎸᎢ	-11.4373
▁ᎡᏥᏝᏅᎯ	-11.4373
▁ᎯᏯᏙᎵᎨᏍᏗ	-11.4373
▁ᏗᎨᏥᏍᏚᎯ	-11.4373
▁ᎢᏨᏁᏤᎸᎩ	-11.4373
ᎷᏤᎵᏒᎢ	-11.4373
▁ᏓᎾᏤᎸ	-11.4373
▁ᎠᎩᏍᏓᏩᏛᏍᏗᏱ	-11.4373
▁ᏕᎯᎦᏔᎭ	-11.4373
▁ᏍᎩᎷᏤᏗᏱ	-11.4373
▁ᏚᏅᏍᏓᏕᎸᎩ	-11.4374
▁ᏦᏤᏙᎭ	-11.4374
▁ᏱᎦᎵᏥᏙᎲᏍᎦ	-11.4374
▁ᏂᎬᏅᎪᏪᎳ	-11.4374
▁ᏱᏗᎬᏕᎪ	-11.4374
▁ᏗᎦᎶᏐᎲᏍᎩ	-11.4374
▁ᏯᏕᎲᎦ	-11.4374
▁ᎢᏥᎩᎵᏲᏨ	-11.4374
▁ᏫᎬᏩᏛᏅᎩ	-11.4374
ᎵᏃᎯᏴᎯ	-11.4374
▁ᏧᏂᏲᎯᏎᏗᏱ	-11.4374
▁ᎤᎵᏌᎳᏁ	-11.4374
▁ᏥᏚᏍᏆᏂᎪᏗ	-11.4374
▁ᏂᏙᏓᎬᏩ	-11.4374
▁ᎢᏣᏠᎾᏍᏛ	-11.4374
▁ᎠᏍᎫᏕᏍᎩ	-11.4374
▁ᏣᏥᏐᏅ	-11.4374
▁ᏱᏗᏥᎸᏫᏍᏓᏁᎭ	-11.4374
▁ᏥᏩᏴᎯ	-11.4374
▁ᎦᏓᏙᎵᏍᏗᏍᎨᏍᏗ	-11.4374
▁ᏚᏂᎳᏫᏦᎴ	-11.4374
▁ᏱᏦᎯᏳᎭ	-11.4374
▁ᎠᏆᏛᏐᏅᎯ	-11.4374
▁ᏗᎨᎦᏬᏍᏗᏱ	-11.4374
▁ᏱᏂᏣᏛᏁᎮᏍᏗ	-11.4374
▁ᎠᏓᏛᏍᎪᎢ	-11.4374
▁ᎡᏦᎢᏳᎲᏍᎩ	-11.4374
ᏲᎢᏎᎮᏍᏗ	-11.4374
▁ᏣᎵᏂᎬᎬᎢ	-11.4375
▁ᏚᎵᏏᎲᏒᎩ	-11.4375
▁ᎠᏂᏍᎦᏅᎩ	-11.4375
▁ᏳᏲᎱᏒ	-11.4375
▁ᎨᏥᏍᎦᏂ	-11.4375
▁ᏯᏕᎰᏍᎨᏍᏗ	-11.4375
▁ᏥᏂᏣᎵᏍᏔᏅ	-11.4375
▁ᏚᏃᏣᎶ	-11.4375
▁ᏕᎭᏕᏲᎲᏍᎨᏍᏗ	-11.4375
ᏂᏚᏑᏰᏐ	-11.4375
ᎾᏙᎯᏳᎾᏁᏗ	-11.4375
▁ᎢᏨᎾᏄᎪᏫᏎᎸ	-11.4375
ᎶᎯᏎᏗᏱ	-11.4375
▁ᎠᏆᏚᏓᏕᏫᏒ	-11.4375
▁ᏗᎬᏩᏂᏍᏙᏗ	-11.4375
▁ᎤᏂᏨᏅ	-11.4375
▁ᎤᏁᎵᏨ	-11.4375
▁ᏙᏱᏢ	-11.4375
▁ᏂᏗᎨᏥ	-11.4375
▁ᏱᏙᎬᏛᏂᏏ	-11.4375
▁ᏧᎧᎿᏩᏗᏓᏍᏗᏱ	-11.4375
▁ᏗᏣᏠᏱᎦ	-11.4375
▁ᏦᏏᏆ	-11.4375
▁ᏧᎾᎵᏍᏗᏱ	-11.4375
ᏘᏂᏙᎵ	-11.4375
▁ᎣᎨᎵᏒ	-11.4375
▁ᏣᏛᎦᏅᎢ	-11.4375
▁ᎣᎩᎾᏖᏆᎶ	-11.4376
▁ᏗᎨᏍᎩᎥᏏᏉ	-11.4376
▁ᏱᏓᏂᏬᏂᎭ	-11.4376
▁ᏂᏨᏒᎾ	-11.4376
▁ᎠᏓᏙᎵᏍᏗᏍᎨᎢ	-11.4376
▁ᎤᎾᏜᏏᏛᎡ	-11.4376
▁ᏱᏥᏰᎸᏍᎨᏍᏗ	-11.4376
▁ᏂᎬᏂᏏᎭ	-11.4376
▁ᎠᎩᏰᎯ	-11.4376
▁ᏯᏍᎦᏅᎪᎢ	-11.4376
▁ᎤᎸᏕᏍ	-11.4376
▁ᎢᎬᏩᎵᏍᏔᏅᎯ	-11.4376
▁ᎢᎭᏛᏁᎯ	-11.4376
ᏃᎮᎵᏙᎲ	-11.4376
▁ᏗᏕᎭᎷᎨ	-11.4376
▁ᎨᏣᏛᎦᏁᎸ	-11.4376
▁ᏚᏭᎪᏔᏅ	-11.4376
▁ᎢᏧᏅᏁᏗᏱ	-11.4376
▁ᏧᏈᏯ	-11.4376
▁ᎦᏰᏥᏐᏢᏔᏅ	-11.4376
▁ᏱᎦᎵᎭ	-11.4376
▁ᏕᏧᎪᏗᏍᎨᏍᏗ	-11.4377
ᏭᏓᎴᏍ	-11.4377
▁ᏥᏦᎯᏳᏂ	-11.4377
▁ᎠᏍᏚᏟᏍᎩ	-11.4377
▁ᎢᏥᎵᏓᏍᏗᎭ	-11.4377
ᎩᏪᎡᎸᎩ	-11.4377
▁ᎢᏥᎦᎳᎭ	-11.4377
▁ᏚᎾᎵᏂᎪ	-11.4377
▁ᏱᏣᏰᎸᏎᏍᏗ	-11.4377
ᏬᎳᏕᏍ	-11.4377
▁ᏚᏂᎦᎵᏒ	-11.4377
▁ᏚᏙᎡᏍᏗ	-11.4377
▁ᏭᏯᏅᏛ	-11.4377
▁ᎣᎩᏍᏕᎵᏍᎬᎢ	-11.4377
ᎯᏳᎯᏯ	-11.4378
▁ᎤᎾᏄᎪᏫᏍᏗ	-11.4378
▁ᎠᎾᏙᎴᎰᏍᎨᏍᏗ	-11.4378
▁ᎦᏃᏗᏍᎩ	-11.4378
▁ᎢᎬᏩᏰᎸᎭ	-11.4378
▁ᎤᏂᎾᏰᏒᎩ	-11.4378
▁ᎦᏬᏂᏍᎨᏍᏗ	-11.4378
▁ᎢᏥᏍᏓᏩᏕᎨᏍᏗ	-11.4378
▁ᏱᎦᎧᎲᏍᎨᏍᏗ	-11.4378
▁ᏚᎵᏍᏓᏱᏗᏍ	-11.4378
ᎦᎨᎠᏗᏔᏍᏗ	-11.4378
▁ᏗᏆᎵᎢ	-11.4378
▁ᏚᏬᏢᏁᎢ	-11.4378
▁ᎠᏆᏕᏅᎩ	-11.4378
ᏔᏲᏏ	-11.4378
▁ᏱᎬᏩᏲᎱᏎ	-11.4378
▁ᎢᏣᎵᏍᏓᏴᎲᏍᎬᎢ	-11.4379
▁ᎡᏧᏓᎴᏍᏗ	-11.4379
ᏙᏔᏅᎩ	-11.4379
▁ᏚᏂᏪᏎᎸᎩ	-11.4379
ᏖᏍᎬᎢ	-11.4379
▁ᎤᏂᎸᏐ	-11.4379
▁ᎬᎩᏍᏓᏩᏗᏙᎯ	-11.4379
▁ᎥᏆᎸᏍᏗᏱ	-11.4379
▁ᎦᏬᏂᎭ	-11.4379
ᎯᏐᏗ	-11.4379
▁ᎨᏥᏃᎮᏍᎨᏍᏗ	-11.4379
▁ᏗᏤᎵᏛ	-11.4379
▁ᏗᏣᏓᏅᏛᎵ	-11.4379
ᏅᏔᏛᏁᎵ	-11.4379
▁ᏥᏚᏄᎪ	-11.4379
▁ᏥᏣᏓᏡᎬ	-11.4379
▁ᎢᏨᎾᏄᏫᏎᎭ	-11.4379
▁ᏚᎬᎭᎷᏰ	-11.4379
▁ᏫᏗᎨᏥ	-11.4379
▁ᏚᎾᏓᏅᏅᎩ	-11.4379
▁ᏚᎾᏄᏩᎥ	-11.4379
▁ᏚᏄᎪᏔᏅ	-11.4379
▁ᏱᏕᎫᎪᏓ	-11.4379
▁ᏯᎩᏲᎭ	-11.4379
▁ᏩᏂᎦᏛ	-11.4379
▁ᏄᏓᏅᎦᎸᎾ	-11.4379
ᏓᏴᏍᏕᏍᏗᏍᎩ	-11.4379
▁ᏳᏂᏴ	-11.4379
▁ᎢᏣᏓᏄᎸᏗ	-11.438
ᏓᎾᏣᏅᏗᏍᎨᏍᏗ	-11.438
▁ᎤᏂᏍᏓᏩᏕᏅ	-11.438
ᎵᎪᏁᎸᎾ	-11.438
▁ᏚᎵᏍᎪᎸᏓᏁᎴ	-11.438
▁ᏗᎨᏥᎢᏍᏗᏱ	-11.438
▁ᎢᏣᏓᏙᎵᏣ	-11.438
ᎤᏃᎯᏳᏓᏁᎯ	-11.438
▁ᎤᎾᏘᏃᎴ	-11.438
▁ᏚᏓᏬᎥ	-11.438
▁ᎬᏩᏍᏕᎵᏍᎩ	-11.438
▁ᎤᏂᏍᏓᏩᏛᏒᎩ	-11.438
▁ᎯᏃᎮᏍᎨᏍᏗ	-11.438
▁ᎤᎾᏞᏛ	-11.438
▁ᎡᏥᎥᏏ	-11.438
▁ᎤᏓᎪᎾᏛ	-11.438
▁ᏂᎦᏛᏁᎵᏙᎸᎢ	-11.438
ᏥᏲᏕᏍ	-11.438
▁ᎤᎶᏐᏂᏗ	-11.4381
▁ᎫᏩ	-11.4381
▁ᏛᎨᏥ	-11.4381
▁ᏱᏂᏨᎦ	-11.4381
▁ᏄᏜᏏᏛᎡᎲᎾ	-11.4381
▁ᏓᏘᏁᎮᏍᏗ	-11.4381
▁ᎤᎩᏐᏅ	-11.4381
▁ᏓᎾᏤᎨᏍᏗᏉ	-11.4381
ᏁᏟᏴᏍᏓ	-11.4381
▁ᎠᏂᏍᎦᏅᎬ	-11.4381
▁ᏥᏓᎾᎵᏍᎪᎸᏗᏍᎨ	-11.4381
▁ᏱᎦᎾᏄᎪᎦ	-11.4381
▁ᎦᏲᎩᏐᏢ	-11.4381
▁ᏕᎯᎸᏉᏕᏍᏗ	-11.4381
▁ᎪᏢᏅ	-11.4382
▁ᎤᏍᏕᏅᏨ	-11.4382
▁ᎠᏂᏍᎦᏰᎬᏍᏓ	-11.4382
▁ᎤᏄᎪᎩ	-11.4382
▁ᎬᏩᏂᏍᎦᎩ	-11.4382
▁ᎢᏨᏬᏁᏗᎭ	-11.4382
▁ᎯᏁᎨᏍᏗ	-11.4382
▁ᏂᎦᏍᏕᏍᏗ	-11.4382
▁ᎠᏂᏍᏙᏍᎨᏍᏗ	-11.4382
▁ᎤᏂᏯᏅᎲᎩ	-11.4382
▁ᏗᏥᎰᎵ	-11.4382
▁ᎢᏤᏲᏗᏱ	-11.4382
▁ᎠᎾᏕᎶᏆᏍ	-11.4382
▁ᎠᏇᏅᏍᏗᏱ	-11.4382
ᏍᏚᎢᎡᏗᏱ	-11.4383
▁ᎠᎪᎲᏍᏙᏗᏱ	-11.4383
▁ᏓᏂᏁᎲᎩ	-11.4383
▁ᎠᎵᏰᎵ	-11.4383
▁ᎠᏂᎬᎭᎷᏯᏍ	-11.4383
▁ᏗᎩᎧᎿᏩᏛᏍᏗ	-11.4383
▁ᎠᎾᏢᏈᏍ	-11.4383
▁ᎢᏥᎦᏙᎥᏒ	-11.4383
▁ᎠᏲᎱᏍᎬᎢ	-11.4383
▁ᏙᎩᏯᏪᏥᏙ	-11.4383
▁ᏂᏚᎵᏍᏔᏅᎩ	-11.4383
▁ᎡᎩᎻ	-11.4383
▁ᏗᏂᏙᎩ	-11.4383
▁ᏧᏙᎴᎰᏎ	-11.4384
▁ᏥᏙᎬᎢ	-11.4384
▁ᏕᎬᏭᎪ	-11.4384
▁ᏱᏂᏨᏁᎸ	-11.4384
▁ᎢᏨᎥᏏ	-11.4384
▁ᏦᏤᎭ	-11.4384
▁ᎬᏩᏓᏅᏬᏗ	-11.4384
ᏯᏪᏐᎵ	-11.4384
▁ᏯᏆᏚ	-11.4384
ᎵᏍᏈᏗ	-11.4384
▁ᏕᏥᎾᏫᏍ	-11.4384
▁ᏣᎵᏍᏓᏴᏗᏱ	-11.4384
▁ᏱᏙᎩᎸᏫᏍᏓᏁᎭ	-11.4384
▁ᎠᏓᏛᏂᏗᏍᎩ	-11.4384
▁ᎣᏍᎦᏅᏨᎢ	-11.4384
ᎵᎪᏅᏛ	-11.4384
▁ᎠᏉᏪᎳᏅᎯ	-11.4384
ᏣᎪᏩᏛᏗᏱ	-11.4384
ᎸᎾᏉ	-11.4385
▁ᎤᎾᎦᏌᏯᏍᏙᎢ	-11.4385
▁ᎠᎾᎵᏍᎦᏍᏙᏗᏍᎨᏍᏗ	-11.4385
▁ᏍᎩᎪᏩᏛᏗᏱ	-11.4385
▁ᏫᎨᏣᏲᎵᎦ	-11.4385
▁ᏗᏥᏍᏓᏩᏕᎩ	-11.4385
▁ᏣᏁᏤᎸᎯ	-11.4385
ᎪᏫᏒ	-11.4385
▁ᏥᏕᏥᏴ	-11.4385
ᏳᎪᏓᏁᏗᏱ	-11.4386
▁ᏧᏂᏲᎱᏎᎸᎯ	-11.4386
▁ᏥᎦᎧᎭ	-11.4386
▁ᏓᏂᎧᎿᏩᏕᎪ	-11.4386
▁ᏥᏕᏥᏂᏴ	-11.4386
▁ᎠᎦᎴᏗ	-11.4386
▁ᏓᎾᏓᏱᎵᏙᎲ	-11.4386
▁ᎦᎬᏩᏂᏐᏢ	-11.4386
▁ᎾᎩᏴᏍᏗᏱ	-11.4386
▁ᏚᏪᏯ	-11.4386
▁ᎤᎷᏥᏗᏒ	-11.4386
▁ᎾᎾᏓᏛᏍᎬᎾ	-11.4386
▁ᏍᏆᏛᏅᎢᏍᏓᏁᎸ	-11.4386
▁ᏚᏍᏚᎢᏎ	-11.4387
▁ᏥᏂᏪᎭ	-11.4387
▁ᏕᏥᎦᏘᏴ	-11.4387
ᏯᏛᏁᎵ	-11.4387
▁ᎣᎬᏕ	-11.4387
▁ᎣᎦᏣᎢ	-11.4387
▁ᏚᏃᎸᏒᎩ	-11.4387
▁ᏧᏬᏑᎴ	-11.4387
▁ᏕᎨᏥᏰᎸ	-11.4388
ᎾᏍᏆᎶᏍ	-11.4388
▁ᏑᎾᎴᎢᏳ	-11.4388
▁ᏗᏯᏖ	-11.4388
▁ᏁᏪᏒ	-11.4388
ᏛᎾᏨᎯ	-11.4388
▁ᏥᏥᎩᎵᏲᎦ	-11.4388
▁ᎦᏥᏲᏍᏙᏓᏁᏗ	-11.4388
▁ᏱᏚᏃᏕ	-11.4388
▁ᏗᎩᎡᏗᏱ	-11.4388
▁ᏥᏥᏃᎮᏍᎬ	-11.4388
▁ᎢᏣᎢᏒᎢ	-11.4388
▁ᎣᎦᏅᏗᏱ	-11.4388
▁ᎠᏥᎦᏘᏗᏍᏛ	-11.4388
▁ᎤᎾᏓᎵᏓᏍᏗ	-11.4388
▁ᎤᎵᏍᎦᏂᏍᏛ	-11.4389
▁ᎤᎬᏫᏩ	-11.4389
▁ᎤᏂᎾᏄᎪᎢᏍᏗ	-11.4389
▁ᎨᏥᎨᏳᎭ	-11.4389
▁ᎤᏛᎯᏍᏗᏱ	-11.4389
ᎵᏂᎪᎯᏍᏙᏗᏱ	-11.4389
▁ᏭᏂᏃᏁ	-11.4389
▁ᏥᎧᏁᎦ	-11.4389
ᏐᎴᏍᏗ	-11.4389
▁ᎢᎩᏯᎥᎢ	-11.4389
▁ᏗᏛᏙᏗᏱ	-11.4389
▁ᏚᏫᏢ	-11.439
▁ᏥᏅᏩᏍᏙᎢ	-11.439
▁ᎠᎩᏍᏕᎸᏛ	-11.439
▁ᎠᏓᏅᎦᎸᏗ	-11.439
▁ᎨᏥᏐᏅᎢᏍᏔᏅᎯ	-11.439
ᏂᏉᏘ	-11.439
▁ᏧᏲᎯᏍᏗᏱ	-11.439
▁ᏱᏥᏍᎦ	-11.439
▁ᎠᎦᏔᎾᎥᎢ	-11.439
▁ᏗᏥᏍᎪᎵ	-11.439
▁ᎤᏲᎱᎯᏎᎸᎯ	-11.439
▁ᏥᎬᏇᎯᏍᏗᎭ	-11.439
▁ᎣᎨᏅ	-11.439
▁ᏂᏓᏍᏆ	-11.439
▁ᏯᏗᏔᏍᎨᎢ	-11.439
ᏫᏚᏘᏅᏍᏔᏅᎩ	-11.4391
▁ᏛᎦᏛᎩ	-11.4391
▁ᎠᏂᏃᏔᏅᎥ	-11.4391
▁ᏚᏂᏅᏒᎩ	-11.4391
▁ᏥᏓᏂᏰᎲᎩ	-11.4391
▁ᏱᏂᎦᏪᎭ	-11.4391
▁ᏣᏴᏍᏗᏱ	-11.4391
▁ᏄᎵᏍᏔᏂᏙ	-11.4391
▁ᏧᏂᎵᎡᎾ	-11.4391
▁ᎣᎩᏅᏒ	-11.4391
▁ᏥᎦᏛᎦ	-11.4391
▁ᏓᏗᏯ	-11.4392
▁ᏣᏍᏆᏂᎪᏕᏍᏗ	-11.4392
▁ᎤᎾᎴᏲᎥ	-11.4392
▁ᏚᏅᎵᏰᎥᎩ	-11.4392
▁ᏧᏍᎦᏃ	-11.4392
▁ᎣᏌᏯ	-11.4392
▁ᎬᏩᏃᎴᎢ	-11.4392
▁ᎢᏳᏓᎵᏍᏓᏁᏗ	-11.4392
ᎯᎴᏴᏍ	-11.4392
▁ᏭᏘᏅᏍᏔᏅᎩ	-11.4392
▁ᏩᏥᏯᏅᎲᎩ	-11.4392
▁ᏗᏥᏁᎯ	-11.4392
▁ᏥᏲᎢᏳᎲᏍ	-11.4392
▁ᎠᎩᏅᏏᏓᏍᏗ	-11.4392
▁ᏫᎨᏥᏲᎵ	-11.4393
▁ᎤᎾᏕᏯᏙᏗᏍᎬ	-11.4393
▁ᏣᏚᎵᏍᎨᏍᏗ	-11.4393
▁ᏴᏗ	-11.4394
▁ᎤᏄᏬᏍᏛᎩ	-11.4394
▁ᏱᏦᎯᏳᎲᏍᎦ	-11.4394
ᎪᏢᎾᏁᎴᎢ	-11.4394
▁ᎨᏥᏃᎮᏍᎬᎢ	-11.4394
▁ᎠᎾᏓᏃᎮᎵᏙᎯ	-11.4394
▁ᏥᏓᏓᏬᏍᎬᎩ	-11.4394
▁ᏚᏂᎧᏅ	-11.4394
▁ᏧᏍᏆᏃᏴᎪ	-11.4394
▁ᎠᏂᏅᏜ	-11.4394
▁ᏂᎦᎵᏍᏔᏂᎦ	-11.4394
ᏟᎶᏛ	-11.4395
ᏓᏥᏯᎧᏂ	-11.4395
▁ᏳᏍᏆᏂᎪᏗ	-11.4395
▁ᏓᏍᏚᎲᎩ	-11.4395
▁ᎡᏍᏗ	-11.4395
▁ᏳᏁᏤᎢ	-11.4395
ᏚᏩᏍᎦᎳ	-11.4395
▁ᏧᎴᏙᏗᏱ	-11.4395
▁ᎠᎵᏃᎯᏯ	-11.4395
▁ᎠᏖᎸᏅᎯ	-11.4395
▁ᏚᏬᎵ	-11.4395
▁ᎥᏆᎸᎥᎢ	-11.4395
▁ᎠᏂᏯᏙᎯᎲᎢ	-11.4395
▁ᎤᏪᏲᏓᏛᎢ	-11.4396
▁ᏕᏥᎦᎿᏩᏗᏒᎢ	-11.4396
▁ᎤᏍᎦᏅᏥᏙᎸᎢ	-11.4396
▁ᏓᏐᏴᎢ	-11.4396
▁ᎤᎵᏍᎪᎸᏔᏁᎢ	-11.4396
▁ᎢᏲᎦᏛᏁᏗ	-11.4396
▁ᎤᏯᎣᎢ	-11.4396
ᏃᎲᎵ	-11.4396
▁ᎠᎩᏍᏆᎸᎡ	-11.4396
▁ᎠᎪᏢᎾᏁᎸᎯ	-11.4396
▁ᏧᏂᎧᎿᏩᏛᏍᏗᏱ	-11.4396
▁ᏗᏄᎪᏗᏍᎩᏱ	-11.4397
▁ᎣᏤᏙᎲᎢ	-11.4397
▁ᎠᏃᎯᏳᎲᏍᎦ	-11.4397
▁ᎢᏨᏰᎵᏎᎭ	-11.4397
▁ᏐᎵ	-11.4397
▁ᎦᎵᎡᎵᎬᎢ	-11.4397
▁ᏕᎦᏚᏓᏕᏫᏒᏰᏃ	-11.4397
▁ᏥᏂᎦᏪᎠ	-11.4397
ᏑᎴᎥᎯ	-11.4398
▁ᎢᏥᏂᏆᏘᎮᏍᏗ	-11.4398
▁ᎨᏥᏍᎦᏨᎯ	-11.4398
ᎾᏂᎥᎩ	-11.4398
▁ᏓᏩᏛᎯ	-11.4398
▁ᎣᎩᏇᏓᎸ	-11.4398
▁ᎠᎾᏓᏙᎵᏍᏓᏁᎲ	-11.4398
▁ᏱᏙᏥ	-11.4398
ᎪᏪᎸ	-11.4398
▁ᎢᎪᏢᏅᎯ	-11.4398
▁ᎢᏧᏩᏁᎸᎯ	-11.4398
▁ᎠᏆᏎᎮᎲ	-11.4398
▁ᎠᎾᏗᏍᎩ	-11.4398
ᎨᏣᏡᏗᎭ	-11.4399
▁ᎠᎵᏍᏓᏴᎲᏍᎨᏍᏗ	-11.4399
▁ᎤᏍᏗᏱᏛ	-11.4399
▁ᏚᎾᏄᎪᏫᏎᎢ	-11.4399
▁ᎤᎾᏠᏤᏉ	-11.4399
▁ᎢᏥᎪᎲᎭ	-11.4399
▁ᏱᎪᏪᎳ	-11.4399
▁ᎠᏥᏃᎮᎸ	-11.4399
▁ᎦᏅᏁᎮᏍᏗ	-11.4399
▁ᏦᎩᎦᏴᎵᎨ	-11.4399
▁ᎤᏫᏯ	-11.4399
▁ᎢᎩᏍᏕᎵᏍᎬᎢ	-11.44
ᏄᏬᎯᏍᏗᏍᎩ	-11.44
▁ᏱᏁᎦ	-11.44
▁ᏓᎾᏓᏚ	-11.44
ᏁᎷᎩᎡ	-11.44
▁ᏲᎦᏚᎵ	-11.44
▁ᎤᎾᏛᎪᏗ	-11.44
▁ᎤᏁᏍᎨᎲᎢ	-11.44
▁ᎤᏁᎷᎬᎢ	-11.44
▁ᎢᏣᏛᎿᏕᎩ	-11.44
▁ᏧᏓᏅᏖ	-11.44
▁ᏥᏓᎦᎴᏔᏁ	-11.44
▁ᏤᏏᏂ	-11.4401
▁ᎨᏈᎵ	-11.4401
▁ᎤᏍᏓᏱᏛ	-11.4401
▁ᎢᏥᎷᏤᏗ	-11.4401
▁ᏥᏗᎦᏔᎭ	-11.4401
▁ᎢᏣᏓᎳ	-11.4401
▁ᎢᏯᏉᎵᏍ	-11.4401
▁ᎠᏂᏴᎯᎭ	-11.4401
▁ᎭᎵᎮᎵᎩ	-11.4401
ᎦᏌᏬᎢᎲᎢ	-11.4401
▁ᏧᎾᎵᏂ	-11.4402
▁ᎠᎪᎲᏍᏙᏗ	-11.4402
▁ᎤᏂᎩᏍᏗ	-11.4402
▁ᎤᏠᏯᏍᏙᏗᏱ	-11.4402
▁ᏗᎨᏨ	-11.4402
▁ᎤᎦᏌᏯᏍᏗ	-11.4402
▁ᎨᎵᏍᎨᏍᏗ	-11.4402
ᏛᏓᏍᏓᏁᎮ	-11.4402
ᏂᏌᏅᎯ	-11.4402
▁ᎤᏍᎦᎸᎩ	-11.4402
▁ᏧᏕᏁᎢ	-11.4402
▁ᎤᏬᏂᏎᎢ	-11.4402
ᎾᎯᏍᏗᎭ	-11.4403
▁ᏚᏂᏲᎯᏎᎸᎩ	-11.4403
ᏎᎪᎩᏎᎢ	-11.4403
▁ᎢᎦᏘᏰᏗ	-11.4403
▁ᎪᎵᎬᎩ	-11.4403
▁ᎠᏆᏙᎴᎰᏒ	-11.4404
▁ᎢᏨᎨᏳᏒᎢ	-11.4404
ᎾᏆᎵᏍᏓᏏ	-11.4404
▁ᎠᏓᏠᏍᏗ	-11.4404
▁ᏧᏲᎯᏎᎸᎯ	-11.4404
▁ᏗᎨᎫᎪᏓᏁᏗᏱ	-11.4405
▁ᎠᏅᏗᏍᎩ	-11.4405
ᏝᏁᎢ	-11.4405
▁ᎦᎶᏁᏛᎠᏡᏗᏍᎩ	-11.4405
▁ᎢᎨᏣᏛᏁᏗᏱ	-11.4405
▁ᎬᏩᏔᏲᏎᎯ	-11.4405
▁ᏫᎲᎦ	-11.4406
▁ᎬᏩᏡᏗᏍᎬᎢ	-11.4406
ᏓᎧᏃᎮᎵ	-11.4406
▁ᎠᏂᏁᎪ	-11.4406
▁ᏳᎾᏚᎵᎭ	-11.4406
ᏔᏕᎩᏍᎨ	-11.4406
ᏋᏂᏍᏗᏱ	-11.4406
▁ᎾᏋᏁᎭ	-11.4407
▁ᎢᎩᎩᎵᏲᏤ	-11.4407
▁ᏥᏥᎷᎩ	-11.4407
▁ᏧᏂᏲᎱᎯᏍᏗᏱ	-11.4407
▁ᎠᏲᎱᏍᎨᎢ	-11.4407
▁ᎥᎩᏃᏁᎸ	-11.4407
▁ᎤᏂᎪᏩᏛᏗ	-11.4407
▁ᏓᏳᏙ	-11.4407
▁ᎢᏥᎪᎵᏰᏍᎨᏍᏗ	-11.4407
▁ᏚᎵᏥᏙᏁᎴ	-11.4407
▁ᎤᏅᏕᏨ	-11.4407
▁ᏚᏂᎳᏫᏨᎩ	-11.4408
▁ᎤᏚᏓᏕᏫᏒ	-11.4408
▁ᏗᏥᏅᏍᏓᏕᎸᎩ	-11.4408
ᏗᏍᎦᎳᏅᎩ	-11.4408
▁ᎠᎾᎵᏍᏓᏴᎲᏍᎩ	-11.4408
▁ᏕᏣᏓᏙᎯᏳ	-11.4408
ᏪᏎᎢ	-11.4408
▁ᏥᏥᏰᎸ	-11.4408
▁ᎠᏥᏕᎸᎩ	-11.4409
ᎸᎥᏍᎦ	-11.4409
▁ᎠᎩᏰᎸᏒᎩ	-11.4409
▁ᎤᏍᎦᎢᏍᏗ	-11.4409
ᏓᏦᎳ	-11.4409
▁ᎤᏓᏅᏘᏌᏅ	-11.441
ᎬᏍᎪᎸᏗᏱ	-11.441
▁ᎧᏃᎯᏴ	-11.441
ᎦᏰᏥᏐᏢᏔᏂ	-11.441
▁ᏕᎨᎦᏬᎥ	-11.441
▁ᎤᎸᏉᏔᏅᎯ	-11.441
ᏕᏘᏱ	-11.441
ᎩᏲᎱᏎ	-11.441
ᏚᏲᏐ	-11.441
▁ᎤᏟᎶᏍᏗ	-11.441
▁ᏥᏄᎾᎵᏍᏔᏅ	-11.4411
▁ᎣᎦᏙᎴᎰᏒ	-11.4411
▁ᏕᏥᎳᏫᎩ	-11.4411
▁ᎬᏩᏛᎦᏁᎸᎯ	-11.4411
▁ᏅᏓᏲ	-11.4411
▁ᏧᏩᏛᏔᏅ	-11.4411
▁ᏱᎦᏓᏅ	-11.4412
▁ᎤᏛᎾᏗᎦᎳᏫᎢᏍᏗᏱ	-11.4412
ᏠᏱᎭ	-11.4412
▁ᎠᎩᏯᎠ	-11.4413
▁ᏗᎵᏰᎢᎸᏍᏗᏍ	-11.4413
▁ᎢᏣᏓᏙ	-11.4413
▁ᎠᏯᏂᎭ	-11.4413
▁ᎡᎵᏍᎨᎢ	-11.4413
▁ᎤᏪᎧᎯᏴ	-11.4413
▁ᎤᎵᎶᎲᏍᎩ	-11.4413
▁ᎤᏣᏁᎢ	-11.4414
▁ᏥᏨᏲᏪᎳᏁᎭ	-11.4414
▁ᏚᎬᎭᎷᏴ	-11.4414
▁ᎤᏁᎢᏍᏔᏅᎩ	-11.4415
▁ᎠᏂᏲᏍᏗᏍᎩ	-11.4415
ᎬᏩᎪᏁᎶᎯᏎᎸᎩ	-11.4415
▁ᎦᎶᏐᎲᏍᎦ	-11.4415
▁ᎠᏗᏔᏍᎦ	-11.4415
▁ᎤᎴᏂᏙᎸ	-11.4415
▁ᏧᏓᏂᎸᎢᏍᏗ	-11.4415
▁ᎬᏩᎸᏉᏙᏗᏱ	-11.4415
ᏤᎵᏎᏗ	-11.4415
▁ᎪᏪᎶᏗ	-11.4415
▁ᏗᏣᏓᎨᏳᏗᏱ	-11.4415
ᎵᏓᏍᏗᏍᎬᎢ	-11.4415
▁ᎤᏛᏕᏍᏗ	-11.4415
▁ᎣᎩᏃᎮᏍᎬᎢ	-11.4415
▁ᎤᏂᎦᏘᏯ	-11.4416
▁ᎤᏂᎪᏗᏱ	-11.4416
▁ᏥᏕᎨᎦ	-11.4417
▁ᏣᎪᏩᏘᎭ	-11.4417
▁ᏂᎦᎷ	-11.4417
▁ᎤᎾᏛᎦᏁᎸᎯ	-11.4417
▁ᏗᏍᎩᏯᏓᏂᎸᎩ	-11.4417
▁ᏓᏍᏆᏂᎪᏗ	-11.4417
ᏘᏰᏗ	-11.4418
▁ᎤᏂᏯᎸ	-11.4418
▁ᎠᎦᏅᏙ	-11.4418
▁ᎢᏗᎬᏁᎯ	-11.4418
▁ᎤᏂᏅᏏᏙᎯ	-11.4418
ᎵᏓᏍᏗᏍᎩ	-11.4418
ᎩᎵᏲᎢᏍᏙᏗᏱ	-11.4418
▁ᎾᏆᏛᎿᏕᎬ	-11.4419
▁ᏓᏍᏚᏛ	-11.4419
▁ᏓᏠᏱᎲᎩ	-11.4419
▁ᏱᏥᎪᏩᏘᎭ	-11.4419
▁ᏫᏚᏯ	-11.442
▁ᎤᏴᏍᏕᏍᎩ	-11.442
▁ᎠᎵᏖᎸᎲᏍᎬ	-11.442
ᏂᏁᎫᏥᏛ	-11.442
▁ᏂᏣᏛᎦ	-11.442
ᏠᎯᏍᏛᎢ	-11.4421
ᎩᎶᏁᎥ	-11.4421
▁ᏥᎬᏉᎯᏳᎲᏍ	-11.4421
▁ᎠᎩᎵᏲᎦ	-11.4421
▁ᏦᏓᎻ	-11.4421
ᏳᎵᏌᎳᏓᏅ	-11.4421
▁ᏫᏂᏣ	-11.4422
▁ᎠᏆᏛᏁᏗᏱ	-11.4422
▁ᏥᏰᎮᏍᏗ	-11.4422
▁ᎠᏍᏚᎲᏍᎩ	-11.4422
▁ᎠᏥᎸᏉᏓ	-11.4423
▁ᎪᏢᏛᎩ	-11.4423
▁ᎤᏲᎱᏏᏕᎾ	-11.4423
▁ᎩᎦᎨᎠᏗᏔᏍᏗ	-11.4423
▁ᎠᎪᏎᎲᎩ	-11.4423
▁ᏧᏬᎯᏳᏁᎢ	-11.4423
ᏚᎳᏕ	-11.4423
▁ᎬᏩᏯᎢ	-11.4424
▁ᏕᎯᏯ	-11.4424
▁ᏕᏥᎬᏍᎪᎸᎥᏍ	-11.4424
▁ᏚᎷᎬᎩ	-11.4424
▁ᎤᎾᎵᏒᎩ	-11.4425
ᎧᎯᏰ	-11.4425
▁ᎢᎤᏁᏨ	-11.4425
▁ᏂᏗᏨ	-11.4425
▁ᏄᏁᎲᎾ	-11.4425
▁ᎥᏆᏓᏓᎴ	-11.4425
▁ᎨᏥᏁᏤᎸᎯ	-11.4425
ᎪᎳᏗᏴᏗᏱ	-11.4426
▁ᎢᏣᏓᏁᎮᏍᏗ	-11.4426
▁ᎤᎾᏂᏢᏗᏱ	-11.4426
▁ᎷᏆ	-11.4426
▁ᎠᎾᎵᏍᏓᏴᎲᏍᎪᎢ	-11.4426
▁ᏤᏧᎪᏓᏁ	-11.4426
▁ᎠᏛᎪᏗᏱ	-11.4427
▁ᏱᏂᎦᏔᎮ	-11.4427
▁ᏄᏩᏂᏌᏅ	-11.4427
ᏤᎳᏗᏍᏗᏍᎬᎢ	-11.4428
▁ᎣᎩᏲᏍᏙ	-11.4428
▁ᏂᎨᏥᏪᏎᎲ	-11.4428
▁ᏗᎩᎾᏫᏱ	-11.4428
▁ᏚᏌᎯᎸ	-11.4429
▁ᎤᎾᏎᎸ	-11.4429
▁ᏧᏭᎪᏙᏗᏱ	-11.443
ᏍᎦᏅᏨᎾ	-11.443
ᎩᎦᎵᏍᏓᏗᏍᎬᎩ	-11.443
▁ᏨᏓᏣ	-11.443
▁ᏂᏥᏪᏍᎨᏍᏗ	-11.443
▁ᎤᏓᎵᏁᎯᏕ	-11.4431
▁ᏕᏣᎴ	-11.4431
▁ᎠᏂᏑᎵᎪ	-11.4431
▁ᎤᏁᎢᏍᏔᏅᎯ	-11.4432
▁ᏂᏣᎵᏍᏓᏁᎲᎢ	-11.4432
▁ᏗᎨᏥᏍᏚᏁᏗ	-11.4432
▁ᎤᎵᏍᏓᏛ	-11.4432
▁ᏕᎧᏁᏤᎭ	-11.4432
▁ᏕᏣᏓᏂᎸᏨᎭ	-11.4432
▁ᎪᎯᏳᏍᎩ	-11.4432
▁ᏚᏂᎳᏫᏤ	-11.4432
▁ᏥᎦᎷᎪᎢ	-11.4432
▁ᏂᏓᏙᏓᏈᏒᎢ	-11.4432
▁ᎢᎬᏴ	-11.4432
▁ᎠᏂᎦᏔᎿᎥ	-11.4432
▁ᎨᏙᎮᏍᏗ	-11.4433
▁ᏚᏂᎳᏫᏤᎢ	-11.4433
▁ᎤᎦᎾᏏᏍᎩ	-11.4433
▁ᎨᏣᏡᏗᏍᎬᎢ	-11.4433
▁ᏄᏃᎯ	-11.4433
▁ᎤᏍᏓᏱᏕ	-11.4433
▁ᏚᏄᎪᏔᏅᎢ	-11.4433
▁ᎤᏚᏓᏕᏫᏒᎢ	-11.4434
▁ᎬᏁᏤᎲ	-11.4434
▁ᎯᎨᏳᎢ	-11.4434
ᏍᏓᏩᏗᏙᎭ	-11.4434
▁ᎠᎦᎸᎢᏛ	-11.4434
ᎩᎳᎾᎳᏗᏍ	-11.4435
▁ᏥᎩᎷᏤᎸ	-11.4437
▁ᎠᏛᏅᎢᏍᏗ	-11.4437
▁ᎤᎸᎲᎩ	-11.4437
▁ᎠᏥᏰᎸᎾᏁᎴᎢ	-11.4437
▁ᎢᏥᏍᏕᎸᏗᏱ	-11.4437
▁ᎤᎾᏚᎵᏍᎪᎢ	-11.4437
▁ᏂᏨᏯ	-11.4437
▁ᎤᎾᎵᏥᏙᏂ	-11.4437
ᏌᏆᎴᎸ	-11.4438
▁ᏗᏙᎳᏅᏍᏗ	-11.4438
▁ᎤᏪᏅᏍᏗ	-11.4438
▁ᏚᏅᏒᎩ	-11.4438
▁ᏧᎳᏑᎶᎩ	-11.4438
ᎵᏍᎪᎸᏗᏍᎨᏍᏗ	-11.4439
ᏦᏪᎳᏁᎸ	-11.4439
▁ᎠᎪᏩᏘᏍᎪᎢ	-11.444
▁ᎠᏓᎵᏁᎯ	-11.444
▁ᎠᏓᏙᎵᏍᏗᏍᎨᏍᏗ	-11.444
▁ᏣᏡᏗᏍᎩ	-11.444
▁ᏩᏠᎠ	-11.444
▁ᏧᏓᏂᎸᏨᎯ	-11.444
ᏗᎧᏃ	-11.444
▁ᎨᏥᎨᏳᎢ	-11.444
▁ᎾᏂᏪ	-11.4441
▁ᏚᏑᏰᏎᎢ	-11.4441
▁ᎤᏍᏗᏰᏔᏁᎢ	-11.4441
ᏗᎦᎶ	-11.4441
▁ᎢᏤᏯᏙᏤᎮᏍᏗ	-11.4442
▁ᎤᏂᏂᎬᏎᎲᎢ	-11.4442
▁ᎤᎩᏥ	-11.4442
▁ᎤᏙᎴᎱ	-11.4442
▁ᎠᏉᎸᎢ	-11.4442
▁ᎠᏆᏓᏅᏙᎩᎯ	-11.4443
ᏁᏟᏴᏏ	-11.4443
▁ᎢᏣᏛᏁᏗ	-11.4443
▁ᎠᏂᎲᎦ	-11.4444
ᎩᏯᏅᏛ	-11.4444
▁ᎤᏜᏏᏛᎡ	-11.4444
▁ᏥᏂᎨᏎᎢ	-11.4444
ᎦᏥᏴᏗᏍᎬ	-11.4444
▁ᎤᎵᏘ	-11.4444
▁ᎣᏥᏃᎮᏍᎬᎢ	-11.4445
▁ᎠᎦᏌᏯᏍᏙᏗ	-11.4445
▁ᏥᏍᏚᏂᎩᏍᏗᎯ	-11.4445
ᏥᏍᎦᎢᎭ	-11.4445
▁ᏔᏈ	-11.4446
▁ᎤᏁᏍᎨᎲᎯ	-11.4446
▁ᏱᏍᏆ	-11.4446
▁ᏅᏗᎦ	-11.4446
▁ᏴᎬᎩᎷᏥ	-11.4446
▁ᏚᎾᎦᎴᏅᎲ	-11.4446
▁ᎤᎾᏖ	-11.4447
ᎦᏢᏈ	-11.4447
▁ᏥᏂᏕᎬᏁᎰ	-11.4447
▁ᎤᏂᎭᎷᎬ	-11.4447
▁ᏕᎭᏘ	-11.4447
▁ᏙᏥᏍᏗᏰᏗ	-11.4447
▁ᎠᎩᏆ	-11.4448
ᏛᏛᎮᎸᎥᏍ	-11.4448
ᎦᏂᎭ	-11.4448
▁ᎢᏂᏯ	-11.4448
ᏓᏴᏍᏕᏍᏗ	-11.4448
ᏕᏥᎩᎳᎾᎳᏗᏍ	-11.4448
▁ᎤᎾᏤ	-11.4448
▁ᎠᎰᎱ	-11.4448
▁ᏓᎾᏠᏱᎮ	-11.4449
ᏥᏁᎸᎩ	-11.4449
ᏲᎱᏎᎸᎯ	-11.4449
ᏓᏂᏰᎲᎩ	-11.445
▁ᏚᏪᎭ	-11.445
▁ᎬᎦᏔᎭ	-11.4451
▁ᏗᏥᎧ	-11.4451
▁ᏴᎬᏛ	-11.4451
▁ᏥᎪᏎᎭ	-11.4451
▁ᏂᎨᎬᏁᎸᎢ	-11.4452
▁ᏱᏣᏤ	-11.4452
ᏚᏂᏢᎬ	-11.4452
▁ᎤᏩᏎᎢ	-11.4453
▁ᎢᏣᏓᏅᎦᎸᏛ	-11.4453
▁ᎠᎵᏍᏓᏴᎲᏍᎬ	-11.4453
▁ᎤᎸᏁᎢ	-11.4453
▁ᏱᏣᎵᏍᎩ	-11.4454
▁ᎡᎩᏁᎸᎯ	-11.4454
▁ᏘᏅᏍᏓ	-11.4454
▁ᎤᏠ	-11.4454
▁ᏥᏰᎸᏅ	-11.4455
▁ᎢᎦᏕᏗᏱ	-11.4455
▁ᎤᎾᏚᎵᎭ	-11.4455
▁ᏄᏬᏚᏒ	-11.4455
▁ᎤᏂᎿᎸᏨ	-11.4455
▁ᎠᏍᎫᏕᏍᏗᏱ	-11.4456
▁ᎾᏆᎵᏍᏔᏅᎩ	-11.4456
▁ᎤᏚᎵᏍᎩ	-11.4456
▁ᎤᏢᎦ	-11.4456
▁ᎥᏆᎫᏴᎡ	-11.4456
▁ᏓᏘ	-11.4457
▁ᏱᏣᏁ	-11.4457
▁ᏄᏓᎵ	-11.4458
ᏗᏕᎦ	-11.4458
▁ᎠᎩᏍᏛᏗ	-11.4459
▁ᎤᎾᏂᎩᏎ	-11.4459
▁ᎠᏓᎯᏍᏗᏱ	-11.4459
▁ᎮᎵᏍᎬ	-11.4459
▁ᏥᏕᎯᏳᎪᏓᏁ	-11.4459
ᏎᎪᎩᏍᏗ	-11.4459
ᏕᎸᎲ	-11.446
▁ᏧᏬᎪᏓᏁ	-11.446
▁ᏚᏂᏁᏟᏴᏒ	-11.446
▁ᎬᏔᏂᏓᏍᏗ	-11.4461
▁ᏳᎾᏓᏅ	-11.4461
▁ᎠᏎᎪᎩᏍ	-11.4462
ᏓᏂᏟᏍᏗᏍᎪᎢ	-11.4462
▁ᎡᏥᎦᏔᎭ	-11.4462
▁ᎤᎾᎵᏎᎢ	-11.4462
▁ᎤᎬᏩᎴᎢ	-11.4462
▁ᏧᏩᏒ	-11.4463
▁ᎢᏥᏙᎾᎥ	-11.4463
▁ᎤᏥᏃ	-11.4463
▁ᎤᎾᏚᎵᏍᎨᎢ	-11.4463
▁ᎤᏬᏂᏒᎢ	-11.4464
▁ᏃᏨᏁᎰ	-11.4464
▁ᎤᏓᏑᏴᎩ	-11.4464
▁ᏅᏓᏨ	-11.4464
▁ᏓᏛᏍᎬᎢ	-11.4464
ᎾᎵᏍᏓᏁᏗ	-11.4464
ᎧᏲᏙ	-11.4465
▁ᏧᏓᎴᏁ	-11.4465
▁ᏓᎾᎵᏍᏛ	-11.4465
▁ᎤᏂᏔᎳᏬ	-11.4465
▁ᎤᎾᏓᏅᏖᏛ	-11.4465
ᏲᏎᎭ	-11.4466
▁ᎣᏣᏓᏙᎵᏍᏓᏁ	-11.4466
▁ᎢᏥᏲᎢ	-11.4466
▁ᎤᏭ	-11.4467
ᏴᎵᏎ	-11.4467
▁ᏚᏂᎸᏫᏍᏓᏁᎭ	-11.4467
ᏥᎵ	-11.4467
▁ᎦᎾᏝᎢ	-11.4467
▁ᏴᏓᏗ	-11.4468
ᏕᎪᏪᎸᎩ	-11.4468
▁ᎢᏨᏯᎵᏍᎪᎸᏓ	-11.4468
▁ᎢᎬᏩᏁᏗᏱ	-11.4468
▁ᏗᎨᏥᎤᏍᏕᏎ	-11.4469
▁ᎨᎦᏎᎸ	-11.4469
▁ᎤᏁᎯ	-11.4469
▁ᏍᎩᏍᏕᎸᎯᏓ	-11.4469
ᏍᎩᎥᏏ	-11.447
▁ᏥᏙᏓᎦ	-11.447
▁ᎢᎾᎩ	-11.447
▁ᏭᎷᏤᎸᎩ	-11.447
▁ᎤᏓᏍᎦ	-11.447
▁ᎦᎵᏦᎦ	-11.4471
ᏲᎯᎮᏍᏗ	-11.4471
▁ᎦᏙᎩ	-11.4471
▁ᏅᏛᏅ	-11.4471
▁ᎾᎾᎵᎮᎵ	-11.4472
▁ᎠᎾᏙᎴ	-11.4472
ᏠᎯᏍᏛ	-11.4472
ᏄᎪᎬᎢ	-11.4474
ᎪᏄᎶᎯᏍᏗ	-11.4474
ᏚᎾᏠᏒ	-11.4474
▁ᎡᏙᎢᏳᏅ	-11.4474
▁ᏚᏠᏱᎴᎢ	-11.4474
ᎵᏌᎳᏗᏍᎬ	-11.4474
ᎵᏰᎢᎶᎯᏍᏗᏱ	-11.4474
▁ᎹᏓᏂ	-11.4475
▁ᏚᏂᏴᏍᏕ	-11.4475
▁ᎣᏍᏙ	-11.4476
▁ᎠᎵᏍᏕᎵᏍᎬᎢ	-11.4476
▁ᎤᎪᎵᏰᏗᏱ	-11.4476
▁ᏧᎾᏓᎴᏛ	-11.4476
▁ᏚᎾᏚᏫᏍᏛ	-11.4476
▁ᏦᎩᎭ	-11.4476
ᎦᎸᏙᏗ	-11.4476
▁ᎤᏁᎳᏗᏍᏗᏍᎬ	-11.4476
ᏯᏫᏍᏗ	-11.4476
▁ᎬᏩᎸᏉᏙᏗ	-11.4477
ᎵᏍᏔᏂᏓᏍᏗ	-11.4477
▁ᎠᎦᏴᎵ	-11.4478
▁ᏫᏗᎬᏩ	-11.4478
▁ᎤᏪᎲ	-11.4479
ᏕᏦᏁ	-11.4479
▁ᎢᏥᏯᎢ	-11.4479
ᏚᎪᏓᏁᎸ	-11.4479
▁ᎠᎨᎳᏗᏍ	-11.448
▁ᎤᏪᎵᏎ	-11.448
▁ᎤᏬᎴᏍᏗ	-11.4481
▁ᏓᏠᏱᎲ	-11.4481
▁ᎠᎩᎪᏁᎸᎢ	-11.4481
▁ᏗᏨᏍᏗᏱ	-11.4481
▁ᏕᎦᎾᏰ	-11.4481
ᎯᏏ	-11.4481
▁ᎠᎾᎵᎮᎵᎬᎢ	-11.4481
▁ᎥᏓᏗᏍᏕᎸᏗ	-11.4481
ᎯᏳᎲᏍᎩ	-11.4482
▁ᏧᏚᎩ	-11.4482
▁ᏧᏭᎪᏓᏁ	-11.4482
ᎡᏥᎩᏏ	-11.4483
▁ᏓᏛᎩᎭ	-11.4483
▁ᏱᏄᏍᏕᎢ	-11.4484
▁ᎹᎾᏏ	-11.4484
▁ᎠᏂᏃᎲᏍᎨ	-11.4485
▁ᏚᏂᎰ	-11.4485
ᎫᎪᏓᏁᎵ	-11.4486
▁ᎢᎩᎨᏳᎯ	-11.4486
▁ᏗᏣᎸᏫᏍᏓᏏ	-11.4487
▁ᏧᎩᎵᏲᏤ	-11.4487
▁ᏭᏯᏅᎲᎩ	-11.4489
▁ᏓᏂᎳᏫᎥᎢ	-11.4489
▁ᏂᏕᎦᏪᏎᎲᎩ	-11.4489
▁ᏗᏣᎵᎢ	-11.4489
ᎬᏲᏪᎳᏁ	-11.449
▁ᎤᏍᏆᏂᎪᏎᎢ	-11.449
▁ᎤᏃᎯᏳᏁᎢ	-11.449
▁ᏥᏚᏲ	-11.449
▁ᏃᎦᏛᏁᎸ	-11.4492
▁ᎦᏃᎪᎢ	-11.4492
▁ᏓᏕᏲᎲᏍᎨᎢ	-11.4492
ᎾᏛᏁᎵᏙᎯ	-11.4493
ᎦᏡᏓ	-11.4493
▁ᏕᏨᏲᎯᏎᎸ	-11.4493
ᏩᏍᏕᏍᏗ	-11.4493
▁ᏒᎦᎳ	-11.4493
▁ᎣᎦᏣᏅᎩ	-11.4494
ᎦᎷᎶᏥᏙᎲ	-11.4494
ᏫᏍᎪ	-11.4494
▁ᏦᎳᎻ	-11.4494
▁ᎠᎩᏍᎦᎩ	-11.4494
ᎦᎵᏥᏙᏁᎸᎩ	-11.4494
ᏍᏆᎸᏓ	-11.4494
ᎫᏛ	-11.4495
▁ᏕᏣᏓᏛᏗᏍᎬ	-11.4495
▁ᏄᏅᏁᎸᎩ	-11.4496
ᎦᏃᎱᎩᏍᎬ	-11.4496
▁ᎤᏍᎦᏎᏗᏳ	-11.4497
ᏍᎫᏕᏍᎪᎢ	-11.4497
▁ᎤᎾᎵᎮᎵᏤᎢ	-11.4497
▁ᏚᏄᎪᏫᏒᎩ	-11.4498
▁ᏂᏚᏩᏁᎴᎢ	-11.4499
▁ᏕᎤᎸᏫᏍᏓᏁᎭ	-11.45
▁ᏛᎠᏥ	-11.4501
ᏬᏅ	-11.4501
ᎴᏔᏅᎢ	-11.4501
▁ᎤᎾᎵᏍᏕ	-11.4502
ᏩᏕᎩ	-11.4502
▁ᎠᏇᎳᏗᏍ	-11.4502
▁ᎢᎨᎭ	-11.4502
▁ᎤᏓᏅᏍᏗ	-11.4502
ᏂᏌᎲ	-11.4503
ᏗᏣᏯᏪ	-11.4505
▁ᏚᏓᏓᎴ	-11.4505
ᏯᏂᏍᎩ	-11.4505
▁ᏧᎾᏍᏗᎦ	-11.4506
▁ᎤᏂᎩᏎᎢ	-11.4506
▁ᏱᎬᎭ	-11.4506
▁ᎺᏌᏯ	-11.4506
▁ᎢᏧᎳᎭᏉ	-11.4508
ᏘᏅᏍᏔᏁᎢ	-11.4509
▁ᎤᎾᏓᏟᏌᏅᎩ	-11.4509
▁ᏕᎫᎪᏓᏁᎸ	-11.451
ᏯᎧᎯᏴᎩ	-11.451
▁ᏫᏥᎪᎥᎩ	-11.451
▁ᎠᏂᏩᏛᏗ	-11.4511
ᏴᎯᎭ	-11.4511
▁ᎤᏙᎯᏳᏁᎢ	-11.4511
ᏩᏗᏒᏂ	-11.4511
▁ᏥᎬᎩᎪᎵᏰ	-11.4511
▁ᎠᎩᏔᏕᎩ	-11.4512
ᏥᎥᏍᎦ	-11.4512
▁ᏴᏓᎨ	-11.4513
▁ᏂᏣᏓᎨᏳᏒᎢ	-11.4514
▁ᎦᏁᎲᎢ	-11.4515
▁ᎣᏍᏗ	-11.4516
▁ᎠᎦᏘᏲ	-11.4516
ᏩᏗᏒᎢ	-11.4516
▁ᏥᎦᏥ	-11.4516
▁ᏓᏲᎦ	-11.4519
▁ᎥᏘ	-11.4519
▁ᏂᏣᎵᏍᏓᏁᎭ	-11.452
▁ᎤᏄᏩᎥᎩ	-11.452
ᎾᏓᏂᎸᎢᏍᏗ	-11.4521
▁ᏂᎬᏁᎢ	-11.4521
▁ᏥᏥᎭ	-11.4521
▁ᎤᎾᎵᏖᎸᏅᎢ	-11.4521
ᏚᎾᏓᎴᎿ	-11.4522
ᏕᏥᎦᎿᏩᏕᎦ	-11.4522
ᎯᏐᏢᏗᎭ	-11.4523
▁ᎢᏥᎦᏔᎯᏳ	-11.4523
▁ᎣᎦᏛᎦᏅᎩ	-11.4523
▁ᎠᎴᏈᏱ	-11.4523
▁ᎠᏰᏙᎳᏛᏗ	-11.4523
▁ᏓᏍᏚᎲᎢ	-11.4524
▁ᏥᎨᎭ	-11.4524
▁ᏳᏃᎵᏤᎢ	-11.4525
ᎦᏘᏍᏗᏍᎩ	-11.4526
ᏒᏂᎦ	-11.4527
ᏩᏂ	-11.4527
ᏙᏓᎬᏁᎵ	-11.4527
ᏓᏁᏣᏍᏚ	-11.4528
▁ᎪᏢᏒᎩ	-11.4529
▁ᎠᏥᎦᏘᏗᏍᏗᏱ	-11.4529
▁ᏩᎾᎢᏒ	-11.4533
▁ᏓᎾᏕᏲᎲᏍᎨ	-11.4533
▁ᏚᎵᏥᏙᏁᎸ	-11.4533
ᏏᏌᏁ	-11.4534
ᎦᏔᏂᎴ	-11.4534
▁ᏕᏣᏓᏠᎲ	-11.4534
ᏓᏴᏙᏗ	-11.4534
▁ᎠᎾᏛᎩᏍᎬᎢ	-11.4534
ᏣᏛᎩᏍᎪ	-11.4535
ᎩᏪᏏ	-11.4535
▁ᎢᏥᎷᏤᎸᎩ	-11.4535
ᏓᎵᎪᏁ	-11.4536
ᎶᏄᎡᏗ	-11.4537
▁ᎤᏙᎳᏅᏍ	-11.4537
▁ᎾᎬᏁᎴᎢ	-11.4537
ᏛᏍᎩ	-11.4538
▁ᎠᏂᎦᏯᎷᎥᏍᎩ	-11.4538
▁ᎤᏓᎵ	-11.4539
▁ᏥᏚᎴᎯ	-11.4539
ᎭᏉᏍᎩᏂ	-11.454
▁ᎨᏥᏍᎦᏅᏤᎲ	-11.454
▁ᏚᎵᏂᏆᏅᏁ	-11.4542
▁ᎠᏯᎡᏍᏗ	-11.4542
▁ᎠᎩᏲᎱᏒᎯ	-11.4542
▁ᎠᏍᏓᏲ	-11.4543
▁ᎠᏁᏍᎨ	-11.4543
▁ᎠᏍᎦᏱ	-11.4543
▁ᎠᎪᏎᎭ	-11.4543
▁ᎤᏴᎵᏎ	-11.4543
▁ᏱᎨᏥᏎᎪᎩ	-11.4543
▁ᎡᎳᏗᏉ	-11.4544
ᏂᎨᏨᎿᏕ	-11.4544
▁ᎠᏂᏙᎾᎡᎢ	-11.4544
▁ᏥᏆᎵᏏ	-11.4545
▁ᎤᏛᎦ	-11.4545
▁ᏚᎾᎵᎪᏁᎴ	-11.4545
▁ᎦᎾᏄᎪᏫᏍᎦ	-11.4546
▁ᏕᎦᎶᎨᏒ	-11.4546
▁ᏕᏤᎶ	-11.4546
▁ᎠᎪᏪᎵ	-11.4547
▁ᏥᏄᎾᎵᏍᏓᏁ	-11.4548
ᏣᏛᎪᏗ	-11.4548
ᏯᏅᎲᎭ	-11.4548
ᏂᎪᏁᎶᏍᎨᎢ	-11.4549
▁ᎠᏂᏔᏲᎯᎮ	-11.4549
▁ᎤᏬᏎᎴᎢ	-11.4549
▁ᎢᏥᏲ	-11.4549
▁ᎠᏍᏕᎸᏗᏱ	-11.455
▁ᏧᏴᏢ	-11.455
ᏛᏁᎰᎲᏍᏗᏱ	-11.4552
ᎩᏩᏛᏗᏱ	-11.4552
▁ᎢᏗᏩ	-11.4552
▁ᏁᏨ	-11.4553
▁ᎤᏓᎸᎢ	-11.4553
ᎦᏬᏂᏍᎪᎢ	-11.4553
▁ᎢᎩᏁᏤᎸ	-11.4554
ᎷᎯᏍᏓᏁ	-11.4554
ᎦᎧᎲ	-11.4555
ᎾᏛᎪᏗ	-11.4555
▁ᏌᎺᎵ	-11.4556
▁ᎤᎦᏔᎲᏒᎩ	-11.4556
ᎵᏔᏕᎨ	-11.4558
ᎵᏎᎮᏍᏗ	-11.4558
ᏁᏨᏁᎮᏍᏗ	-11.4558
ᏂᎪᏩᏘᏍᎨᎢ	-11.4559
ᏰᏌᏛᎢ	-11.4559
▁ᎤᏪᏅᎡᎮ	-11.4559
▁ᏱᎦᏔᎭ	-11.4559
▁ᏚᏃᎸᎢ	-11.456
▁ᎠᏥᏃᎮᎭ	-11.456
▁ᎤᏂᎾ	-11.456
▁ᎠᎾᏗᎭ	-11.456
▁ᎡᏥᎧᎵᎢ	-11.4561
▁ᏅᏓᏩᏓᎴᏅ	-11.4561
ᏍᏓᎥ	-11.4562
ᏏᎭ	-11.4563
▁ᎤᏚᎵᎭ	-11.4564
▁ᎠᎾᎵᎮᎵᎨᎢ	-11.4566
▁ᏚᏄᎪᏔ	-11.4569
▁ᏱᎾᏛᏁᎮ	-11.457
ᏢᏥᏰᏍ	-11.4574
▁ᎢᏨᏬᏁᏗᏍᎬ	-11.4575
ᏥᎾᏰᏍᎦ	-11.4575
ᏩᏍᏗᏕᎩ	-11.4575
▁ᎦᏓᎷᎩᏍ	-11.4577
▁ᏣᎯᏍᏗᏱ	-11.4578
▁ᎠᏫᏍᎪᎢ	-11.4579
▁ᏕᎬᏗᏍᎬᎢ	-11.458
ᏴᏅ	-11.4582
ᎴᏔᏅ	-11.4583
▁ᏅᏛᏍᎩ	-11.4583
▁ᏄᏓᎨᏒ	-11.4584
▁ᏗᏓᏅ	-11.4584
ᏙᎩᏯᏪ	-11.4584
ᏥᏌᎳᏓᏅᎭ	-11.4584
▁ᎤᎩᏨ	-11.4584
ᏛᏨᎩ	-11.4584
ᏂᏕᎲᏁ	-11.4585
▁ᏑᎾᎴᎢ	-11.4587
▁ᏱᏗᏧᎪᏓᏁ	-11.4587
▁ᎤᏂᏃᎴ	-11.459
▁ᎬᏂᏳ	-11.459
ᎫᏏᏲ	-11.459
▁ᎤᏂᏄᎪᏨᏃ	-11.4591
▁ᎠᏆᏙᏗᏱ	-11.4591
▁ᎤᏂᏍᏉᎵᏱ	-11.4592
▁ᏱᎬᏍᎦᏅ	-11.4593
ᏅᏛᎾ	-11.4593
▁Ꮊ	-11.4593
▁ᏏᏓ	-11.4594
ᏍᏚᏉ	-11.4594
▁ᏳᏝ	-11.4595
ᎾᏌᏁ	-11.4596
▁ᎤᎾᏓᏙᎵᏍᏓᏁᎴ	-11.4596
▁ᏅᏥ	-11.4596
▁ᏥᎥᏏ	-11.4597
▁ᎡᏥᏁ	-11.4597
▁ᎤᏪᏲᎲᏍᎬ	-11.4599
▁ᎠᏗᏔᏍᏗᏱ	-11.4599
▁ᏚᏅᏫᏍᏔᏅ	-11.46
ᏆᏛᏛᎲᏍᎦ	-11.4603
▁ᎤᎾᎦᏙᏍᏔᏅ	-11.4604
▁ᏕᏥᎸᏌᏓ	-11.4605
▁ᎢᏣᏚᎵᏍᎬᎢ	-11.4606
ᏂᏕᎬᏁᎰ	-11.4607
ᏂᏍᎨᎢ	-11.4608
▁ᏂᏚᏓᎴ	-11.4608
ᏏᏗᏢ	-11.4608
ᏴᏍᏗ	-11.461
▁ᎠᎾᏓᏙᎵᏍᏓᏁ	-11.461
▁ᎠᏓᏅᏙᎩ	-11.4611
▁ᎢᏍᎩᏃᏁ	-11.4612
ᏗᎻᏯ	-11.4612
▁ᎠᎾᏛᎩᏍᎨ	-11.4612
ᏁᏍᎨᎰᏂ	-11.4613
▁ᎡᏙᎢ	-11.4614
▁ᏔᎷ	-11.4614
ᏍᏆᏛᎭ	-11.4614
▁ᏕᎪᏢᏒᎩ	-11.4614
▁ᏂᎬᏁᎲᎢ	-11.4615
▁ᎤᎴᏁᎢ	-11.4617
ᎲᏍᎬᎢ	-11.4618
▁ᎠᏦ	-11.4618
▁ᏱᏥᎪᎵᏰᎣᎢ	-11.4619
▁ᎦᏃᎸᎥᏍᎬᎢ	-11.4619
▁ᏣᏚᎵᎭ	-11.4619
▁ᎢᏛᏗᏍᎬᎢ	-11.462
▁ᎠᎧᎵᎢᎭ	-11.462
▁ᎢᏥᏍᎦᎩ	-11.4622
▁ᏧᏂᎸᎯ	-11.4623
▁ᏂᏚᏪᎭᎸ	-11.4625
▁ᏧᎾᏚᎵᏍᎪ	-11.4625
ᏴᏍᎪᎢ	-11.4625
ᏁᏢᏙᏗ	-11.4625
▁ᏱᏥᎭ	-11.4625
▁ᎠᏰᎸᏎᎢ	-11.4625
ᏧᏂᏂᏴᎯ	-11.4626
▁ᏳᏂᏃᎮᎴ	-11.4627
ᏥᏲᏎᎮᏍᏗ	-11.4628
▁ᏗᎧᎿᎦ	-11.4629
▁ᏧᏂᏢᎩᏍᎩᏂ	-11.4629
▁ᏕᏣᎧᏂᏍ	-11.463
ᏛᏂ	-11.4631
▁ᏫᎤᎾᏣ	-11.4632
ᎩᏍᏚᎲᎩ	-11.4633
▁ᎣᏥᏲ	-11.4634
▁ᏰᏤᎵ	-11.4634
ᏩᏗᏔ	-11.4635
ᏆᎵᏍᎪᎸᏓᏁᎸ	-11.4635
ᏗᎸᏉᏗᏍᎪ	-11.4636
ᎬᏩᎾᏓᏐᏢ	-11.4637
▁ᏗᏓᏃᎮ	-11.4637
ᎦᎫᏍᏓᎥ	-11.4637
▁ᏫᏨᏲᏪᎳᏁᎸᎩ	-11.4638
▁ᎢᏣᎴᏂᏙᎸ	-11.4638
▁ᏧᎾᏄᎪᏤ	-11.4639
▁ᎤᏪᏐ	-11.4639
▁ᎠᎩᏅᎩ	-11.464
▁ᎢᏳᏒᎯ	-11.4641
▁ᏥᏍᎪᎵ	-11.4642
▁ᏈᎵᏱ	-11.4642
ᎬᏲᏎᏗ	-11.4643
▁ᎾᎾᏛᏁᎭ	-11.4645
ᎳᏗᏍᏗᏱ	-11.4645
▁ᎠᎯᎯ	-11.4646
▁ᏥᎾᎬᏁᎴ	-11.4646
ᎬᏆᏛᎦᏁ	-11.4646
▁ᏫᏚᏯᏅᎮᏃ	-11.4647
▁ᏱᏣᏎᎵ	-11.4649
ᏫᏍᎨᎢ	-11.465
▁ᎢᏤᎮᏍᏗ	-11.465
▁ᎤᎾᏓᏙᎵᏍᏓᏁᎸ	-11.4651
▁ᏥᏯᎠ	-11.4651
ᏓᏍᏛᏗᏍᏙᏗ	-11.4652
ᏃᏨᏁᎭ	-11.4653
ᏕᏥᎪᎥᎩ	-11.4654
▁ᎠᏆᏂᎩᏒ	-11.4654
ᎩᏲᏏ	-11.4654
ᏃᎱᎶᏗ	-11.4656
▁ᎣᎩᏙᎵᏨ	-11.4656
▁ᎨᏥᏔᏲᏎᏗ	-11.4657
▁ᏥᏦᎯᏳ	-11.4658
▁ᎭᎹ	-11.4658
▁ᏭᏪ	-11.4659
▁ᎤᏂᏲᎵ	-11.4659
ᎾᏂᏪᎭ	-11.4659
▁ᏓᎩᎸᏫᏍᏓᏁᎲᎢ	-11.4659
▁ᏚᏂᏰᎵᏒ	-11.466
ᏢᏈᏍᏙᏗ	-11.466
▁ᎢᏣᎵᏍᏓᏁᏗᏱ	-11.466
▁ᏕᎧᏁᎢᏍ	-11.4661
▁ᎡᎩᏙᎵᏨ	-11.4661
▁ᏥᏕᎦᏓ	-11.4661
▁ᏃᎬᏁᎸ	-11.4661
ᏚᎾᏄᏩᎡ	-11.4662
▁ᏕᎤᏂᎸ	-11.4662
▁ᏅᏛᎩᏅ	-11.4665
ᎫᏴᎡᏗᏱ	-11.4665
▁ᎢᏥᏄᎪ	-11.4666
▁ᏍᎩᏰᎵ	-11.4666
ᏓᏱᎭ	-11.4669
▁ᏣᎵᏍᏕᎸᏙᏗ	-11.4671
ᏴᏗᏱ	-11.4671
▁ᎤᎬᎭᎷᏴ	-11.4672
ᏪᏒ	-11.4673
ᏩᎾᎦᎶᎢ	-11.4674
ᎳᏑᎸ	-11.4674
▁ᎾᎦᏛᏁᎸ	-11.4674
ᏅᏍᏔᏅᎩ	-11.4676
▁ᏥᎩᎵᏲᎦ	-11.4679
▁ᎢᏣᏘᏍᏗᏍ	-11.468
ᎦᏛᏂᏗᏍᏗᏱ	-11.4683
▁ᎠᏍᏕ	-11.4685
▁ᎢᏣᏖ	-11.4689
ᏓᏓᏅᏟ	-11.4689
ᏯᏫᏍᎨᏍᏗ	-11.4689
▁ᏂᏣᎵᏍᏓᏁᎲ	-11.469
ᎦᏔᎮ	-11.469
▁ᎠᎾᎵᏍᏓᏴᏗᏍᎪ	-11.4692
▁ᏗᎤ	-11.4693
ᏓᎴᏍᏗ	-11.4693
ᏂᏁᎬ	-11.4693
▁ᏧᏩᎫᏔᏅᏒᎢ	-11.4694
▁ᏫᏚᎷᏤᎸ	-11.4694
ᎾᏄᎪᏫᏎᎭ	-11.4695
▁ᏂᏕᏨᏁᎸ	-11.4696
▁ᎤᏍᏗᏰᎬ	-11.4697
ᏂᎬᏎᎲᎢ	-11.4697
ᎧᏁᏤᏗ	-11.4697
ᏲᎱᏏᏕᎾ	-11.4697
▁ᎠᎾᏗᏔᏍ	-11.47
▁ᎤᎶᏒᎢ	-11.4701
ᎾᏌᏅ	-11.4702
▁ᎾᎬᏁᎸᎢ	-11.4702
▁ᏱᏙᎬᏂ	-11.4705
▁ᏬᎶᏒ	-11.4705
ᎶᏐᏅᎯ	-11.4708
▁ᎤᏂᏩᎯᏍᏔ	-11.4708
▁ᎢᏥᏍᎦᏃ	-11.4709
▁ᎠᎴᏂᏓᏍᏗ	-11.471
ᏟᏌᏅᎩ	-11.471
▁ᏫᏕᏣ	-11.471
▁ᏫᏗᏣ	-11.471
▁ᎤᎾᎵᏃᎮᎸ	-11.471
▁ᎤᏂᏐᏅᏤᎸ	-11.4712
ᎳᏓ	-11.4714
▁ᏗᏓᎵᏎ	-11.4716
ᏋᏁᏗᏱ	-11.4717
▁ᏓᎨᏥᏄᎪᏫ	-11.4717
▁ᎦᎾᏄᎪᏫᏍᎬ	-11.4718
▁ᎢᏣᏛ	-11.4721
ᏯᎩᎷᏨ	-11.4721
▁ᎠᏢᏉᏙᏗ	-11.4723
▁ᏂᏚᏬᏚ	-11.4724
ᏌᏕ	-11.4725
ᏂᎨᎯᏙᎴ	-11.4727
ᏍᏛᏅᎯ	-11.4728
▁ᏓᏳᎦ	-11.4729
ᏰᎸᎢ	-11.473
▁ᎤᏓᏩᏗᏍ	-11.473
ᏗᏂᎦᏘᏯ	-11.4731
▁ᎠᎩᎪᏩᏛᏗᏱ	-11.4731
ᎳᏛᏅ	-11.4732
ᏑᎵᎪ	-11.4732
ᏋᏁᎸᎩ	-11.4737
▁ᏚᏂᏁᏤᎸ	-11.4737
▁ᏄᏩᏁᎴᎢ	-11.4737
▁ᎠᏄᏬᏍᏗ	-11.4739
▁ᎬᏩᏯᏫ	-11.4739
▁ᏕᏥᏄᎪᏫᏍᎬ	-11.474
ᏗᏙᎯᏃ	-11.474
▁ᎤᏍᏕᎸᏗ	-11.4741
ᎾᏍᎩᏃ	-11.4741
▁ᎣᏎ	-11.4741
▁ᎠᏥᏁᎢᏍᏔᏅ	-11.4743
▁ᎤᏁᏉ	-11.4743
▁ᏗᏆᏓ	-11.4743
▁ᎠᏆᏑᏰ	-11.4744
ᏃᏢᏍᎩ	-11.4745
▁ᎤᏚᏣᎳ	-11.4745
▁ᎤᏞᎩ	-11.4745
▁ᏴᎨᏍᎩ	-11.4745
ᏛᎪᏙᏗ	-11.4747
ᏓᏍᏗᏍᎨᏍᏗ	-11.4747
▁ᎣᏏᏉ	-11.4747
▁ᏗᏍᎩᏯᏓᏂᎸ	-11.4748
ᏔᏚ	-11.4749
ᏥᏃᎯᏍᏙᏗ	-11.4749
▁ᏚᎸᏌᏛᎢ	-11.4749
▁ᏕᏣᏓᎦᎵᏍᏓᏗᏍ	-11.4749
▁ᏓᎾᏤᎲ	-11.4752
▁ᎢᏥᏔᏲᎯ	-11.4752
▁ᎤᏃᏴᎵ	-11.4753
▁ᏗᏅᏃᏛᏍᎩᏂ	-11.4753
▁ᎤᏂᏍᎩᎸ	-11.4753
▁ᎢᏳᏩᏁ	-11.4754
ᏦᏎᎮᏍᏗ	-11.4754
ᏂᏪᏒᎩ	-11.4755
▁ᎤᏩᏂ	-11.4755
ᏂᏍᎩᎾ	-11.4755
▁ᎤᏂᎶᏒ	-11.4756
▁ᏧᎾᏓᎵ	-11.4757
▁ᏴᎨᏣᏛ	-11.4757
▁ᎠᏆᏢᏈᏍᏙᏗ	-11.4758
ᏥᎨᎰᎢ	-11.4758
ᏓᎵᏁᎯᏕᎮᏍᏗ	-11.4759
▁ᏆᎴᏗᏱ	-11.4759
▁ᏗᎦᏚ	-11.476
▁ᏱᎾᏅ	-11.4761
ᎵᏱᎶᎯᏍᏗᏱ	-11.4761
▁ᏚᏂᏍᏚᏅ	-11.4762
ᏢᏆᏍᎪᎢ	-11.4763
▁ᎤᏪᏅᏎᏃ	-11.4763
ᎵᏍᎦᏍᏙᏗᎭ	-11.4764
▁ᎵᏌ	-11.4765
ᎵᏉᎩ	-11.4767
▁ᎢᏧᏓᎴᏍ	-11.4767
▁ᏂᎨᏥ	-11.4768
▁ᎤᏂᏄᎪᏤ	-11.4768
▁ᏫᏓᎾ	-11.4769
ᏁᏢ	-11.4769
▁ᎤᏬᏪᎳ	-11.477
ᎳᎪ	-11.4771
▁ᏥᏩᏂ	-11.4772
ᎵᏂᎬᎬ	-11.4772
ᎬᎥᏏ	-11.4775
▁ᏚᏰᎸᏒ	-11.4777
ᏢᏍᎪᎢ	-11.4778
ᏚᏂᏁᏟᏴᏎ	-11.4778
ᏅᏧᎵᏍᏙᏔᏅ	-11.4779
ᏕᎰᏗᏍᎬ	-11.4779
ᏍᎦᏅᏤᎲ	-11.478
ᏣᏚᏓᎳᎡᏗ	-11.4781
▁ᏚᏒᏁᎸ	-11.4783
▁ᏧᏁᏗ	-11.4785
ᏂᎸᎩ	-11.4787
ᏰᎵᏒᎩ	-11.4788
▁ᎬᏭᎯᏍᏗᏍᎨ	-11.4789
ᏍᏓᏩᏗᏎᏍᏗ	-11.4792
ᏓᏅᎩ	-11.4793
ᎾᏣᏪᏐᎸᏍᏙᏗ	-11.4794
▁ᎢᏓᎴᏂᏙᎲ	-11.4796
▁ᎡᏣᎵᎡ	-11.4796
ᏕᎠᏁᎲ	-11.4797
▁ᎠᎾᎵᏥᏙᏂᏙ	-11.4797
▁ᏣᎵᏂᎩ	-11.4797
▁ᏧᏂᏅ	-11.4797
▁ᏚᎸᏫᏍᏓᏁᎸᎩ	-11.48
ᎷᏯᏍᏗ	-11.4801
▁ᎣᎩᏰᎸᏅ	-11.4801
ᏂᏲᎲᎩ	-11.4801
▁ᎤᎾᏟᎶᎥ	-11.4803
▁ᏣᏍᏆᏂᎪ	-11.4803
▁ᎤᏃᏢᏁ	-11.4804
ᏥᏩᏛ	-11.4809
▁ᎣᎩᏃᎮᎸ	-11.4809
ᏍᏆᎸᎡᎸ	-11.481
ᎯᏍᎦᎨᏍᏗ	-11.481
▁ᏛᎾᎵ	-11.481
ᏯᏅᎡᎵ	-11.4811
ᎾᏍᏕᏢ	-11.4812
▁ᎠᏂᎦᎵ	-11.4813
▁ᏰᏦᎢᏳ	-11.4814
▁ᏥᎩᏁᎸᎩ	-11.4815
ᏪᎶᏔ	-11.4815
▁ᏥᏚᏠ	-11.4815
ᏤᎲᎢ	-11.4816
▁ᏧᏓᏅᏖᎴ	-11.4816
▁ᎡᏗᎾᏄᎪᏫᏎ	-11.4817
ᏍᏗᏰᏔᏁ	-11.4818
ᎩᏍᏕᎵᏍᎬᎢ	-11.4818
▁ᎤᎶᏐᏅᎩ	-11.4819
▁ᎨᎳᏂ	-11.482
▁ᎰᎯᏳᎲᏍ	-11.4822
ᎬᏒ	-11.4823
ᏂᏩᏛᎮ	-11.4826
▁ᏱᏚᎸᏫᏍᏓᏁ	-11.4827
▁ᏤᎳ	-11.4828
ᏪᎵᏎᎴᎢ	-11.483
▁ᏅᏓᏳᎵᏍᏙᏔᏅ	-11.483
ᏂᏏᎾᏒ	-11.4833
ᏍᏢᏂᏍᏔᏅ	-11.4833
▁ᏕᎯᏬᏁᏗᏍ	-11.4836
▁ᏗᏤᎲᎢ	-11.4837
ᎩᎵᏲᏤᎴ	-11.4837
▁ᏥᏃᎮᏍᎬᎢ	-11.4839
▁ᎤᏄᏬᎥ	-11.4843
▁ᏗᎯᏍᏗᏱ	-11.4843
ᏆᏘᎾᏫᏛᎲᎩ	-11.4843
ᎤᏂᏴ	-11.4845
▁ᎠᏆᎵᏌᎳ	-11.4847
▁ᎦᎷᏥ	-11.4848
ᏗᏫᏎᎸ	-11.4849
▁ᎠᏂᎷᎬ	-11.485
▁ᎦᏛᎬᎩ	-11.4852
▁ᎣᎦᏕᏯᏙᏗ	-11.4852
ᏓᏘᏂᏙᎯ	-11.4858
ᎵᏍᏘ	-11.486
▁ᏂᏚᏅᏁᎴ	-11.4862
▁ᏚᎾᏚᏫᏍ	-11.4864
▁ᎤᏲᎰᎢ	-11.4865
ᏂᏱᎵᏙᎲ	-11.4866
▁ᎪᏢᎭ	-11.4866
▁ᏂᏥᎦᏔ	-11.4867
▁ᎡᏥᏍᏕᎸ	-11.4869
▁ᎤᏬᏢᏔᏅ	-11.4871
ᏲᎢᏎᎴ	-11.4871
▁ᏗᏓᏖ	-11.4871
ᎵᏍᎬᎢ	-11.4872
▁ᎢᏥᎪᏩᏘᏍᎬ	-11.4872
▁ᎾᏯ	-11.4873
▁ᏩᎾᎦᎳᎯᏳ	-11.4874
▁ᏧᏬᎪᏙᏗ	-11.4875
▁ᎤᏇᏓᎸᎢ	-11.4875
▁ᏣᎢᏎ	-11.4875
▁ᎤᏂᏁᎸ	-11.4875
▁ᏗᎨᏥᏰᎸ	-11.4876
▁ᎠᏥᏰᎸᎾᏁ	-11.4877
▁ᎤᏁᎵᏤ	-11.4878
▁ᏚᏲᏍᏙᏓᏁᎸ	-11.488
ᏥᏁᎦ	-11.4883
▁ᎦᎵᎮ	-11.4883
▁ᎢᏥᏅᎯ	-11.4884
ᏲᏞᎯ	-11.4885
ᎩᎵᏲᏨ	-11.4885
▁ᏕᎫᎪᏓᏁᎰ	-11.4885
▁ᎢᎨᏐ	-11.4886
▁ᎠᏅᏗᏍᎬᎢ	-11.4888
▁ᏄᏅᎿᏕ	-11.4889
ᎦᏏᏁ	-11.4889
▁ᏘᏂ	-11.4889
ᏂᎦᏥᏪᏎᎸᎩ	-11.4889
▁ᎠᏙᎴᎰᏍᎬ	-11.489
▁ᎥᏆᏒᎦᎶᏔᏅ	-11.4891
▁ᎢᎦᏓᏄᏴᏛ	-11.4891
▁ᏧᏓᏅᏎ	-11.4891
▁ᎰᏩᏉ	-11.4893
▁ᏧᏄᎪᏓᏁ	-11.4893
▁ᎤᎷᎯᏍᏓᏁ	-11.4899
ᎦᏥᏁᏤᎸ	-11.4902
ᏓᏚᏓᎳᎡ	-11.4904
▁ᏥᏯᏓᏅᏓᏗᏍ	-11.4905
▁ᏗᎦᎵᏍᏙᏗ	-11.4909
▁ᏚᏂᏬᏂ	-11.491
▁ᎠᏂᏃᏗᏍ	-11.4911
▁ᏓᎧᏅᎢ	-11.4915
▁ᏕᎯᎬᏍ	-11.4915
ᎨᎦᎵᏍᎪᎸᏓᏁᎸᎩ	-11.4918
ᏥᏏᎾᏌᏂ	-11.4919
ᏣᏓᏅᏙ	-11.4923
▁ᏚᏏᏔᏕ	-11.4924
▁ᏥᎦᎾᏄᎪᏫᏍᎪ	-11.4925
ᏦᏎᎸᎯ	-11.4925
ᏱᏙᎯ	-11.4926
ᎶᎨᏒᎢ	-11.4926
ᎾᏁᎶᏗ	-11.4928
▁ᏂᏚᎾ	-11.4929
▁ᎣᎩᎭ	-11.4929
▁ᎤᎵᎮᎵᏨᏃ	-11.493
ᏩᏛᎡᎯ	-11.493
▁ᎠᏡᏗᏍᎩ	-11.4931
▁ᏚᎾᏁᎶᏛ	-11.4931
ᎳᏏ	-11.4931
ᎾᏓᏨᏯᏍᏗᏍᎩ	-11.4932
▁ᏕᎪᎩᏂ	-11.4933
ᎵᏍᏓᏩᏗᏎᎢ	-11.4933
▁ᎠᏏᏍᎪ	-11.4933
ᎾᏌᎾᏫᏛ	-11.4933
▁ᏥᎧᏁ	-11.4939
ᎵᏱᎵᏕ	-11.494
▁ᏓᏰᏥᏄᎪᏫ	-11.4942
▁ᎢᏥᏍᏆ	-11.4942
▁ᏥᏯᎵᏍᎦᏍᏙᏗ	-11.4944
ᎦᏚᎵᏍᎬ	-11.4944
ᏙᏓᏆᏛ	-11.4946
▁ᏥᏅᏏᏓᏍᏗᏃ	-11.4947
ᏅᏒᏉ	-11.495
ᎩᏁᏤᎸ	-11.4951
ᏓᏅᏬᏗᏱ	-11.4951
▁ᎢᏳᏍ	-11.4953
▁ᎢᏣᏗᏒ	-11.4953
ᏣᏓᏅᏖᏍᏗ	-11.4953
ᏤᎰ	-11.4953
ᏄᎪᏫᏒᎯ	-11.4954
▁ᏇᎵᎩ	-11.4954
▁ᏣᏂᏃᎢ	-11.4954
▁ᏗᏂᎧ	-11.4955
ᏝᏫᏍᏗ	-11.4957
ᏲᏗ	-11.4957
▁ᎠᏓᏍᏕᎵ	-11.4957
▁ᎣᎩᎵ	-11.4958
▁ᏇᎴ	-11.4959
▁ᎬᏩᎬᏍᎪᎸᏁ	-11.4959
▁ᎤᏣᎡ	-11.4961
ᏬᏔ	-11.4965
ᏁᏟᏴᏍᏔᏁ	-11.4965
▁ᎨᏌ	-11.4966
ᎨᏲᎲᏍᎦ	-11.4966
ᏁᏟᏴᎭ	-11.4967
ᏥᏙᎵᎬᎾ	-11.4971
▁ᎤᏕᎵᏛᏉ	-11.4971
ᏂᏣᏪᏎᎭ	-11.4971
▁ᏂᏍᏋᏁᎸ	-11.4971
ᏯᏅᏗᏱ	-11.4972
ᏬᏍᏓ	-11.4974
ᏕᎬᎢ	-11.4974
▁ᎠᎦᏘᏗᏍ	-11.4974
Ꮏ	-11.4975
▁ᏍᎩᏁᏉ	-11.4975
▁ᎠᏲᎪ	-11.4976
ᏂᏪᏍᎨᏍᏗ	-11.4976
ᏥᏓᏍᏗ	-11.4977
ᏄᏂᏣᏔ	-11.4977
ᏂᏢᏗᏱ	-11.4978
▁ᎣᎦᎵᏍᏓᏴᏅ	-11.4978
▁ᏌᎴ	-11.498
ᏍᏗᏍᎪ	-11.4982
ᏩᏘᏃ	-11.4985
ᎩᏁᎸᎭ	-11.4987
ᎪᏩᏘᏍᎨᏍᏗ	-11.4987
▁ᏍᎩᏛᏔᏂ	-11.4992
ᏣᏒᏂᎸᎩ	-11.4992
ᏓᏅᏖᏍᎬ	-11.4998
ᏂᎨᏳᎯ	-11.5
▁ᎤᎦᏔᎯ	-11.5
▁ᏞᎩ	-11.5
▁ᏲᎩᎪ	-11.5
ᏓᏅᏓᏗᏍᏗ	-11.5004
ᏅᏬᎯᏍᏗᏍᎩ	-11.5007
▁ᎤᏂᏃᎮᎸᎩ	-11.5008
▁ᏲᏥ	-11.5012
▁ᏧᏓᏘ	-11.5013
ᏤᏅᏍᏗᏱ	-11.5015
ᎯᏁᎦ	-11.5017
ᏂᏲᎱ	-11.5017
▁ᏫᎦᎷᎬ	-11.5017
ᏍᎫᏕᏍᎬ	-11.5019
ᏓᎪᏩᏘᎭ	-11.5019
ᏱᎵᏓᏍᏗᏱ	-11.5019
▁ᎠᏓᏱ	-11.5023
ᏂᎾᏗᏅᏎ	-11.5024
▁ᎣᏣᏛᎦ	-11.5025
▁ᏧᏁᏲᎲᏍ	-11.5025
ᎢᏍᏓᏁᏗᏱ	-11.5026
ᎳᏅᏓᏕᎸ	-11.5026
ᏕᏃᏅᎯ	-11.5027
ᏓᏱᎸᎩ	-11.5027
▁ᏥᎦᏥᏁᏤ	-11.5027
▁ᎤᏁᎷᏅ	-11.5028
ᎳᎩ	-11.5029
ᏙᎸᎭ	-11.5029
ᏕᎵᏛ	-11.5029
▁ᎤᎬᎭᎷ	-11.5029
ᏴᎳᏒᎩ	-11.503
▁ᏤᎵᏎ	-11.503
▁ᏓᎬᎩ	-11.503
▁ᎨᏥᏃᏁᎸ	-11.5031
ᎦᏙᎴᎰᏍᎦ	-11.5032
ᏓᏛᏁᏗᏱ	-11.5032
ᏬᏢᏁᎢ	-11.5032
▁ᎦᏥᏯᏕᏯᏙ	-11.5034
▁ᏕᎯᏲ	-11.5035
ᏁᏒᎭ	-11.5035
▁ᏕᏥᎸᏫᏍᏓᏁᎸ	-11.5036
ᏑᏰᎭ	-11.5037
ᎦᎴᏍᏗ	-11.5037
ᎦᏛᎦᏃ	-11.5039
▁ᏧᎶᏄᎮᎴ	-11.5042
▁ᎠᏋᏗᏍᎬ	-11.5042
▁ᎢᎦᎤᏘᏍᏛ	-11.5043
▁ᏗᎦᏅᎦᎸᏙᏗ	-11.5044
ᏣᏟᏴᏗ	-11.5045
ᏍᏉᎵᏱ	-11.5045
▁ᎠᎯᏛ	-11.5047
ᎩᏍᏓᏱᏕᎸ	-11.5049
ᎨᏙᎲᎩ	-11.505
ᎶᎯᏍᏗ	-11.505
ᏂᏍᏙᏗᏱ	-11.5051
▁ᏧᏲᎱᏎ	-11.5052
▁ᏓᎩᎧᎿᏩ	-11.5054
▁ᎬᏆᏓᏅᏓᏗᏍ	-11.5057
ᏚᎿᎥᎢ	-11.5057
ᏚᎾᏟᏴ	-11.5058
ᎾᏛᏅ	-11.5059
ᏛᎿᏕᎬᎢ	-11.506
▁ᏯᎵ	-11.506
▁ᏧᏂᏰᎸᏐ	-11.5062
▁ᎣᎩᏃᏁᎸ	-11.5063
▁ᏙᎦᏚᏓ	-11.5063
ᎨᏍᏗᏉᏍᎩᏂ	-11.5064
ᏧᏠᎠᏎᎢ	-11.5065
▁ᎡᎭᏏ	-11.5067
ᏴᏎᎸᎩ	-11.5069
▁ᎠᎦᏯ	-11.5069
ᏥᎨᏳᎭ	-11.5075
ᏅᏍᎪᎢ	-11.5076
▁ᏍᎩᏃᏁᏗ	-11.5081
ᎬᏩᎶᏗ	-11.5083
ᏥᏯᏫᏍᎬ	-11.5086
ᎵᏘᎡ	-11.5087
▁ᎤᏯᏪᏐ	-11.5087
ᎯᏴᎵ	-11.5088
▁ᎠᏚᏓᎴᏍᏗᏍᎬ	-11.5091
ᏗᏍᎦᎳᏁ	-11.5092
ᏲᏍᏙᏗᏱ	-11.5094
▁ᏛᎾᏛ	-11.5095
▁ᏕᎦᏂᏱ	-11.5097
ᏨᏃ	-11.5097
ᏂᎭᎷᎩᏍ	-11.5097
ᏛᏅᎢᏍᏔᏅᎾ	-11.5097
▁ᎬᏩᎵ	-11.5097
ᏂᏍᏆᏂᎪᏍᎨ	-11.51
ᎵᎸᎩ	-11.5101
ᏄᎵᏍᏓᏁᎴᎢ	-11.5103
ᎬᏩᏓᎴᏅᏛ	-11.5103
▁ᎢᏨᏃᏁ	-11.5106
▁ᎠᏂᎮ	-11.5106
ᎲᏍᎬ	-11.5109
ᏭᏢ	-11.511
ᏚᏂᏐᎯᏍ	-11.5111
▁ᏥᏚᎸᏫᏍᏓᏁᎸ	-11.5112
ᏥᎩᎵᏲᎦ	-11.5112
ᎬᏩᎵᎪᏁᎸᎩ	-11.5118
ᏲᏍᎨ	-11.5119
ᏛᏕᏍᏗ	-11.5121
ᏬᏥ	-11.5122
▁ᎥᏆᎵᏍᎪᎸᏓᏁ	-11.5124
▁ᏣᏍᏚᏁ	-11.5125
ᎦᎵᏴ	-11.5128
ᏓᏅ	-11.5128
ᎦᎨᏅᏗᏍᏗ	-11.5134
▁ᏕᎦᏥᏯ	-11.5134
▁ᏚᎸᏌᏓ	-11.5135
▁ᎬᏩᎵᎪᏁᎴ	-11.5135
▁ᎤᏂᎷᏨᏃ	-11.5136
▁ᏱᏓᎾᏕᏍᎪ	-11.5139
ᎩᏎᎢ	-11.514
▁ᎤᏪᎧᏅ	-11.514
▁ᏓᏔᎴᏒ	-11.514
ᏂᏴᏛ	-11.5142
▁ᎤᏓᏅᏙᎩ	-11.5143
ᏴᏙᏗᏱ	-11.5143
▁ᏂᎬᏴ	-11.5147
▁ᏄᎵᏍᏔᏅᎾ	-11.5148
▁ᏕᎨᏥᎵᎥᏂ	-11.5148
▁ᏴᎨᏗ	-11.5148
▁ᎢᏣᏖᏆᎶ	-11.5148
▁ᏥᏅᏗᎦᎵᏍᏙᏗᏍᎪ	-11.5149
▁ᏗᎦᏬᏁ	-11.5151
ᎪᎯᏍᏗᏍᎩ	-11.5154
ᏨᏯᎵᏥᏙᏁᎸᎩ	-11.5155
ᏙᏗᎭ	-11.5156
▁ᎡᎫᏓᎴ	-11.5156
▁ᏚᎶᎨᏒ	-11.5157
ᎴᏛ	-11.5158
ᏣᎵᏂᎩᏗᏳ	-11.5161
▁ᏗᏣᏍᏗ	-11.5162
▁ᎤᏩᏓᎴ	-11.5167
▁ᏫᏕᎨᎦᏓᎢ	-11.5168
ᎦᎵᏍᎨᎢ	-11.5172
ᏁᏤᎲ	-11.5173
▁ᏓᎶᏂᎨᎢ	-11.5173
▁ᎡᏥᏯ	-11.5176
ᎱᏍᏕᏎ	-11.5177
▁ᎢᏳᎾᏛᏁ	-11.5181
ᏲᎢᏎ	-11.5186
ᎪᏪᎵ	-11.5186
ᏥᏩᏛᎲᏒᎩ	-11.5188
ᏥᏴᏁᎵ	-11.519
ᏁᏩ	-11.5193
▁ᏤᏥᎤᏍᏕᏎᏗ	-11.5195
▁ᎠᎲᏍᎩ	-11.5198
▁ᎤᎾᏓᏙᎵᏍᏔᏁ	-11.5199
ᏏᎸ	-11.5201
ᎩᎦᏘᏴ	-11.5202
▁ᎤᎪᎸ	-11.5202
▁ᎬᏙᎬ	-11.5203
▁ᏧᎶ	-11.5208
ᏕᏔᏅᎯ	-11.5209
ᏄᎪᏫᏎᏗᏱ	-11.5209
ᎾᏡᏗᏍᎨ	-11.5212
ᎦᎾᏕ	-11.5214
▁ᎤᏂᎵᎥᏂᎸ	-11.5217
ᎵᎮᎵᏨᎯ	-11.5218
▁ᎠᏂᏴᎯᎰ	-11.522
▁ᎤᏛᎦᏅᎯ	-11.522
ᏓᏲᏁᎯ	-11.5221
ᎤᏍᏗ	-11.5221
ᏛᏗᏕᎨ	-11.5222
▁ᎤᎵᏥᏙ	-11.5222
▁ᏅᏩᏓ	-11.5224
▁ᎦᏥᏲᏪᎳᏁ	-11.5228
▁ᎨᎦᎵᏥᏙᏁᎴ	-11.5228
▁ᎬᏩᎶᏁᏗ	-11.5228
ᎢᏍᏛᎾ	-11.5228
ᏱᏉᏍᎩᏂ	-11.523
▁ᏚᏂᏍᏚᎢᏒ	-11.523
▁ᎦᏴᏓ	-11.5232
ᎪᏪᎸᎢ	-11.5233
▁ᏂᏣᏛ	-11.5235
▁ᎢᎬᏪᏅᏛᏉ	-11.5239
ᏍᏕᎵᏍᎨᏍᏗ	-11.524
▁ᎢᏣᏓᏅᏖᎯ	-11.525
ᎮᏗ	-11.5252
▁ᎣᎨᏅᏒ	-11.5252
ᏂᏴᎮᎢ	-11.5253
ᏥᏅᏏ	-11.5271
▁ᏚᏪᎵᏎᎴ	-11.5273
▁ᏫᎬᏪᎧ	-11.5278
ᎨᏴ	-11.5279
▁ᏧᏁᎢᏍᏔᏁ	-11.5282
▁ᏗᎬᏩᏂᏲᎱᎯ	-11.5284
ᏓᏓᏟᏌᏁ	-11.5287
ᏲᎮᎸᎩ	-11.5294
▁ᏥᏓᏥᏲ	-11.5298
ᏓᏟᎶᏍᏗᏍᎬ	-11.53
▁ᎤᏓᏅᏔᏩᏕ	-11.5302
ᎶᏁᏔᏅ	-11.5303
ᎳᏫᏎᎰ	-11.5304
ᏥᏂᎬᏎᎲ	-11.5305
▁ᏂᏚᏪ	-11.5307
▁ᏣᏲ	-11.5308
▁ᏤᏥᏲᎯ	-11.5311
ᎳᏗᏙᎮᎢ	-11.5311
▁ᎤᎬᏩᎴ	-11.5312
▁ᎢᏓᎵᏍᏓᏴᎲ	-11.5313
▁ᎠᎩᏲᎲ	-11.5313
▁ᎤᎾᏓᏙᎵᏍᏔᏅ	-11.5314
▁ᏫᎦᏲᎩ	-11.5317
ᏙᎲᎾ	-11.5318
ᏃᎮᏍᎬ	-11.5318
ᏗᎧᏂ	-11.5319
▁ᎤᏂᎿᎸᎯ	-11.5319
▁ᏥᎥᎡᎸ	-11.5322
ᏂᏗᏍᎩ	-11.5323
ᎾᏰᏍᎨᏍᏗ	-11.5325
▁ᎤᏂᏴᏓᏆᎶᎥ	-11.5325
ᏦᏓᎸ	-11.5325
ᏥᎷᏨᎭ	-11.5328
▁ᏧᎾᏚᎵ	-11.5328
ᏛᏁᎵᏙᎸᎢ	-11.5329
ᎦᏄᎪᏩ	-11.533
ᏁᏍᎨᎮ	-11.5334
ᏓᏅᏖᎸᎢ	-11.5337
ᏥᏰᎲᎾ	-11.5339
▁ᎬᏁᎳᎩ	-11.534
ᎸᎣᎢ	-11.534
▁ᎦᏅᎦᎵᏍᎬ	-11.5344
▁ᏚᎾᏓᎡ	-11.5346
ᎮᏃ	-11.5346
▁ᎦᏙᎨᎢ	-11.5348
ᏪᏲᎲᏍᎩ	-11.5349
▁ᏧᏄᎪᏔᏅ	-11.5349
ᏘᏴᎩ	-11.5351
▁ᎤᏓᎴᏅᏛ	-11.5353
ᏑᎴᏗᏱ	-11.5354
ᎩᎡᎭ	-11.5355
▁ᏕᏣᎧ	-11.5355
ᏠᎠᏒ	-11.5356
▁ᎦᏲᎩ	-11.5357
▁ᎤᏂᏰᎸᏒ	-11.5358
ᏴᏔᏂᎸᎯ	-11.5359
▁ᏚᏰᎵᎯᏍᏔ	-11.5361
▁ᎢᏯᏛ	-11.5361
▁ᏣᏍᎦᎩ	-11.5362
ᏣᏅ	-11.5367
ᏆᎵ	-11.5367
▁ᎤᏁᎢᏍᏔᏅ	-11.5367
▁ᏯᎩᏍᏕᎵ	-11.5369
▁ᎤᏃᎭ	-11.5373
▁ᏗᏂᎧᎿᏩᏗ	-11.5373
ᏜᏫᏍᏗ	-11.5373
ᏠᎢ	-11.5375
ᏓᏂᏏᎲᏍ	-11.5375
▁ᎢᏥᎦᏴᎵᎨ	-11.5377
ᎪᎦ	-11.5381
ᎦᏥᏯᏙᎵ	-11.5384
ᏕᏯᏙᏗᎭ	-11.5385
ᏃᏣᎶ	-11.5385
ᏛᏁᏍᏗ	-11.5388
▁ᎨᏥᏃᎮᏍ	-11.5391
ᏂᎪᎵᏰᎠ	-11.5392
ᏁᏅ	-11.5392
▁ᎢᏥᏂᎬᎬ	-11.5393
ᏓᏅᏖᏗᏱ	-11.5395
ᎾᏡᏔᏂ	-11.5395
▁ᏫᎬᏲᏪᎳᏁ	-11.5396
▁ᏥᏫᏗᎦ	-11.5396
▁ᏳᏃᎯᏳ	-11.54
ᎫᏴᏗᏱ	-11.5401
ᏗᎴᎲᏍᎬᎢ	-11.5402
ᎦᏲᎵᏳ	-11.5404
ᏃᏪᎳᏅᎯ	-11.5404
▁ᎡᏍᎩᏍᏚ	-11.5406
▁ᏗᏜ	-11.5408
▁ᎤᏂᏣᏔᏅ	-11.5408
▁ᎢᏳᏓ	-11.5411
ᎵᏍᏓᏴᏗ	-11.5412
▁ᏧᏏᏔ	-11.5415
ᎷᏤᎰᎢ	-11.5417
ᎾᎪᎲᏍᏗᏍ	-11.5417
▁ᎢᎳᏯᏗ	-11.5418
▁ᏗᏧᎪᏔᏅ	-11.5418
ᏚᎢᏍᏔᏅᎢ	-11.5419
ᎦᏔᎲᏍᏔᏅ	-11.542
ᏅᏍᏔᏁᎢ	-11.542
▁ᎠᎧᎵ	-11.5423
ᏕᏨᏁᏍᏗ	-11.5424
ᏥᎳᏍᏓᎸ	-11.5427
▁ᎡᏈ	-11.5428
▁ᎤᏓᏙᎵᏍᏗᏳ	-11.5429
ᏥᎾᏫᏛ	-11.5429
ᏂᏍᏚᎢᏒᎩ	-11.5431
ᏲᏏᏍᎨ	-11.5431
ᏣᏛᎦᏁᎸ	-11.5433
▁ᎷᎦ	-11.5436
ᏣᏬᏍᏔᏂ	-11.5438
▁ᎾᎾᏛ	-11.5438
▁ᎡᏣᏗ	-11.5438
ᎧᎲᎦ	-11.5439
▁ᎬᎩᏁᎢᏍ	-11.5439
▁ᏚᏂᏔ	-11.544
▁ᏘᏏ	-11.5442
▁ᏥᏓᎵ	-11.5444
ᏲᎵᎦ	-11.5445
▁ᎦᎸᎳᏗᏍᎪ	-11.5453
ᎮᎲᎢ	-11.5455
ᎦᎾᎦᏘ	-11.5457
▁ᏓᎦᏛ	-11.5458
ᏣᏯᎠ	-11.5459
ᎯᎷᎩ	-11.5461
ᏒᎦᎸᎢ	-11.5463
ᏂᏅᏒ	-11.5463
▁ᏓᏂᎦᏔᎲ	-11.5465
ᎾᏓᏛᏛᏁᎢ	-11.5466
ᏆᎵᏥᏙᏅ	-11.5467
▁ᏣᏯ	-11.5469
ᏄᏬ	-11.5469
▁ᏂᏚᏪᏎ	-11.5469
▁ᏄᏬᎯᏳ	-11.547
ᏭᏓᎴᏎᎢ	-11.5471
▁ᎡᎯᏯ	-11.5472
▁ᎬᏩᏂᎪᎲ	-11.5481
▁ᎢᏥᏴᎸ	-11.5482
ᏱᎵᏙᎭ	-11.5484
▁ᎠᏥᏯᏂᏍ	-11.5484
ᏅᏩᏁᎢ	-11.5484
▁ᎣᎦᏚᎩ	-11.5491
ᎨᎪᏪᎶᏔᏅᎯ	-11.5491
ᎮᏛ	-11.5491
▁ᏗᏣᏛ	-11.5492
ᏓᏅᏓᏗᏍᏔᏅᎯ	-11.5493
▁ᎬᏩᏍᏓᏩᏗᏙᎮ	-11.55
▁ᏂᎨᏥᎳ	-11.5505
ᏍᎦᎶᏗᏱ	-11.5505
ᏂᏍᏓᏩᏕᏏ	-11.5506
▁ᎤᏐ	-11.5507
ᎦᎵᏍᏓᏗᏍᏗᏱ	-11.5509
▁ᏣᎷ	-11.5509
▁ᏫᏘᎦᏔᎲᏍ	-11.551
▁ᎢᏳᏍᏗᎭ	-11.5511
ᏓᎡᏏ	-11.5518
▁ᏂᎬᏅᎢ	-11.552
▁ᏭᎾᏕ	-11.5521
ᎳᏫᏎᎮᏍᏗ	-11.5521
ᏒᎮᎢ	-11.5525
▁ᏧᎵᏍᏚᎢ	-11.5529
▁ᎢᎩᏍᎦ	-11.553
▁ᎭᏫᏂᏳ	-11.5532
ᏃᎮᏗ	-11.5536
▁ᎤᎾᏂᏢ	-11.5543
▁ᏯᏉ	-11.5546
▁ᎤᎾᏙᏢ	-11.5547
▁ᏱᎦᎨᏎ	-11.5548
ᏂᏐᎯᏍᏗᏱ	-11.5552
ᏪᏎᎮᎢ	-11.5554
ᎾᏛᎩᏍᎪ	-11.5555
▁ᎤᎾᏙᎴᎰᏒᏃ	-11.5556
▁ᎦᎶᏗ	-11.5557
ᎷᎯᏍᏔᏅ	-11.5558
ᎬᏩᏗᏝ	-11.5558
ᎦᎫᏴᏓᏁᏗ	-11.556
▁ᏥᏚᎾᏚ	-11.5561
ᏤᎴᏍᏗ	-11.557
▁ᏧᎾᏛ	-11.5572
▁ᏕᎨᏥᏂᏌ	-11.5572
▁ᏓᏂᎧᎿᏩᏗ	-11.5574
ᏥᏍᏆᏂᎪᏔᏅᎯ	-11.5575
▁ᎠᎾᏡᏗᏍ	-11.5576
▁ᏗᎦᎫᏍ	-11.5578
▁ᎢᏤᎲᎩ	-11.5578
ᏥᎸᏉᏔᏅᎯ	-11.5579
ᏃᏛ	-11.558
▁ᎤᏴᎴ	-11.5581
ᏓᏅᏓᏗᏍᏗᏍᎩ	-11.5583
▁ᏍᎩᏰᎸ	-11.5583
ᎩᎷᎯᏍᏗᏱ	-11.5584
ᏄᎪᏤᎢ	-11.5586
▁ᎤᏂᏰ	-11.5587
▁ᏓᏳᏃ	-11.5591
▁ᏧᏂᎸᏫᏍᏓᏁ	-11.5592
▁ᎠᏟ	-11.5593
▁ᎠᏍᏆ	-11.5594
▁ᏓᏁᎰᎢ	-11.5597
▁ᏱᎪ	-11.5599
▁ᏕᏥᏲᎯᏎᎸ	-11.5602
ᎳᏁᎸ	-11.5605
ᎦᎵᎥᏂ	-11.5606
ᏁᎢᏍᏙᏗᏱ	-11.5607
ᎾᏄᎪᎨᏍᏗ	-11.5613
▁ᏚᎵᏃᎮᏔ	-11.5615
▁ᏲᏥᏂ	-11.5616
▁ᎥᎩᎸᏉᏗ	-11.5618
ᎠᎲᎦ	-11.5622
ᏳᏓᎴ	-11.5622
▁ᎢᏣᎴ	-11.5622
ᏰᎸᏁ	-11.5625
▁ᎬᎩᏍᎦ	-11.563
▁ᏄᏜ	-11.5631
ᎩᎡᏗᏱ	-11.5634
ᎲᏛ	-11.5643
ᎵᏃᎮᏔᏅᎩ	-11.5644
▁ᏕᏥᏅᎦᎵᏍ	-11.5646
ᏄᏪᏍᏗᏱ	-11.5646
ᏃᏍᎩᏒᎢ	-11.5647
▁ᏅᏓᎦ	-11.5648
▁ᎧᏁᏉᎨᏉ	-11.565
▁ᎤᎾᏟᏂᎬᏁ	-11.5655
ᏠᏯᏍᏙᏗ	-11.5656
▁ᏓᏍᎩ	-11.5657
▁ᎢᏤᎭ	-11.5657
ᎬᎪᎥᎩ	-11.5658
▁ᏤᏥᎾᏝ	-11.5659
ᎬᎥᏍᎬ	-11.566
ᎶᎥ	-11.566
ᎸᎮ	-11.566
ᎾᎵᏍᎪᎸᏗᏍᎬᎢ	-11.5662
▁ᏗᎬᏩᎾᏁᎶᏙᏗ	-11.5663
ᏥᏲᎱ	-11.5665
ᎾᏛᏓᏍᏔᏂ	-11.5665
ᎧᏂᏍᎬᎢ	-11.5668
▁ᎦᏓᏅ	-11.5671
ᏌᎳ	-11.5673
▁ᎤᏇᏓᎸᏉ	-11.5675
ᏓᎿᏍᏆᎶᏍᏗ	-11.5677
▁ᎢᏙᎯᏳᎲᏍ	-11.5679
▁ᏧᎦᎴᏅ	-11.5685
ᏕᏲᏅᎢ	-11.5686
ᏫᏨᏲᏪᎳᏁᎸᎩ	-11.5686
▁ᎠᏥᏍᏛᏗᏍᏙᏗ	-11.5686
ᏓᏓᏬᏍᎨ	-11.5687
ᎪᏎᎲᎩ	-11.5687
▁ᎤᎾᏛᏅᎢ	-11.57
ᎦᎸᎢ	-11.5705
ᏗᎦᏚᎲ	-11.5706
ᏛᏍᏆᎸᎯ	-11.571
ᏄᏩᏁᎸ	-11.5714
▁ᏂᏗᏣᏓ	-11.5718
▁ᎢᏥᎵᎾ	-11.5719
▁ᏗᏥᏅᎦᎸ	-11.572
▁ᎡᏣᏓᏙᎵᏍᏓ	-11.5721
▁ᎢᏥᎾᏄᎪᏫᏍ	-11.5721
ᏩᏛᎲᎾ	-11.5723
ᏂᏍᏆᏗᏍᏗᏱ	-11.5727
ᏃᏍᏛ	-11.573
▁ᎣᏣᏓᏙᎵᏍᏗᏍ	-11.5732
▁ᎤᎵᏍᏕᏍᏔ	-11.5733
ᏖᏃᎯ	-11.5737
ᏨᏙᏗᏱ	-11.5737
▁ᎢᏣᏕᏯᏔᏁ	-11.5738
▁ᏃᏣ	-11.5738
ᏓᏩᏗᏍᏙ	-11.5739
ᎧᏁ	-11.5742
ᏍᏇ	-11.5746
ᎨᏍᏗᏍᎩᏂ	-11.5746
▁ᎭᎵᎮᎵ	-11.5749
▁ᎤᎾᏁ	-11.575
ᏐᏢᏙᏗ	-11.5753
ᎴᏈ	-11.5753
▁ᎢᎤᏪᏅᏎ	-11.5757
ᏍᎦᏅᎬ	-11.5757
▁ᏩᎪᏩᏛ	-11.5757
ᎦᎵᏦᏛ	-11.5762
▁ᎠᎩᏁᏤᎸ	-11.5762
▁ᏱᏥᏍᏆᏂᎪ	-11.5765
ᏓᏓᏲᎯᏎ	-11.5768
ᏴᎵᎸ	-11.577
▁ᏯᏆᏓᏅᏓᏗᏍ	-11.5771
▁ᎦᎨᏥᏐᏢᏗᏍ	-11.5771
▁ᏣᎧᎵᎢ	-11.5774
▁ᏧᏅᏕ	-11.5776
ᏙᏓᏇ	-11.5776
▁ᎤᏲᎯᏍᏔᏁ	-11.5777
▁ᎦᎴᏂᏙᎲ	-11.5778
▁ᏥᎪᏪ	-11.5779
ᏛᏓᏍᏓᏁᎯ	-11.5787
ᏂᎢᏛ	-11.579
▁ᎤᎾᏣᏅ	-11.5794
▁ᎣᎩᎲ	-11.5796
▁ᏥᏰ	-11.5802
▁ᎤᏂᏨ	-11.5803
▁ᏗᏠᎯᏍᏙ	-11.5811
▁ᎠᎦᏘ	-11.5812
▁ᎤᏕᎴ	-11.5814
ᏫᎾᎨ	-11.5815
ᏓᏗᏍᎪᎢ	-11.5822
ᏥᏍᏛᏗᏍᏙᏗ	-11.5822
ᎭᏝ	-11.5822
ᏍᏗᏍᎬᎢ	-11.5827
▁ᎤᏪᏅᎡ	-11.5834
▁ᏣᏛᏅᎢᏍᏗ	-11.5836
ᎵᏖᎸᎲᎦ	-11.5837
ᏥᎵᏦ	-11.5838
ᏓᏛᏂᎯ	-11.5839
ᎵᎪ	-11.5839
ᏣᎦᎸ	-11.5842
▁ᏗᎨᎦᏟᎶᏍ	-11.5843
▁ᎤᎾᏠᎾᏍ	-11.5851
▁ᎤᏛᏗᏕ	-11.5851
▁ᏔᎫᏴᎡ	-11.5854
▁ᎤᎾᎵᏍᏓᏴ	-11.5854
ᏣᏓᏑᏰᏍᏗ	-11.5855
▁ᎤᏔ	-11.5856
▁ᏓᏓᎯ	-11.5857
ᎳᏕᎢ	-11.5858
ᏥᏯᏅᎲ	-11.5858
▁ᏗᏥᏅᏒ	-11.5862
ᎾᏢᏆ	-11.5863
▁ᎣᏥᎪᎥ	-11.5864
▁ᏭᎾᎦᏔᎲᏍᏔᏅ	-11.5866
ᏲᏍᏔᏃ	-11.5867
▁ᏱᏂᏨᏁ	-11.5869
ᏣᏕᏲᎲᏍᎩ	-11.5869
ᎨᎳᏗᏙᎭ	-11.5869
▁ᏳᏔᏲᏎ	-11.587
▁ᎠᏥᎪᎵᏰᏍᎬ	-11.5878
▁ᎤᏁᏙᎴ	-11.5879
ᎸᏎ	-11.5881
▁ᏯᏛ	-11.5884
▁ᏗᎦᏘ	-11.5884
▁ᏭᏗ	-11.5885
▁ᏥᏄ	-11.5891
▁ᎠᏲᏍᏙᏗ	-11.5892
ᏣᏓᏑᏯ	-11.5893
ᎫᏓᎴᏒ	-11.5893
▁ᎪᎯᏳᏙᏗ	-11.5905
ᎵᏃ	-11.5906
▁ᎠᏰᎳᏍᏗᏃ	-11.591
ᎪᎵᏰᏍᎬᎩ	-11.591
ᎪᎲᏍᏔᏅ	-11.591
ᎵᏙᎲᎢ	-11.5911
ᏣᏯᏅᏛ	-11.5912
▁ᎲᎾ	-11.5917
ᎶᏍᎨᏍᏗ	-11.5923
ᏘᎾᏫᏗᏍ	-11.5923
ᏆᏒᎦᎸ	-11.5924
ᏦᎢᏳᏒ	-11.5925
▁ᏥᎦᎳ	-11.5926
ᏁᏟᏴᏒ	-11.5928
ᎬᏗᏍᎬ	-11.5933
ᏴᏢ	-11.5937
▁ᎢᏥᏁᎸ	-11.5939
▁ᏕᏥᎧ	-11.5942
ᏩᏘᎭ	-11.5949
ᏓᎢᏅᏒᎩ	-11.5949
ᏂᏲᎱᏎᎸᎯ	-11.595
ᏴᎴᎢ	-11.595
▁ᎤᎾᏤᎵᏛ	-11.5955
▁ᎬᏩᏲᏍᏙ	-11.5957
▁ᎠᏤᎸᏍ	-11.5961
▁ᎢᏤᏙᎲ	-11.5963
ᏓᏅᏒᎩ	-11.5963
ᏔᏲᎯᎭ	-11.5963
▁ᏗᏍᏆᏂᎪᏛ	-11.5964
▁Ꮰ	-11.5966
▁ᎢᏥᏯᏅ	-11.5969
▁ᎢᏥᏗᏱ	-11.5972
▁ᎡᏥᏲ	-11.5977
ᏂᏴᎯ	-11.5977
ᎬᏁᎰ	-11.5982
▁ᎡᏥᎩᎵᏲᎢᏍᏗᏍ	-11.5984
▁ᎡᏨ	-11.5986
▁ᏱᎾ	-11.5987
▁ᏗᏠᎯᏍ	-11.5988
▁ᎠᎦᏛᏗ	-11.5989
▁ᎠᏨ	-11.599
ᏓᎴᏅ	-11.5995
ᏂᏍᎦᎢᎲ	-11.5998
▁ᏧᎸᏌᏓ	-11.6008
ᏲᎱᎯᏎᎴᎢ	-11.6008
▁ᏕᎦᏬ	-11.6009
▁ᎦᏃᏍᎩ	-11.6009
ᎻᏱ	-11.6012
▁ᏁᏣᏛᏁ	-11.6012
▁ᏥᏍᎩᏯ	-11.6016
ᏯᏛᏁᏗᏱ	-11.6016
ᏂᎦᏙᎥᏒ	-11.6019
▁ᎢᏣᎵᏍ	-11.6019
▁ᎢᎩᏲᎱᎯᏎᎴ	-11.602
▁ᏄᎵᏂᎬ	-11.6023
▁ᎣᎦᏚᏓ	-11.6024
▁ᏚᏲᎴ	-11.6026
ᏲᏒ	-11.603
ᏲᏅᎯ	-11.603
ᏥᏯᎠ	-11.6031
▁ᎤᎬᏫᏳ	-11.6031
▁ᎠᏂᎨ	-11.6033
ᏚᎾᏛ	-11.6039
▁ᎢᏣᏍᏗ	-11.6042
▁ᎡᏏ	-11.6042
ᏱᎵᏙᎸ	-11.6044
▁ᎨᏥᏅᎦᎵᏍ	-11.6047
▁ᎬᏩᏁᏤ	-11.6051
▁ᎤᏂᏍᎦᎸ	-11.6053
ᏗᎦᏔᎭ	-11.6055
▁ᏗᎦᏲᏥᏁ	-11.6055
▁ᎤᏗᎦᎵᏍᏙᏗᏍᎨ	-11.6055
▁ᎤᎾᎵᏐᏢᎢᏍ	-11.6057
▁ᏓᏂᏅᎨ	-11.606
▁ᎧᏃᎯᏰ	-11.6062
▁ᏕᏣᎵᏂᎪ	-11.6064
ᏅᎪᎣᏒ	-11.6072
▁ᎤᏃᏒ	-11.6072
ᏅᏁᎸᎩ	-11.6073
▁ᎢᏥᎷᏤ	-11.6074
▁ᎠᏕ	-11.6074
▁ᎨᎳᏍᏗ	-11.6075
ᎵᏍᎪᎢ	-11.6076
ᏍᎩᎪᏩᏛ	-11.6093
▁ᎤᏂᏍᏚ	-11.6093
▁ᎤᏓᎴᏅ	-11.6094
ᎸᏎᏍᏗ	-11.6102
ᏥᏁᎪᎢ	-11.6103
ᏓᏓᏂᎸᎪ	-11.6108
ᏂᎾᏕᎩ	-11.6114
▁ᏧᎾᏓᏡᎬ	-11.6114
▁ᎢᏳᎾᎵᏍᏓᏁ	-11.6114
ᎲᎬ	-11.612
ᎦᎴᏂ	-11.6134
▁ᎢᏥᎨᏳ	-11.6139
ᏂᏔᏲᏎᏗᏱ	-11.6143
▁ᏥᎾ	-11.6145
▁ᏓᏂᏄᎪᏫᏍ	-11.6147
▁ᎢᏥᎾ	-11.6147
▁ᏗᏣᏓᏙᎵᏍᏓᏁ	-11.615
ᏩᏛᎡᎲᎢ	-11.6151
▁ᎢᎩᎾᏄᎪᏫᏎᎸ	-11.6154
▁ᎬᏩᎸᎸ	-11.6155
▁ᏕᎨᏥᎾᏝ	-11.6156
▁ᏑᏓᎴᎩᏉ	-11.6159
ᏁᏓᏍᏗ	-11.616
ᎵᏍᎬᎩ	-11.6162
ᎳᏯ	-11.6163
ᏪᎶᏗ	-11.6177
ᏛᏅ	-11.618
▁ᏱᏍᎩᏯ	-11.6181
ᎫᏢᏗ	-11.6184
▁ᎡᏥᏅᏁ	-11.6186
ᏍᏛᏗᏍᎨᏍᏗ	-11.6188
ᏣᎴᏅᎲ	-11.6188
▁ᎤᎶᏐᏁ	-11.6195
ᎶᏄᎮᏔᏅᎩ	-11.6198
▁ᏚᏂᏢ	-11.62
▁ᏧᏪᏙᎵᏍᏗ	-11.6202
▁ᏁᎰ	-11.6204
ᎩᎷᏤᎭ	-11.6204
ᏍᏓᏱᏗ	-11.6206
ᏳᏰᏃ	-11.6209
ᏛᏁᎯ	-11.6212
ᎸᏍᎪᎢ	-11.6212
▁ᏓᎦᏄᎪ	-11.6212
▁ᏚᏂᏲᏒ	-11.6213
ᏣᏓᏅᏔ	-11.6217
▁ᏧᏄᎪᏤ	-11.6219
ᏂᏴᏗᏱ	-11.6219
ᏢᎯ	-11.622
ᏚᎾᏓᏂᎸᏨ	-11.6222
ᎪᎯᏳᎲᏍᎪᎢ	-11.6224
▁ᎢᏯᎦᏛᏁ	-11.6228
ᏍᏓᏱᏕ	-11.6229
ᏖᎸᎲᏍ	-11.6233
ᏪᏅᏎ	-11.6234
▁ᏧᏛᎯ	-11.6236
▁ᎤᏅᎪ	-11.6239
▁Ꮙ	-11.6239
▁ᎨᎦᏓᏅᏖᏍᎨ	-11.6244
ᎩᎵᏲᏥᏙᎲ	-11.625
▁ᎯᏍᎫᏕᏍ	-11.6252
ᏅᏍᏙᏒ	-11.6253
ᎦᏓᎨᏳᏎᏍᏗ	-11.626
▁ᎢᏥᎷᏤᎲ	-11.6261
▁ᎤᎾᎩᎸᏔ	-11.6267
▁ᎬᏗᏏ	-11.6267
▁ᏴᎬᎾ	-11.6268
ᏠᏂ	-11.6269
▁ᏱᎦᏄ	-11.6271
▁ᎢᏣᏓᏁᎸ	-11.628
ᏁᏢᏙᏗᏱ	-11.6282
▁ᎦᎵᏍᏓᏴᎲᏍᎬ	-11.6284
▁ᎭᏫ	-11.6285
▁ᏭᎾᎦᏔᎲᏍ	-11.6291
▁ᏄᏓᎴᏒᎢ	-11.6292
▁ᎤᎾᎴ	-11.6293
▁ᎡᎹ	-11.6303
▁ᎠᎾᏚᏓ	-11.6303
ᎹᏱ	-11.6308
▁ᎢᏤᏯᏔᎯ	-11.631
ᏥᏁᏤᎰᎢ	-11.6311
▁ᏴᎾ	-11.6312
▁ᎤᏓᏙᎵᏍᏔᏅᏎ	-11.6312
ᏓᏱᎮᏍᏗ	-11.6313
▁ᏫᏄᏕ	-11.6313
ᏍᎪᏂᎦ	-11.6318
ᏣᏓᎵᏁᎯᏕ	-11.6319
ᏲᎯᏎᏗ	-11.6322
▁ᎢᏍᏛᏯ	-11.6325
ᏏᏌ	-11.6327
ᏥᏍᏢ	-11.6342
ᏓᏕᎵᏎ	-11.6342
▁ᎢᏤᏙᎯ	-11.6344
▁ᎡᏣᏍᏕᎸᏗ	-11.6345
ᏃᎮᏛ	-11.6346
ᎨᏳᏒ	-11.6347
▁ᏥᏚᎷ	-11.6348
▁ᎨᏥᏲ	-11.6354
▁ᏘᎧᎿᏩ	-11.6355
ᏂᏓᏍᏗ	-11.6355
▁ᎦᏰᏥᏙ	-11.6358
▁ᏓᎨ	-11.6359
▁ᎤᎵᏂᎪᏍᎬ	-11.6364
ᏍᏆᏂ	-11.6365
▁ᎭᎴ	-11.6365
▁ᎢᏥᏂᏆᏘ	-11.6366
ᏚᏩᏛᎲ	-11.637
▁ᎣᏥᏁ	-11.6371
ᏓᎵᎢ	-11.6373
▁ᏫᏳᎶ	-11.6374
▁ᏒᎲ	-11.6377
ᏓᏘᏁᏗ	-11.6378
ᎵᏂᎪᎯᏍᏗᏍᎨᏍᏗ	-11.6378
ᏰᎵᏏ	-11.6379
▁ᎯᎦᏔᎯ	-11.638
ᏥᏁᎢᏍᏓ	-11.6382
▁ᏕᏧᎪᏗᏍ	-11.6384
▁ᏂᎨᎬᏁ	-11.6384
ᏕᎰ	-11.6387
ᎬᏩᏛᏅᎩ	-11.6389
▁ᎣᏥᏃᎮ	-11.6393
ᎬᏙᏗ	-11.6396
ᏜᏗᏍ	-11.6397
ᏣᏄᏬᏍᏗᏱ	-11.6399
ᏚᏃᏴᎬ	-11.6401
▁ᏴᎬᏅ	-11.6403
ᎭᎻ	-11.6404
▁ᏧᏃᎮᎴ	-11.6405
ᏰᎸᏅ	-11.6407
▁ᎤᏛᏛ	-11.6409
▁ᎠᏇᎲ	-11.6412
▁ᎠᏁᏢᏗᏍ	-11.6416
▁ᏓᏂᎵ	-11.6417
ᏨᎾ	-11.6418
▁ᎤᏂᏰᎸᏐ	-11.6419
ᎵᏥᏙᎲ	-11.642
▁ᏂᎬᏅᎩ	-11.6421
▁ᎠᏆᏗ	-11.6421
ᏤᎿᎢ	-11.6424
ᏥᎦᏔᎮᏍᏗ	-11.6425
ᎷᏨᎭ	-11.6428
ᏬᏍᏔᏂ	-11.6434
▁ᎠᏂᏔᏲᎯ	-11.6436
▁ᎤᏁᎵ	-11.6437
ᏣᏍᎦᏅᏤᎮᏍᏗ	-11.6439
▁ᏱᎦᎷ	-11.6442
▁ᎠᎪᎵᏰᏍᎨ	-11.6447
ᎣᏒ	-11.6451
ᎦᎵᏍᎪᎸᏓᏁᎸᎯ	-11.6463
ᏪᎧᎮᏍᏗ	-11.6464
ᏣᏓᎸᏉᏗᎭ	-11.6465
▁ᎤᏁᏤᎸ	-11.6467
ᎷᎬᎩ	-11.647
ᏒᏍᏛ	-11.6471
▁ᎤᏂᏲᎢᏎ	-11.6473
ᎸᏍᎨᎢ	-11.6473
ᎯᏯ	-11.6476
▁ᏫᏕᏓ	-11.6479
ᏕᏥᏁᎭ	-11.6479
ᏢᏫ	-11.648
ᏞᏛ	-11.6483
ᏰᎢᎵᏙᎲᎢ	-11.6485
ᎭᎸ	-11.6486
▁ᎣᎦᏓᏙᎵᏍ	-11.649
ᎵᏦ	-11.6491
▁ᏱᏗᏣᏠᏱ	-11.6499
ᏗᎦᎴᏲᏨᎯ	-11.6499
ᏥᏬᏂᏍᎬ	-11.651
ᏓᏛᏅᎢᏍᏓ	-11.6511
▁ᎦᎨᏥ	-11.6511
▁ᎠᎾᏟᏂᎬᏁ	-11.6513
ᏰᎸᎾᏁᎲ	-11.6514
ᏄᎪᎢ	-11.6519
ᏥᏩᏛᎮ	-11.6528
ᏄᎮᎵ	-11.6529
▁ᎤᏂᏂᏴᎲ	-11.653
▁ᎢᏣᏓᏅ	-11.6533
ᎦᏔᎿᎥᎾ	-11.6534
ᎠᏐᏢᎢᏍᏗᎭ	-11.6536
ᏩᏕᎦᏍᎩᏂ	-11.6537
▁ᎤᏁᎳᏫᏎᎲ	-11.6538
▁ᏗᎨᎪ	-11.6545
ᏪᏎᎵ	-11.6545
ᏛᎾᎵᏍᏓᏴ	-11.6551
ᏂᏌᏁᎢ	-11.6554
ᎵᎢ	-11.6554
▁ᏥᎨᏥᏍᏕᎸ	-11.6555
▁ᎢᏣᏓᏅᏔᏩᏕ	-11.6557
ᏩᏂᎸᎩ	-11.6558
▁ᎠᏂᏴᏓᏆ	-11.6559
ᏴᎲᎭ	-11.6559
ᏗᏕᎬ	-11.6562
▁ᎤᎵᏍᏙᏰ	-11.6562
▁ᏚᎦᏔᎲ	-11.6563
▁ᏘᏅ	-11.6569
ᎦᏛᏅ	-11.6569
ᎯᏍᏔᏅᎩ	-11.6572
▁ᎠᏓᎨᏳᏗᏰᏃ	-11.6575
ᏣᎦᎸᎮ	-11.6575
ᏯᏔᎮᏍᏗ	-11.6579
ᏛᏁᎸᎯ	-11.6583
▁ᎡᏥᏍᎦ	-11.6587
▁ᎤᏃᏍᎩ	-11.6593
ᏝᏗᏍᏔ	-11.6594
ᏂᏕᎬᏁᎭ	-11.66
▁ᏕᏥᏄᎪᏫᏍ	-11.6601
▁ᎨᏥᏃᎮ	-11.6602
ᎦᏁᎭ	-11.6603
▁ᏪᎮ	-11.6606
ᏫᏎᎸᎯ	-11.6607
ᎪᏓᏁᎯ	-11.6614
ᎵᏍᏗᏍᎬ	-11.6616
▁ᏗᎩᎦᎨ	-11.6619
ᎵᏓᏍᏔᏅᎯ	-11.6619
ᎦᎵᏍᎪ	-11.6619
▁ᏗᏓᏙᎵᏍᏓᏁ	-11.6629
▁ᏔᎴ	-11.6637
ᎪᏛᎢ	-11.6638
▁ᎣᎦᏠᎾᏍ	-11.6638
ᏪᏗ	-11.664
▁ᎨᏣᎴ	-11.6641
ᎥᏃ	-11.6641
▁ᎤᏓᎵᏍᎪᎸᏔᏅ	-11.6643
ᏄᎵᏍᏔᏁᎢ	-11.6644
ᏍᏚᏟᏍ	-11.6644
ᏆᎵᏂᎪᎯᏍᏔᏅ	-11.6646
ᏛᏁᎴᎢ	-11.6651
▁ᎤᏲᏞ	-11.6652
ᏓᎴᏍᎨᏍᏗ	-11.6654
ᎩᏍᏗ	-11.6654
ᏟᏏᏍᎪᎢ	-11.6665
ᏥᏁᏤᎸ	-11.6666
▁ᎤᏛᏂᏛ	-11.6669
ᏥᏰᎸᎾ	-11.6671
▁ᎦᎶᏁᏛᏍᎪ	-11.6674
▁ᎤᎨᏳ	-11.6675
▁ᏤᏥᏲ	-11.6677
▁ᏲᏥᏩᏛ	-11.668
▁ᎧᏂ	-11.6683
▁ᎨᎦᏑᏴ	-11.6684
▁ᎢᎩᏅᎦ	-11.6685
▁ᏂᏙᏓ	-11.6694
ᏍᏕᎸᎯᏙᎯ	-11.6695
ᎵᎥᏂᎸᎩ	-11.6698
ᏍᏓᏩᏙᎸᎯ	-11.6702
ᏗᏙᎵᎩ	-11.6702
▁ᎠᏓᏂ	-11.6703
▁ᎣᎩᏰᎸ	-11.6704
ᏰᎵᎯᏍᏗ	-11.6705
▁ᏳᏪ	-11.6705
▁ᎬᏬᎵᏍᏗ	-11.6709
ᏯᎡᎢ	-11.6709
ᎾᏂᏢᏗᏱ	-11.6712
ᎦᏛᏁᏗ	-11.6718
▁ᏲᎩᏂ	-11.6719
▁ᎬᏬᎯᏳᎯ	-11.6721
ᏛᏆ	-11.6722
ᏙᏛ	-11.6725
ᏓᎵᏍᏓᏏ	-11.6726
▁ᏗᏓᏘ	-11.673
▁ᎤᎾᎵᏥᏙᏁ	-11.6731
ᏲᎱ	-11.6732
ᎪᏗᏍᎩ	-11.6733
ᎯᎰᏉ	-11.6735
▁ᏗᎧ	-11.6742
ᏥᏧᏏ	-11.6746
ᏥᏁᎴ	-11.6748
ᏤᎿᎢᏳ	-11.6749
▁ᏥᎨᏒᎢ	-11.6749
▁Ꮯ	-11.6751
▁ᎠᏆᎵᏍᎪᎸᏔᏅ	-11.6754
▁ᏣᎦᎨᏅ	-11.6761
▁ᏥᏲᎢᏳᏗ	-11.6763
▁ᏱᏄ	-11.6767
▁ᎭᎸ	-11.6767
▁ᏱᏂᏣᏛᏁ	-11.6772
▁ᎣᏣᎵᏥᏙᎲᏍ	-11.6773
▁ᏦᎩᏰᎸ	-11.6774
ᏣᏤᎵ	-11.6779
▁ᏥᎧᏁᎢᏍᏗ	-11.6781
ᏣᎢ	-11.6781
ᏣᎨᏅᏴ	-11.6784
ᎵᏃᎯᏰᎯ	-11.6788
ᎪᏓᏁᎸ	-11.6791
ᏥᏄᎪᏫᏍᏗᏱ	-11.6794
ᎬᏂ	-11.6796
▁ᏣᏍᏕᎵᏍ	-11.6799
ᏂᎦᏪᏍᎬᎩ	-11.68
ᏩᏗ	-11.6801
▁ᏂᏙᏓᏳᏅ	-11.6802
ᏄᎯ	-11.6807
▁ᎠᏂᏲᏍᏗᏍ	-11.6808
▁ᏥᏍᏕ	-11.6809
ᏕᎮᏍᏗ	-11.6811
ᎧᏃᏗᏱ	-11.6817
▁ᏧᏬᏢ	-11.6819
ᎡᎮᏍᏗ	-11.682
▁ᏄᎪ	-11.682
ᎫᏴᎲ	-11.6821
▁ᏭᎾᎵᏱᎶ	-11.6828
▁ᎬᏬᏎ	-11.6833
▁ᏕᏥᎳᏫ	-11.6836
▁ᏓᏂᏬᏂ	-11.6837
▁ᏄᏍᏙ	-11.6838
▁ᎤᏂᏌᏛ	-11.6839
▁ᎠᏂᎧᎲᏍ	-11.6843
ᎦᏓᏅᏔ	-11.6848
▁ᏧᏛ	-11.6848
▁ᏣᏍᎫᏕᏍᏗ	-11.6851
▁ᏨᏤ	-11.6855
▁ᎠᎻ	-11.6856
▁ᎤᏬᎯᏳᏁ	-11.6861
ᏘᎿᏫᏛᎲᎩ	-11.6863
ᏕᏲ	-11.6863
ᏅᏢᎢ	-11.6863
▁ᏂᏚᏂᎸᏉ	-11.6865
ᏣᏛᏅᎢᏍᏓ	-11.6873
ᏓᏂᏍᎫᏓᏛ	-11.6877
▁ᏯᏇᎵᏎ	-11.6894
ᏥᏲᎵᎭ	-11.6894
ᎦᏓᏅᏖᏗᏱ	-11.6896
ᏏᏐᏗᏱ	-11.6901
ᎿᏕᎬᎢ	-11.6904
▁ᏥᎬᏚ	-11.6904
ᏘᏰᎢ	-11.6904
▁ᏫᏣᏕ	-11.6905
ᎵᏂᎬᏁᎭ	-11.691
ᏚᎪᏄᎶ	-11.6911
ᏗᎶᎻ	-11.6912
▁ᎦᏴ	-11.6912
▁ᏕᎤᏲᎯᏎ	-11.6914
▁ᏗᎦᏅ	-11.6916
▁ᎤᏂᎩ	-11.6918
▁ᎢᏣᏓᏄᏴ	-11.692
▁ᏥᏍᎫᏕᏒ	-11.6921
▁ᏱᏚᏲᎱᎯ	-11.6924
ᏍᏕᏙᎲ	-11.6926
▁ᏂᎬᏩᏛᏁ	-11.6926
ᎯᎭ	-11.6928
ᏂᏔᏲᎴᎢ	-11.693
▁ᎢᎨᎲ	-11.6932
ᎬᏍᎪᎸ	-11.6932
ᎦᎵᏍᏓᏗᏍᎩ	-11.6935
▁ᎢᎤᎾᏨᏎ	-11.6935
ᏥᎸᏉᏗ	-11.6938
▁ᏕᎧᏅᏫᏍ	-11.6944
▁ᎡᏧᎢᏍᏗ	-11.6945
▁ᎬᏩᏓᏡᏫᏍᏔ	-11.6947
▁ᏣᏥᏍᏚ	-11.6949
▁ᎡᏥᏩ	-11.695
▁ᏣᏄᏬ	-11.6957
ᏨᎪᎥ	-11.6963
ᏩᏛᏛ	-11.6964
▁ᏓᎦᎾᏄᎪᏫ	-11.6967
ᎾᏍᎩᏂ	-11.6975
ᏙᎴᎰᎯ	-11.6976
ᎩᏐᏢ	-11.6981
ᎨᏒᎩ	-11.6986
▁ᎤᎷᏥ	-11.6989
▁ᎠᏥᏄᎪᏫᏒ	-11.6991
ᎾᏚᎪᏓᏁᏗ	-11.6996
ᏥᏔᎳᏬᏍ	-11.7
ᏳᏒᎾ	-11.7002
▁ᏕᏣᏘᏂ	-11.7002
ᏓᎳᎩ	-11.7004
ᏍᏓᏩᏗᏒ	-11.7005
ᏕᎰᎯ	-11.7012
ᏚᏓᏕᏫᏍᏛ	-11.7016
ᎵᏍᏚᎢᏎᎢ	-11.7017
ᎨᎫᎪᏓᏁ	-11.7018
▁ᎢᏍᎪ	-11.7022
▁ᏂᎦᎵᏍᏙᏗᏍᎨ	-11.7028
ᎬᏪᏎᎸᎩ	-11.7029
▁ᏂᏙᏛ	-11.7031
ᎴᎪ	-11.7031
▁ᎠᏥᎧᏅ	-11.7032
▁ᎯᏃᏁᎸ	-11.7036
ᏛᎩᏍᎬᎢ	-11.7037
ᏂᎷᏤᎸᎩ	-11.7038
▁ᏚᎪ	-11.7038
▁ᎤᎵᏍᎪᎸᏓᏁ	-11.7039
ᏅᎾᏏ	-11.7041
ᏗᏕᏂ	-11.7041
▁ᎠᏆᏓᏅᏖ	-11.7043
ᏯᏲᏍᏗ	-11.7053
▁ᏭᏪᏙ	-11.7055
▁ᏂᏤᏪ	-11.7055
ᏌᎳᏙᏗᏱ	-11.7059
▁ᏥᏂᏣ	-11.7062
▁ᏱᏥᏲᏍ	-11.7062
ᏰᎢᎵᏓ	-11.7063
ᎪᏩᏗᏍᎬ	-11.7067
ᏑᏰᏎᎢ	-11.7067
▁ᏱᎧᏁᏉ	-11.707
ᏥᎷᏥ	-11.7071
ᎵᎮᎵᏍᏙᏗ	-11.7073
ᏴᏑ	-11.7078
ᏍᏓᎵ	-11.7087
ᏴᎸᎾ	-11.7089
ᎾᏗᏫᏎᏗ	-11.709
ᎴᏅᏔᏅᎩ	-11.7094
ᏅᎲᎩ	-11.7101
▁ᎬᏩᏍᏚ	-11.7104
ᏣᏗᎴ	-11.7106
▁ᏥᎬᏅ	-11.7106
ᏂᏨᏪᏏ	-11.7112
ᏣᏟᎶᏍᏙᏗ	-11.7114
ᏯᏪᏐᎸ	-11.7115
ᏥᏍᏓᏩᏕᎩ	-11.7119
ᏥᏎᎪᎩ	-11.7123
ᏂᎬᏎᎲ	-11.7125
ᏯᏏ	-11.7127
▁ᎦᎸᎢ	-11.7131
▁ᎠᏁᏯᏔ	-11.7132
▁ᎦᏥᏃᏁ	-11.7133
ᏥᎧᎲ	-11.7135
ᎩᏯᏅ	-11.7137
▁ᏘᏯᏙ	-11.7139
ᎦᏠᏯᏍᏗ	-11.7148
▁ᏧᎾᏂᏏ	-11.7148
ᏅᏒᎾ	-11.7148
▁ᎠᎩᏯ	-11.715
▁ᏧᏬᏎ	-11.7156
▁ᏱᎦᎸᏉᏗ	-11.7157
ᏖᏍ	-11.7161
▁ᎢᏥᏴ	-11.7166
ᏆᏓᏂ	-11.7168
▁ᎠᎵᏥᏙᏂᏙ	-11.7174
▁ᏭᎷᎯᏍᏗ	-11.7185
ᏥᎪᏩᏘᏍᎬᎾ	-11.7188
▁ᎤᏂᎨ	-11.7191
ᎨᏎ	-11.7191
▁ᏚᎬᏍᎪᎸ	-11.7192
▁ᏣᏓᏅᎦᎸ	-11.7193
▁ᎤᏌᏛ	-11.7194
▁ᏫᎩᏴ	-11.7201
ᎴᎩ	-11.7208
▁ᎬᏩᏡᏗᏍ	-11.7212
▁ᎬᏛ	-11.7215
ᎾᎯ	-11.7217
ᎩᎦᎨ	-11.7219
▁ᏧᏪᏰᏍᏗ	-11.7222
▁ᎠᏢᏈᏍ	-11.7225
ᏚᏣᎳᏁ	-11.7226
ᏂᎶᎯᏍᏗᏱ	-11.7227
ᏱᎰᏩ	-11.7227
▁ᏕᏥᏁ	-11.7231
▁ᎤᏂᏍᏆᏂᎪᏔᏅ	-11.7234
▁ᎠᎨᎳ	-11.7236
▁ᎠᏲᏍᏗ	-11.7238
▁ᎤᏂᏰᎸ	-11.724
ᏰᎲᎩ	-11.724
▁ᏗᏦᎯᏳ	-11.7242
▁ᎤᏂᏔᏲ	-11.7242
ᏙᎣ	-11.7244
ᏓᎸᏍᏛᎩ	-11.7244
ᎦᎨ	-11.7246
▁ᏥᏓᎾ	-11.7249
ᎾᏛᏁᎭ	-11.725
▁ᏯᏓ	-11.7252
▁ᏓᏯᏙᎮ	-11.7253
▁ᏭᏕ	-11.7254
ᎦᏕᏲᎲᏍᎦ	-11.7254
ᏥᏁᎢᏍᏗᏍᎨᏍᏗ	-11.7254
ᏃᏪᎳᏁ	-11.7257
ᏦᎢ	-11.7261
ᏥᏲᎵ	-11.7262
▁ᏣᎪᏎ	-11.7266
ᎦᎶᏍᎬᎢ	-11.7267
▁ᎤᎵᏍᏆᏂᎪᏙ	-11.7269
▁ᎢᏥᏪᏍ	-11.7273
▁ᎤᏂᏱᎵᏙ	-11.7274
ᏯᏙᎯᎯ	-11.7275
▁ᎤᏂᏔ	-11.7279
▁ᎡᏙᎰ	-11.728
▁ᎬᎩᎦᏔ	-11.7281
ᏬᏍᎪᎢ	-11.7286
ᏓᏨᏯᏍᏗᏍᎩ	-11.7288
▁ᏂᎦᏪᏎᎴ	-11.7288
ᏲᎯᏍᏗᏱ	-11.7304
ᎾᎾᏛᏁᎰᎢ	-11.7305
▁ᎣᎩᏁᎸ	-11.7309
ᎵᏯᏍᏚ	-11.731
ᏂᏣᏛᏅ	-11.731
▁ᎠᎩᏍᏕᎸ	-11.7319
ᏂᎷᎩ	-11.7321
ᏥᎪᎵᏰᏗᏱ	-11.7322
ᏂᎸᏫᏍᏓᏁᎲᎢ	-11.7328
▁ᏕᎭᏓ	-11.7329
▁ᎣᏌ	-11.7333
▁ᎢᏣᏙᎴᎰᏍ	-11.7341
ᎦᎵᏍᏓᏛ	-11.7342
▁ᎤᏂᎸᏉᏙ	-11.7342
▁ᎤᏂᎦᏙᎥᎯᏍᏗ	-11.7343
▁ᎠᎵᏍᏓᏴᏗᏍᎪ	-11.7344
▁ᏂᏑᏪᏎ	-11.7345
ᏩᎭ	-11.7351
▁ᏱᏂᏨ	-11.7353
ᏓᏓᎵᏁᎯᏕ	-11.7353
▁ᎣᎦᏢᏈ	-11.7353
▁ᎢᏲᎬᏁ	-11.7357
▁ᏗᎨᎩ	-11.7358
ᎤᏓᏅᏒ	-11.737
ᎪᏆᎵ	-11.7371
ᏍᎬᏰᏃ	-11.7374
▁ᏁᎳ	-11.7374
▁ᏱᎾᎾᏛᏁ	-11.7378
ᏗᏥᏯᏪ	-11.7379
ᏗᎵᏍᏓᏴᏗᏱ	-11.7382
▁ᏣᏃᏎ	-11.7384
ᏃᎯᏯᏍ	-11.7388
ᏴᎡᎵ	-11.7389
▁ᎢᏍᏓᏛᏅ	-11.7392
▁ᎠᎦᎸ	-11.7392
▁ᏗᏄᏪ	-11.7393
▁ᎠᏆᎵ	-11.7394
▁ᎤᏂᏍᏆᏂᎪ	-11.7398
▁ᏥᏓᏕᏲᎲᏍ	-11.7399
ᎩᎪᎵᏰᎭ	-11.7406
ᎩᏍᏕᎸᎯᏙᎸ	-11.7406
ᎧᏅᎩ	-11.7408
▁ᏂᏍᏓᏛᏁ	-11.7408
ᎾᏙᏢ	-11.741
ᏍᏉᏎ	-11.7411
ᎣᎨᏅ	-11.7413
ᏚᎸᎲᎩ	-11.7418
▁ᏕᎨᏥᎸ	-11.7422
ᏗᏉᏍᎩᏂ	-11.7422
ᏙᏗᏉ	-11.7422
ᎠᎩᎪᏩᏛᏗᏱ	-11.7423
▁ᏱᎶ	-11.7423
▁ᎾᏯᏛ	-11.7426
▁ᏚᎾᏓᎸ	-11.7428
▁ᏫᏚᏂᏴ	-11.7432
ᏍᏕᎸ	-11.7434
ᏂᎶᏍᎬ	-11.7434
ᏣᏍᏆᏂᎪᏙᏗᏱ	-11.7436
▁ᎠᏓᏅᏖᎵᏙᎲ	-11.7442
ᏗᏫᏏ	-11.7455
▁ᎢᏣᏟᏂᎬ	-11.7455
ᏣᎳᏁ	-11.7456
▁ᎪᎶ	-11.7458
ᏌᎺᎵ	-11.7459
▁ᏳᏰᎸ	-11.7464
ᎩᏩᏏ	-11.7468
ᏍᏓᎢ	-11.7472
▁ᎢᎨᏣ	-11.7472
ᏓᏁ	-11.7475
▁ᏣᏁᎫ	-11.7479
▁ᏕᏥᎧᎿ	-11.7491
ᏑᎵᏍᎬᎢ	-11.75
▁ᏥᏯᏓᏙᎵᏍᏓᏁ	-11.7502
▁ᎤᎾᏛᏅ	-11.7502
ᏂᏔᏫ	-11.7505
ᎩᏂᏆᏘᎯ	-11.7505
▁ᏪᏥ	-11.7506
ᏯᎫᏴᎡᏗᏱ	-11.7507
▁ᎡᏥᏃᏁ	-11.7508
ᎾᏄᎪᏫᏍᎪ	-11.7509
ᏗᏔᏲᎯᎲᎢ	-11.7514
▁ᎠᎩᏍᏆᏂᎪᏗ	-11.7516
ᏣᏛᏓᏍᏓᏁᎮᏍᏗ	-11.752
▁ᎠᏓᏛᏍᎬ	-11.7522
ᏍᏆᏂᎪᏎᎴ	-11.7523
ᏄᏬᎥ	-11.7527
▁ᏗᎦᏲᎩ	-11.7528
ᎾᏄᎪᏫᏎᎸ	-11.7531
ᏣᎧᏅ	-11.7534
▁ᎬᏩᏁᏤᎸ	-11.754
ᎩᎭ	-11.7546
ᏣᏑᏰᏒ	-11.7546
ᏪᏍᏗᏱ	-11.7558
ᎪᏩᏘᏍᎨ	-11.7563
ᏤᏉ	-11.7563
ᏩᏛᎮᎢ	-11.7564
ᎵᏏᎲ	-11.7565
▁ᎨᏣᎦᏙᎥᎯᏍᏗ	-11.7567
ᎶᏈ	-11.7568
▁ᎡᏗᎨᏳ	-11.7569
ᎾᏓᏅᏛᎢ	-11.757
▁ᏗᏨᏙ	-11.7571
▁ᎠᎩᏬᏂ	-11.7572
▁ᎢᎦᏠᏯᏍᏔᏅ	-11.7577
▁ᏣᎦᏓᏂᎸ	-11.7578
ᏲᎰ	-11.758
▁ᏚᏅᏩᏅ	-11.7585
ᏲᏎᎮᏍᏗ	-11.7588
ᏍᏔᏅᎭ	-11.7593
▁ᏕᎬᏩᎳᏫ	-11.7594
ᏃᎯᏰ	-11.7596
ᏛᏅᎢᏍᏗ	-11.7599
ᏱᎴ	-11.7605
▁ᎤᏚᏓᎸ	-11.761
▁ᏱᏂᎬᏂ	-11.7615
▁ᏛᏂᏍᏆᏂᎪ	-11.7617
ᎾᎾᏛᏁᎭ	-11.7623
ᏆᎶ	-11.7626
▁ᏂᏓᏋ	-11.7627
▁ᎬᏩᎵᏍᏓᏴ	-11.763
▁ᏥᏄᏩ	-11.7631
ᏥᏂᏴᎲᎩ	-11.7632
ᏓᏥᏩᏛᎯ	-11.764
▁ᏓᏲᏣ	-11.7641
▁ᏯᏂᏍᎦᎢ	-11.7642
▁ᏓᏂᏃᏁ	-11.7642
ᏓᎡᎪᎢ	-11.7643
ᏥᎳᏫᏎᎲᎢ	-11.7644
▁ᎠᎵᏏᎾᎯᏍ	-11.7645
▁ᏚᏂᎳᏫᏨ	-11.7646
ᏙᏏ	-11.7647
ᎵᏍᎩ	-11.7647
▁ᎢᎬᏪᏅ	-11.7647
▁ᎾᏆᎵᏍᏓᏁᎸ	-11.7652
▁ᎢᏣᏅᏓ	-11.7652
ᎪᎯᏳᎭ	-11.7653
ᏄᏛᏁᎴ	-11.7654
▁ᏣᎦᎸᏍ	-11.7656
▁ᎤᏃᏢᏅ	-11.7656
▁ᏭᏣᏅ	-11.7657
ᏍᏛᎩ	-11.7659
▁ᏥᏫᎬ	-11.766
ᏁᏍᎨᏍᏗ	-11.7665
▁ᏧᏂᏲᎱᎯᏍ	-11.7673
ᏌᎳᏓ	-11.7674
ᏳᎪᏓᏁ	-11.7674
ᎯᎰ	-11.7675
ᎷᏏᎵᎻ	-11.7676
▁ᏥᏄᏛᏁ	-11.7682
ᏰᏍᏓᏬᏍ	-11.7684
▁ᎢᏣᏓᏅᎦᎸ	-11.7689
ᎦᏌᏯᏍᏗ	-11.7689
▁ᏥᏅᏒ	-11.7691
▁ᏗᏣᎵᏂᎪᎯᏍᏙᏗ	-11.7695
ᏰᏙᎳᏛ	-11.7696
ᏏᏍᎨ	-11.7697
ᏛᏛᎲᎦ	-11.7699
▁ᎠᏇᏅᏍᏗ	-11.77
ᏪᏍᎬᎩ	-11.77
▁ᎢᎡᏍᏕᎵᏌᏕ	-11.77
▁ᎢᏥᏙᏙᏱ	-11.77
▁ᎬᏩᏁᏄᎳᏍᏗᏍᎨ	-11.77
▁ᎾᎾᏓᏁᏟᏴᏏᏒ	-11.77
▁ᏅᏓᎦᏥᏪᏎᎵ	-11.77
▁ᏕᎤᎧᎿᏅ	-11.77
▁ᏂᏓᏟᎶᏍᏓᏁᎲᎾ	-11.77
▁ᏱᎦᎳᏍᏢ	-11.77
▁ᎤᎾᎩᎳᏫᏎ	-11.77
▁ᏓᎾᏓᏛᏛᎲᏍᎨ	-11.77
▁ᎠᏂᏍᎫᏕᏍᎩ	-11.77
▁ᎣᏂᏏᎹ	-11.7701
▁ᎢᏨᏃᎮᎮᎭ	-11.7701
▁ᏅᏓᏥᏯᏛᏁᎵ	-11.7701
▁ᏥᏕᎯᎾᏄᎪᏫᏎᎸ	-11.7701
▁ᏚᏓᏅᎡᎸᏃ	-11.7701
ᎡᏣᏟᎶᎡ	-11.7701
▁ᏚᏂᎳᏫᏛ	-11.7701
ᏓᏳᏎᎮᎵ	-11.7701
▁ᏗᏂᏁᎵᏛ	-11.7701
ᏣᎫᏴᏓᏏ	-11.7701
▁ᏦᎦᏓᏂᎸᎢᏍᏗᏱ	-11.7701
▁ᎠᏥᏅᏩᏅᎢ	-11.7701
▁ᏯᏆᎴᏂᏙᎸ	-11.7701
▁ᏂᎦᏚᏏᏁ	-11.7701
▁ᎢᏓᎢᏎᏍᏗ	-11.7701
▁ᎣᎦᏢᏆᏒ	-11.7701
▁ᎦᎳᏍᏢ	-11.7701
▁ᏚᏂᏖᎸᏅᎩ	-11.7701
▁ᏯᏥᏯᏝ	-11.7701
▁ᎤᎾᏘᏰᎸᎯ	-11.7701
▁ᏍᎩᏯᏛᏓᏍᏓᏏ	-11.7701
▁ᎬᏩᎾᎵᎪᏁ	-11.7701
ᏗᎩᏯᏍᏗᏱ	-11.7701
▁ᏴᎦᏲᏣ	-11.7701
▁ᏱᎨᎨᎭ	-11.7701
▁ᏱᏩᎦᏓᎢᏅ	-11.7701
▁ᎤᏩᏝᎥ	-11.7701
▁ᏦᏌᏯ	-11.7701
▁ᏕᎦᏟᎶᏍᏗᏍᎬ	-11.7701
▁ᎤᎩᎳᏫᏎ	-11.7701
▁ᏅᏗᎠᏥᏪᏎ	-11.7701
▁ᎤᎾᎴᎾᏫᏍ	-11.7701
▁ᏚᎩᎸᏨ	-11.7701
▁ᏯᎩᏲᎱᏒ	-11.7701
▁ᎤᏓᏠᏍᏕᎢ	-11.7701
ᎶᎥᏔᏂ	-11.7701
▁ᎬᏆᏚᎸᏗ	-11.7701
▁ᎠᎾᏠᎾᏍᏗᏍᎬ	-11.7702
▁ᏚᎾᏏᏔᏕᎢ	-11.7702
▁ᏯᏍᎦᎦ	-11.7702
▁ᎻᏏᏱ	-11.7702
▁ᎭᏗᏛ	-11.7702
▁ᏙᏓᎪᏪᎳᏂ	-11.7702
▁ᏁᏣᎦᏔᎲᎾ	-11.7703
▁ᏴᎦᏣᎦᎸ	-11.7703
▁ᏚᏂᏯᏙᎸᎩ	-11.7703
▁ᏕᎤᎸᏫᏍᏓᏏ	-11.7703
ᏬᏁᏗᏍᎩ	-11.7703
▁ᏧᎨᏅᏛ	-11.7703
▁ᎤᏖᎸᏅ	-11.7703
▁ᏕᎬᏩᏲᏒ	-11.7703
▁ᏕᎨᏥᏲᎯᏏ	-11.7703
▁ᏦᎯᏳᎭ	-11.7703
ᏂᏯᏛᏂᏏ	-11.7703
▁ᏗᎾᏓᏍᎦᎩ	-11.7704
▁ᎤᏫᏒᏎᎢ	-11.7704
▁ᏗᎾᏘᏂᏙᎯ	-11.7704
▁ᏫᏍᏗᎷᏨᎭ	-11.7705
ᏃᎩᏍᏔᏂ	-11.7705
▁ᎢᏍᏙᎯᏳᎲᏍ	-11.7705
▁ᏅᏁᎸᎭ	-11.7705
▁ᏧᎾᏕᏲᏗᏱ	-11.7705
ᏣᎵᏂᎪᎯᏍᏔᏂ	-11.7705
ᎦᎵᎪᏔᏅᎯ	-11.7705
▁ᎠᏄᏬᎩᎯ	-11.7706
▁ᏱᏗᏥᎨᏳᎭ	-11.7707
▁ᏂᏤ	-11.7707
▁ᏂᏥᏪᏎᎸᎢ	-11.7707
▁ᏚᎵᏂᏆᏅᏁᎸᎩ	-11.7707
ᏅᏓᏥᏪᏎᎵ	-11.7707
▁ᏙᏓᏲᎩᎸᏫᏍᏓᏁ	-11.7708
ᏯᏂᎭ	-11.7708
▁ᏱᎦᏅᎥᏏ	-11.7708
▁ᏧᏂᏒᏍᏗᏱ	-11.7708
▁ᎤᎾᏘᏅᏍᏗᏱ	-11.7708
▁ᎦᏰᏥᏍᏕᎸᏗ	-11.7708
▁ᏧᏬᏕᏍᏗ	-11.7708
▁ᏙᏓᎦᎶᏐᏂ	-11.7709
ᎦᎸᎥᎦ	-11.7709
▁ᎤᏂᏴᏔᏂᎯᏍᏗᏱ	-11.7709
▁ᏕᎬᏩᏠᏒᎩ	-11.771
▁ᎢᏤᎳᏗᏓᏍᏗᏱ	-11.771
▁ᏱᏙᎦᏰ	-11.7711
▁ᎤᏩᏅᏤ	-11.7711
▁ᏱᏚᎸᏫᏍᏓᏁᎰᎢ	-11.7711
▁ᏱᏚᏬᏁᏔᏁᎢ	-11.7711
▁ᎤᎩᎴᏍᏗ	-11.7711
▁ᏣᎦᏔ	-11.7711
▁ᏱᏙᎨᏨ	-11.7711
ᏠᎯᏍᏗᏱ	-11.7711
▁ᎤᎾᏓᏅᏓᏛᎩ	-11.7711
▁ᏕᎦᎶᏄᎮ	-11.7711
▁ᏱᏨᎸᏉᏗᎭ	-11.7711
ᏔᏪᏙᏁᎢ	-11.7712
▁ᎤᏂᎷᏥᎸ	-11.7713
▁ᏄᏪᎭᎴ	-11.7713
ᎪᎲᏍᏙᏗ	-11.7714
▁ᏱᏍᎩᎪᏩᏘᏍᎨᏍᏗ	-11.7714
▁ᎬᏩᏘᎾᏫᏛᎮ	-11.7714
▁ᏚᏟᎶᏍᏔᏅ	-11.7715
▁ᏱᏗᏓᏓᏚᎪᏓᏁ	-11.7715
ᏗᏑᎴᏗ	-11.7715
ᏠᎣᏒ	-11.7715
ᏍᎦᎾᎯᏳ	-11.7716
ᏣᎢᏒᏃ	-11.7717
▁ᎢᏍᎩᎪᏩᏘᏍᎨᏍᏗ	-11.7717
▁ᏦᎯᏳᏎᏍᏗᏉ	-11.7719
▁ᏥᏥᏲᎢᏎ	-11.7719
▁ᏫᏄᏪᏎᎸᎩ	-11.7719
ᏍᏕᎸᏙᏗ	-11.772
▁ᎢᎤᏂᎷᏨ	-11.7721
▁ᎢᏤᎳᏗ	-11.7722
▁ᎬᏩᏂᏴᎮᎢ	-11.7722
▁ᎤᏍᎦᏅᏤᎢ	-11.7722
▁ᏱᎨᏥᎪ	-11.7722
ᏗᏫᏍᏗᏱ	-11.7723
▁ᏧᏃᏪᎳᏅᎯ	-11.7723
▁ᎤᏄᏘ	-11.7724
▁ᎠᏙᏂᏍᎬ	-11.7725
▁ᎠᏐ	-11.7726
▁ᏗᏍᏕᎵᏍᎩ	-11.7727
ᏄᏬᏍᎨᏍᏗ	-11.7727
ᎧᏁᎢᏍᏗᏍᎨ	-11.7727
▁ᎠᏆᏡᏗᏍᎩ	-11.7729
ᏓᏁᎳᏁᎸᎯ	-11.7729
ᏑᏯ	-11.773
▁ᏙᏛᎦᎴ	-11.7731
ᏓᏅᏓᏛᎩ	-11.7734
▁ᎠᏥᎶᏄᎡᎸ	-11.7734
▁ᎤᏂᏍᎦᎴᏃ	-11.7735
ᏲᎱᏏ	-11.7735
▁ᏆᏏᏗᏱ	-11.7736
▁ᎤᏂᏲᏠᎯᏎᎸᎩ	-11.7736
▁ᎠᎴᏂᏙᎲ	-11.7737
▁ᏧᎪᎵᏰᏗᏱ	-11.7737
▁ᎣᏚᏓᎴᏍᏗ	-11.7737
ᏱᏍᎩ	-11.7738
▁ᎤᎾᏅᏁᎢ	-11.7738
▁ᎠᎦᏓᎢᏅ	-11.774
ᎩᏲᎱᏎᎵ	-11.774
▁ᎠᏯᏥ	-11.774
▁ᎣᎦᏅᏅᎩ	-11.774
▁ᎠᎾᏤᎸᏍ	-11.7741
▁ᏬᎩᏴᎸ	-11.7742
ᏩᏂᎦᎶ	-11.7744
▁ᏄᎾᎵᏍᏔᏁᎢ	-11.7744
▁ᎣᎩᎪᏁ	-11.7744
ᎾᎵᏔᏗᏅ	-11.7744
▁ᎤᏛᏗᏕᎨᎢ	-11.7745
▁ᏅᏓᏳᎾ	-11.7746
▁ᎠᏖᎵᏙᎩᎯ	-11.7746
▁ᏱᏗᏣᏓᏂᎸ	-11.7749
▁ᎤᏰᎵ	-11.7749
▁ᎬᏩᏛᏁᎢ	-11.775
▁ᏗᏬ	-11.775
▁ᎢᏨᏰᎳᏗᏙᎲᎩ	-11.7751
ᏑᎵᎪᏨ	-11.7754
▁ᎤᏰᎸᏐᎢ	-11.7754
ᎵᏍᏚᎸ	-11.7754
ᎵᏍᎦᏍᏙᏔᏅᎢ	-11.7756
ᎾᏅᏗᏱ	-11.7758
ᏁᏙᎮ	-11.7758
▁ᏓᎨᏏ	-11.7758
▁ᎨᏥᎨᏳᎯ	-11.7759
▁ᏱᏥᏅ	-11.7759
▁ᏅᏓᎬᏩᏂ	-11.7763
▁ᎡᏟᏯ	-11.7766
▁ᎤᏙᏯᏅᎯᏕ	-11.7766
▁ᎤᏴᎵᎴ	-11.7767
ᎪᏢᏁᎢ	-11.7767
▁ᎤᏦᎯᏃ	-11.7767
▁ᏱᏚᏚᎪ	-11.7767
▁ᏗᏆᏓᏬᏍ	-11.7769
▁ᏙᏣᏓ	-11.777
▁ᎤᏙᏓᏃ	-11.7771
ᏐᏁᎢ	-11.7772
▁ᎤᏂᏖᎸᏅ	-11.7772
▁ᎾᏅᎩ	-11.7775
ᏥᎸᎩ	-11.7776
▁ᏥᏫᏍᎪᎢ	-11.7778
▁ᏓᏂᎳᏫᎡ	-11.7779
▁ᎤᏯᏅᎮ	-11.778
▁ᎤᎾᎦᏔᏅ	-11.7781
▁ᎢᏍᏗᎪ	-11.7781
ᎪᎥᏍᎦᏉ	-11.7781
▁ᏕᎦᏕᏲᎲᏍᎬᎩ	-11.7783
ᏓᎦᏓᏂᎸᎪ	-11.7783
ᏥᎩᎵᏲᎬᎢ	-11.7787
ᎪᎵᏰᏗᏱ	-11.7788
ᏣᏓᏅᏘ	-11.779
▁ᎩᎳᎯᏳ	-11.779
▁ᏦᏍ	-11.7792
▁ᎠᎾᏙᎴᎰᏍᏗ	-11.7794
▁ᏳᎾᏛᎦᏁ	-11.7795
ᏘᎾᏄᎪᏫᏏ	-11.7796
▁ᎤᏓᏱᎸᎩ	-11.7797
▁ᏫᎬᏩᏴᏔᏁᎢ	-11.78
ᎪᎯᏍᏓᏁᎯ	-11.78
ᏗᏗᏐ	-11.7801
ᎣᎩᎧᏙᏴ	-11.7801
▁ᏕᏥᎸᏫᏍᏓ	-11.7803
ᏓᏑᏰ	-11.7803
ᎧᎲᏍᏗᏱ	-11.7804
▁ᏂᏍᎩ	-11.7808
▁ᎢᏥᎾᏰᏍᎬ	-11.7809
▁ᎢᏣᏓᎳᏫᏎᎸ	-11.7809
▁ᎥᏓᏘ	-11.781
▁ᎬᎩᎷᏤ	-11.7812
ᎵᎪᏁᎲᎾ	-11.7816
ᏙᎢᏛ	-11.7816
▁ᏗᏍᏆᏂᎪᏙᏗᏱ	-11.7816
ᏄᎶᏔᏅ	-11.7818
▁ᎤᎶᏁᏔ	-11.7819
▁ᏣᎾᏛᎩ	-11.7819
▁ᏚᏭᎪ	-11.7823
▁ᎪᎪ	-11.7826
ᏣᎵᏂᎪᎯᏍᏓ	-11.783
▁ᎬᏬᏎᎮ	-11.7832
ᏓᏌ	-11.7833
▁ᏚᏯᏙᎮᎴ	-11.7833
▁ᎬᏬᎯᏳᎲᏍᎨ	-11.7834
▁ᎢᏨᏰᎳᏗᏙᎲ	-11.7835
ᏂᏴᎩ	-11.7838
ᏇᏅᎯ	-11.7839
▁ᎯᎦᏔᎲᎢ	-11.7841
ᎵᏎᏗ	-11.7841
ᎬᎨᏫ	-11.7842
▁ᏚᎶᏁᏔ	-11.7843
▁ᎢᏏ	-11.7844
▁ᎡᏗᎦᏔ	-11.7844
ᎦᎵᏏ	-11.7846
▁ᎠᏩᏘᏍᎪᎢ	-11.7848
ᏂᏢᎩ	-11.785
▁ᏚᏫᏞᏫᏒᎢ	-11.785
ᏢᎯᏏᏍ	-11.7851
▁ᏄᎵᏍᏓᏁᎸᎢ	-11.7852
▁ᎠᎫᏴᏗᏱ	-11.7852
▁ᏤᏓ	-11.7853
ᏍᏆᏂᎪᏙ	-11.7853
ᎩᏒᏗ	-11.7853
▁ᎾᏂᎡᎢ	-11.7854
▁ᏯᏃᎯᏳᎲ	-11.7857
▁ᎬᏩᏃᎮᏍᎬ	-11.7858
ᎩᏍᏆᏂᎪᏔᏅᎩ	-11.7858
▁ᏚᏅᏩᏁᎢ	-11.7862
▁ᎬᏩᏂᏄᎪ	-11.7862
ᏂᎨᎬᏁᎭ	-11.7862
▁ᏚᏓᏂᎸᏤᎢ	-11.7863
▁ᏱᏂᏣ	-11.7864
▁ᏂᏕᏨᏁ	-11.7865
ᎩᎾᏢᏗᏱ	-11.7867
ᏘᏃᎴ	-11.7868
▁ᎠᏓᎵᏂᎪᎯᏍᏗᏍᎪ	-11.7871
ᎵᎮᎵᎪ	-11.7871
▁ᎤᏙᎯᏳᏗ	-11.7872
▁-	-11.7872
▁ᏚᎵᏂᏆᏅᏅ	-11.7873
▁ᎠᎾᏓᏛᎥᏍ	-11.7873
▁ᎡᏥᎦᏙᎥ	-11.7873
▁ᎤᎵᏍᏕᏍᏔᏁ	-11.7874
▁ᎠᏇᎭ	-11.7874
ᎬᏯᎫᏴᎡᎸ	-11.7876
ᏂᎪᎵᏰᏍᎬᎩ	-11.7877
ᏓᎵᏓᏍᏗᎭ	-11.7878
▁ᏧᎶᏎᎢ	-11.7878
ᏳᏃ	-11.7879
▁ᏗᎦᏁᎸᎢ	-11.7879
ᏯᏁᏒ	-11.7883
▁ᎤᏂᏍᏚᎶᏔ	-11.7885
ᏤᏬᏤ	-11.7885
ᏖᎸᏂ	-11.7885
▁ᎣᏥᏂ	-11.7886
▁ᏚᏬᏢ	-11.7887
▁ᏯᎵᎦ	-11.7889
ᏍᎩᏲᏎᎭ	-11.7889
▁ᎤᏁᏟ	-11.7891
▁ᎤᎾᏓᏈᎬ	-11.7896
ᏛᏛᎮᎸᏁ	-11.7896
ᏛᏛᏅᎩ	-11.79
ᏏᏐ	-11.7904
▁ᏕᎤᎴᏔᏁᎢ	-11.7907
▁ᎠᎩᎾᏄᎪᏫᏍᏗ	-11.7912
ᏍᏕᎸᏙᏗᏍᎨ	-11.7914
▁ᏲᎯ	-11.7915
ᎯᎲᎢ	-11.7917
ᏏᏂᏙᎲ	-11.7925
ᎾᏓᏅᏘ	-11.7931
▁ᏕᏥᎦᏘᎸᏒ	-11.7933
▁ᏱᏚᏑᏰ	-11.7933
ᎦᏍᎦᏂ	-11.7934
▁ᏚᏖ	-11.7942
▁ᎤᏂᎳᏅᎯ	-11.7944
ᎰᏒᎯ	-11.7946
▁ᎠᏂᏍᎦᎢᎲᎩ	-11.7946
ᏣᏗᏔᏍᏗ	-11.7947
▁ᎡᏥᏍᏆᏂᎪ	-11.7947
▁ᏚᏃᏣ	-11.7949
▁ᎢᏣᏑᎵᏍ	-11.795
▁ᎤᏓᏬᏅ	-11.7951
ᏍᏗᏴᎸ	-11.7958
▁ᎬᏩᎾᏰᏍ	-11.7963
▁ᎠᏂᎷᎨ	-11.797
ᏁᏅᏎᎢ	-11.797
▁ᎠᏣᏅ	-11.797
ᎩᏃᎮᎮᎸ	-11.797
ᏚᏘᎿᏫᏛᎮᎢ	-11.7971
ᏓᏌᎧ	-11.7972
ᏣᏕᎰᎯᏍᏗ	-11.7972
▁ᎠᎩᏁ	-11.7975
▁ᏚᏙᎠ	-11.7977
ᎤᎨᏳᎭ	-11.7978
ᎾᏜᎢ	-11.798
ᏗᏒ	-11.7983
▁ᏥᎸᏉᏙᏗ	-11.7983
▁ᎣᏣᏢᏈᏍ	-11.7984
ᎵᏍᏓᏴ	-11.7985
ᎾᎵᏍᏕᎸᏙᏗ	-11.7985
▁ᏂᏗᎬᏩ	-11.7987
ᏓᏠᏍᏗ	-11.7988
▁ᏕᎫᎪᏗᏍᎪ	-11.7991
▁ᎤᎾᎵᏍᏓᏴᏅ	-11.7994
ᏒᏂᏍᏗᏱ	-11.7994
ᏥᏯᏘᏍᏓᏁᎯ	-11.7998
ᎩᎨᏳᏒᎢ	-11.8002
ᏴᏓᏆᎶᏍ	-11.8008
ᏙᎴᎰᏍᎦ	-11.8008
ᏜᏅᏓᏕᏗᏱ	-11.8009
▁ᎤᏫᏒ	-11.8009
ᏎᎲᎾ	-11.8012
ᏙᎬ	-11.8012
▁ᎤᏪᏯᏔᏅ	-11.8016
▁ᎠᏆᏚᎸ	-11.8019
ᎾᏛᎦᏁᎴ	-11.8023
▁ᏭᏩᎫ	-11.8026
▁ᎤᏯᏅᎲ	-11.8028
▁ᏣᏓᎨᏳ	-11.8029
▁ᏣᎸᏃᏘ	-11.8031
ᏓᎧᎿᏩᏕᎪ	-11.8031
ᏂᏍᎩᏯᏛᏁ	-11.8036
▁ᎡᏣᎵ	-11.8039
▁ᏂᏨᏁ	-11.8041
▁ᎤᏅᏅᎩ	-11.8042
ᏢᏔ	-11.8043
▁ᎠᏂᎦᏔᎮ	-11.8043
ᏅᏎᏃ	-11.8044
ᎩᎸ	-11.8047
ᏠᏯᏍᏔᏅᎭ	-11.8051
ᎦᎶᎢ	-11.8052
▁ᏂᏌ	-11.8052
ᎩᏁᎸᎯ	-11.8053
▁ᏚᎸᏫᏍᏓᏁᎭ	-11.8053
ᎾᏍ	-11.8053
▁ᎠᏥᎳᏫᏎᎲ	-11.8053
▁ᏂᎨᏨᏁ	-11.8056
▁ᎠᏂᏬᏂᏍᎨ	-11.8057
▁ᎠᏂᎪᏩᏘᏍᎬᎩ	-11.8057
▁ᎭᎵᏥᏙᎲᏍ	-11.8057
ᎪᏤ	-11.8063
▁ᏓᎾᏏᏔᏗᏍ	-11.8064
ᏓᎩᎸᏫᏍᏓᏁᎭ	-11.8064
▁ᎤᏂᎶᏎᎢ	-11.8067
▁ᎢᏨᏃᎮ	-11.8078
ᏓᎾᏓᏂᎸᎪ	-11.8078
ᏥᎪᎥᎩ	-11.8079
▁ᎠᏛᏃ	-11.808
ᏣᏠᏯᏍᏗᏍ	-11.8081
▁ᏚᎩᏒᎩ	-11.8083
▁ᎢᏣᏓᏙᎵᏍᏗᏍᎬᎢ	-11.8084
▁ᏧᏂᏍᏓ	-11.8085
▁ᎣᎩᏅᏍᏔᏅ	-11.8088
▁ᎤᎵᏍᎪᎸᏓᏁᎸ	-11.8089
ᎩᏳ	-11.8094
▁ᏂᏚᎸᏫᏍᏓᏁ	-11.8095
▁ᎬᏩᎸᏉᏗ	-11.8098
ᏁᏔᏅᎩ	-11.8099
▁ᎠᎾᏙᎴᎰᏍᎬ	-11.8101
▁ᎢᏲᎬ	-11.8101
▁ᎧᏁᎦ	-11.8102
ᏛᏁᎸᎭ	-11.8102
▁ᎤᏂᏴᎸᏃ	-11.8102
ᎦᎸᏉᏗᏍᎬ	-11.8103
ᏓᏅᏖᏍᏗ	-11.8106
ᏠᏎᎢ	-11.8107
▁ᎠᏓᏙᎵ	-11.8108
ᏔᎯ	-11.8109
ᎩᎳᎾᎳ	-11.811
ᎬᏫᏳᏔᏅ	-11.8111
▁ᏱᏚᏓ	-11.8114
ᎪᏙᏗᏱ	-11.8115
▁ᏗᎦᎸᏫᏍᏓ	-11.8117
▁ᎥᏓᎸᎢ	-11.8119
ᏁᎪ	-11.8123
ᏎᎪᎩ	-11.8123
ᏓᏂᎸᎢᏍᏗᏱ	-11.8123
ᎵᏰᏗ	-11.8128
▁ᎢᏥᏴᏁᏗ	-11.8128
▁ᏳᎬᏩ	-11.8128
▁ᏕᎬᏲᎯᏏ	-11.813
ᏣᎾᏄᎪᏫᏎᎸ	-11.813
▁ᏗᏣᎵᏂᎪᎯᏍ	-11.8131
▁ᏍᎩᎸᏉᏙᏗ	-11.8132
▁ᏗᎬᏍᎦ	-11.8135
▁ᎠᏂᏴᎯ	-11.8135
▁ᏧᏴᏫ	-11.8139
▁ᎠᏃᎯᏳᎲᏍ	-11.8145
ᏓᎵᏌᎳᏗ	-11.8145
ᏂᏍᏓ	-11.8147
▁ᎿᏛᏁᎭ	-11.8151
ᎦᏥᏲ	-11.8154
▁ᎠᎾᎵᏃᎮᏍ	-11.8155
ᏛᏛᏁᎢ	-11.8156
▁ᎠᏚᎢᏍ	-11.8157
▁ᏂᏗᏥ	-11.8158
ᎾᏄᎪᎬ	-11.8166
ᎦᎴ	-11.817
ᏅᏙᏗᏱ	-11.817
▁ᏂᏣᏛᏁᎴ	-11.8175
ᎸᎥᏍᎨᏍᏗ	-11.8175
▁ᎠᏆᏓᏅᏖᎸ	-11.8176
▁ᏫᎬᏩᎾᏛ	-11.8176
ᏓᏕᏲᎲᏍᎦ	-11.8177
▁ᏗᎬᏩᏲᎯ	-11.8184
▁ᎦᏃᎮ	-11.8185
▁ᎠᎩᎵᏲᎨ	-11.8192
▁ᎨᏥᏅ	-11.8194
ᏚᎪᏓᏁᎭ	-11.8194
▁ᎢᎩᎧ	-11.8195
▁ᎠᏰ	-11.8195
▁ᎤᎷᎯᏍ	-11.8195
▁ᎠᎦᏘᏃᎮ	-11.8199
ᏥᎷᏤᎸ	-11.8202
ᏲᏏᏌ	-11.8206
ᏚᏂᏍᏆᎵ	-11.8207
▁ᎠᎩᏫᏒ	-11.8208
▁ᎨᏥᎾᏄᎪᏫᏎᏗ	-11.821
▁ᏗᏍᏓ	-11.8211
ᎸᎯᏳ	-11.8213
▁ᎠᏂᎦᏔᎲᎩ	-11.8216
ᏲᎲ	-11.822
ᏍᎦᏨᎩ	-11.8223
ᏲᎴᎢ	-11.8223
ᏩᎯ	-11.8226
ᏅᎦᎵᏍᎬᎢ	-11.8228
▁ᎯᎳ	-11.8229
▁ᎯᏴ	-11.8229
▁ᎠᎦᏍᎩ	-11.823
ᎳᏏᏕᏂ	-11.8231
ᏥᏛᏙᏗᏱ	-11.8233
▁ᏥᏚᏂᎸᏫᏍᏓᏁ	-11.8234
▁ᏗᏰᎯ	-11.8235
▁ᎠᎢᏎ	-11.8236
▁ᎠᎾᏗᏍᎬ	-11.8239
ᎠᏥᎸ	-11.8239
ᎨᎯᏙᎮ	-11.8246
▁ᎠᏂᏃᏗᏍᎬ	-11.8249
ᏂᎷᏥ	-11.8251
ᏥᏅᏏᏓᏍᏗ	-11.8253
▁ᏱᎦᎷᎩ	-11.8253
ᏂᎰ	-11.8257
ᏕᎶᏆᎡᎸ	-11.8257
▁ᎬᏔᏅ	-11.8258
▁ᎢᎦᏚ	-11.8265
▁ᎤᏓᎸᏍᏛ	-11.8266
▁ᏣᏆ	-11.8266
ᏥᏩᏛᎯ	-11.8267
ᎤᏅᏎ	-11.8268
▁ᎤᏂᏄᎪᏫᏎ	-11.8272
ᎵᏥᏙᎲᏍᎩ	-11.8272
▁ᎤᏟᎯ	-11.8275
ᏨᏴᏁᏗᏱ	-11.8277
▁ᎠᎾᏗᏍᎨ	-11.8278
ᎵᏍᏓᏴᏗᏱ	-11.8283
▁ᏱᏗᎵ	-11.8286
▁ᏚᎵᏏᎲ	-11.829
▁ᎤᏍᏆᏃᏴ	-11.829
ᎾᎢ	-11.8294
▁ᎤᏪᏟᏌ	-11.8295
▁ᏍᎩᏩᎯ	-11.8302
ᎩᏍᏗᏰᏗᏍᎬ	-11.8303
▁ᎠᎩᎪᏩᏘᏍ	-11.8306
ᏓᏁᎰ	-11.8306
ᏑᎵᎪᏨᎩ	-11.8308
▁ᏗᎩᎾᏢ	-11.8309
ᏌᎶ	-11.831
▁ᏥᏂᏣᏓᎨᏳ	-11.8312
▁ᏳᏂᎬ	-11.8315
▁ᎤᎾᏨ	-11.8316
▁ᎤᏕᏯᏔᏁᎴ	-11.8329
▁ᎤᎵᎮᎵᏤᎸ	-11.8331
▁ᏔᏘᏍᏓᏁ	-11.8332
▁ᎤᎦᏃ	-11.8337
ᎸᏎᎢ	-11.834
▁ᎬᏭᎯᏍᏗ	-11.8341
ᏆᎳᏏᏗᏱ	-11.8344
▁ᎤᎴᏅᏔᏅ	-11.8346
ᏰᎸᏁᎢ	-11.8348
ᏂᏜ	-11.8351
ᏓᏓᎴᏗᏍ	-11.8353
▁ᏆᎵ	-11.8353
▁ᏓᏳᏂ	-11.8356
▁ᏅᏗᎤ	-11.8357
▁ᏳᏍᏆᎸ	-11.8359
▁ᎤᏂᏁᏓ	-11.8362
▁ᏯᎾᎦᏔᎲ	-11.8362
ᏟᏴ	-11.8362
ᏣᏚᎵᏍᎪ	-11.8363
▁ᎤᏂᎶᏄᎮ	-11.8371
ᎩᎸᏅᎩ	-11.8375
ᎾᏄᎪᏫᏍᏗᏱ	-11.8377
▁ᏱᏓᎩᎸᏫᏍᏓᏁ	-11.8388
▁ᎤᎵᎥᏂᎸ	-11.8392
ᏥᏴᏍᏗᏱ	-11.8394
▁ᎤᏙᎯᏳᏅ	-11.8398
▁ᎤᎦᏃᏗ	-11.8402
▁ᏓᎾᏓᏰᎢᎵᏙ	-11.8408
ᎦᏙᎥᏏ	-11.8409
ᎩᏔᏲᏎᎸᎩ	-11.8413
▁ᎤᎩᎸᏅ	-11.8414
▁ᏗᏓᏓ	-11.8416
ᎶᎢᏍᏓ	-11.8418
ᎧᏁᏉᎦ	-11.842
ᏲᎲᎢ	-11.8425
ᏥᏲᏍᏓ	-11.8425
▁ᎢᏦᎯᏳ	-11.8428
▁ᎤᎶᏎᎢ	-11.8431
▁ᎢᏥᏍᏆᏂᎪᎯ	-11.8438
▁ᏣᏓᏴ	-11.8451
ᎠᏥᎸᏉᏗ	-11.8451
▁ᎤᏄᎸ	-11.8455
ᎾᏯ	-11.8463
▁ᎯᎪᎥ	-11.8469
ᏥᏃᏍᎦ	-11.8469
▁ᏧᎧᎵᏨ	-11.8471
▁ᎠᏓᎯᏍᏗ	-11.8472
ᏢᏁᎢ	-11.8475
ᏏᎶᏗ	-11.8477
ᏂᏔᏲᎴ	-11.8482
▁ᎤᎾᏚᏓᎴᏍᏗ	-11.8484
▁ᏚᎾᏓᏲ	-11.8487
ᎨᏗ	-11.8489
ᏭᎷᏤᎢ	-11.8491
▁ᏧᏚᎪᏙᏗ	-11.8499
ᎦᎴᏯᏍᎪ	-11.8503
ᏧᎢᏍᏗᎭ	-11.852
ᎳᏍᏓᎸ	-11.8525
ᏓᎢᏒᎢ	-11.8529
ᏃᎸᏔᏂᏙ	-11.8529
ᏣᏯᏂᏍᎨᏍᏗ	-11.853
▁ᏬᎦ	-11.8534
▁ᏙᏥ	-11.8542
▁ᎠᏂᏙᎾ	-11.855
ᏓᏥᎳᏂ	-11.8558
ᏥᏯᏁᎶᏗ	-11.8562
ᏪᎳᏗᏙ	-11.8562
ᏍᏗᏫᏃ	-11.8565
ᏡᏗᏍᎬᎢ	-11.8565
▁ᏚᏃᎮᎮᎸ	-11.8568
ᏥᏍᏆᏂᎪᏙᏗᏱ	-11.857
▁ᏕᎬᎩ	-11.857
▁ᎢᏨᏂ	-11.8574
ᏑᎶ	-11.8575
▁ᏕᎧᏅᏫ	-11.8578
▁ᎠᏍᏚᏅ	-11.858
ᏍᎫᏕᏍᏗᏱ	-11.8582
▁ᏱᏗᏍᎩ	-11.8586
▁ᎤᏬᏥ	-11.8587
ᏍᏕᎸᎯᏙᎸᎯ	-11.8587
▁ᎤᏂᎦᎵᏍᏓᏗᏍ	-11.8592
ᏅᏫᏍ	-11.8594
▁ᏱᎦᎯᏍ	-11.8596
ᎦᏥᏲᎢᏳᏓᏁᎭ	-11.8605
ᏣᏕᏯᏙᏗᎭ	-11.8605
▁ᎢᎩᏰᎸᏗ	-11.8607
ᏥᏖᎸᏗ	-11.8608
▁ᏑᎾᏓ	-11.8611
▁ᎤᏴᏢ	-11.8614
ᏛᏅᎯ	-11.8617
ᎧᎿᏩᏗᏙᎲᎩ	-11.8619
▁ᎤᏓᏅᏖᎴ	-11.8642
ᎩᏰᎸᏎᏍᏗ	-11.8643
ᏛᎲᏃ	-11.8644
▁ᎠᏚᎢᏍᏗ	-11.8645
▁ᏣᏓᏎᎪᎩᏍᏗ	-11.8645
▁ᏗᏁᏍᎨᏍ	-11.8647
ᎩᎵᏲᎨᏍᏗ	-11.865
ᏍᎩᎪᎡᎸ	-11.8652
ᏍᏓᎦᏔ	-11.8655
ᏥᏍᎦᎾᎢ	-11.8662
▁ᏭᏂᏴᎲ	-11.8665
▁ᎤᏓᏠ	-11.8668
▁ᏗᏥᏅ	-11.8673
▁ᏌᏆ	-11.8681
▁ᎤᏂᏴ	-11.8682
▁ᏱᏗᎨ	-11.8682
▁ᏱᎦᎷᏤ	-11.8683
▁ᎨᏥᎸᏉᏙᏗ	-11.8685
ᏙᎳᏍᏗ	-11.8693
ᎶᏔᏅᎯ	-11.8694
ᏣᎵᏥᏙᎲᏍᎦ	-11.8695
▁ᏣᏍᏕᎵ	-11.8702
▁ᎣᎩᏅ	-11.8707
▁ᎤᎵᏃᎯᏰ	-11.8717
ᏂᎵᏙᎸ	-11.8723
ᏰᎸᏎᏍᏗ	-11.8726
▁ᎢᎬᎯ	-11.873
▁ᏤᏣᏁᎶ	-11.8737
▁ᎠᏂᏔ	-11.874
▁ᏕᎫᎪ	-11.8741
▁ᎢᏥᏃᎯ	-11.8751
ᏯᏆ	-11.8752
▁ᏚᏂᏁᏒ	-11.8754
ᏂᏬᏂᎭ	-11.8756
ᎵᏍᏓᏁᏗ	-11.8756
ᏢᏔᏁᎢ	-11.8756
▁ᏳᏚᎵ	-11.8759
ᎸᏁᎢ	-11.8759
ᎵᎮᎵᏤᎮ	-11.876
ᏚᏓᎴᏍᏗᏍᎬ	-11.876
ᏓᎧᎿᏩᏕᎬ	-11.8766
▁ᏬᎩ	-11.8774
▁ᏥᏅ	-11.8775
▁ᏂᏕᎤ	-11.8775
ᏥᏂᏆᏘᎲ	-11.8775
ᎦᏙᎨᎢ	-11.8777
▁ᏳᏓ	-11.8777
▁ᏗᎦᎸᏫᏍᏓᏁ	-11.8781
▁ᎤᏅᏩᏁ	-11.8786
ᎦᏔ	-11.8786
ᎦᎵᏍᏙᏗ	-11.8787
▁ᏴᎬᏓ	-11.8787
ᏍᏚᏗᏱ	-11.8791
▁ᏩᏆ	-11.8793
▁ᏣᏓᏅᏘ	-11.8793
ᏚᎵᏍᎬᎢ	-11.8803
▁ᎤᏂᎷᏤᎴ	-11.8805
▁ᎤᏍᏕᎸᎲ	-11.8806
▁ᏫᎡ	-11.8808
▁ᎦᎬᏩᏐᏢᏗ	-11.8808
▁ᎠᏂᎧᎵ	-11.8808
▁ᏧᎾᏁᎶ	-11.8809
▁ᎢᎬᏩᎵᏍ	-11.8812
ᎷᏥᏒ	-11.8813
ᏓᏅᏖᏍᎨ	-11.8816
▁ᎦᏄᎪ	-11.882
ᎦᏔᎲᏍᏗ	-11.8827
ᎦᏑᏴᏛ	-11.8831
▁ᏫᏚᏃᏁ	-11.8831
ᏅᏁᎢ	-11.8836
▁ᎤᏂᏆ	-11.884
▁ᎤᎾᏅ	-11.8842
ᏍᏆᏂᎪᏔᏁᎢ	-11.8846
ᏕᏍᏔᏁ	-11.8848
ᏳᎪᏓᏁᎵ	-11.8855
▁ᏚᏭᎪᏓᏁ	-11.8855
ᎦᏲᎵᏉ	-11.8856
▁ᏣᏂᎩᏍ	-11.8858
ᏎᏒ	-11.8859
ᎾᏚᏓᎴᏍᏗ	-11.8865
▁ᎠᏍᏓᏱᏗᏍᏗ	-11.8866
▁ᎡᏣᎸᏉᏙᏗ	-11.8867
ᏕᏥᏍᏓᏩᏗᏒ	-11.887
ᏍᏓᏛᏁᎸ	-11.8873
ᏥᏯᏢᏈ	-11.8874
ᏓᎵᏂᎪᎯᏍᏗᏍᎪᎢ	-11.8876
ᏣᏓᏄᏴᏗ	-11.8876
▁ᏗᎦᎵᏦ	-11.8876
▁ᏛᎦ	-11.8877
ᏂᎬᎦ	-11.8879
▁ᎣᎦᏗᏔ	-11.8881
▁ᎠᏰᎸᏒ	-11.8884
ᏂᎬᏩᏍᏕ	-11.8886
ᎠᎵ	-11.8889
ᏓᎪᏩᏘᏍᎪᎢ	-11.889
ᏛᏁᎸ	-11.8891
▁ᎤᏲᏉᏍᎩᏂ	-11.8896
▁ᏗᏓᏪᏍ	-11.8897
▁ᎤᎵᏂᎪᎯᏍᏗ	-11.8899
▁ᎠᏥᎪᎵᏰ	-11.89
▁ᏧᏕᎶᏆ	-11.8911
ᎤᎬᏫᏳᎯ	-11.8912
ᏂᏑᏪᏎᎸ	-11.8912
▁ᎤᏯ	-11.8915
▁ᏄᎲ	-11.8925
▁ᏗᏧᎪᏓᏁ	-11.8927
ᏔᏲᎴᎢ	-11.8929
ᏁᏙᎸᎯ	-11.8932
▁ᏥᎦᏔ	-11.8935
▁ᏥᏄᏓ	-11.8936
▁ᏂᏍ	-11.8938
▁ᎤᎷᏨᏉ	-11.8938
ᎡᎴᏍᏗ	-11.8945
ᏬᏂᏍᎬ	-11.8945
ᎢᏍᏔᏁᎢ	-11.8952
▁ᎢᏨᏲᏪᎳᏁᏗ	-11.8952
▁ᏂᏴᏁ	-11.8954
ᏏᏓᏍᏗᏱ	-11.8955
ᏍᎦᎨᏍᏗ	-11.8956
ᎱᏍᏕᏎᎸ	-11.8956
▁ᎠᏥᏅᏁ	-11.8956
▁ᎤᎫᏴ	-11.896
ᏂᏂᏴᏗᏱ	-11.8962
ᎦᏥᏍᎦᏅᏤ	-11.8963
ᎩᎵᏲᎦ	-11.8964
▁ᎥᏉ	-11.8968
ᎵᎪᏁᎸᎩ	-11.897
▁ᎢᏍᏓᏛ	-11.8982
▁ᏧᎷᏤ	-11.8986
▁ᏫᏙ	-11.8989
ᎵᏰᏁ	-11.8989
ᏯᏍᏗᏱ	-11.8996
▁ᏅᏛᏂ	-11.9
▁ᏳᏂᏆᏘ	-11.9003
ᎪᎳᏅ	-11.9004
▁ᏤᏥᎸ	-11.9007
▁ᎠᏂᎯ	-11.9007
▁ᎨᏥᎾᏄᎪᏫᏎ	-11.9012
▁ᏚᎾᏗᏩᏍᎨ	-11.9012
ᏂᏂᏒᎩ	-11.9013
ᏥᎦᏔᎰ	-11.9014
▁ᎠᎾᏁᎷᎩᏍ	-11.9014
ᏪᎳᏗᏓᏍᏗᏱ	-11.9014
ᏍᏆᏓ	-11.9015
▁ᏅᏓᏥ	-11.9018
ᎨᏳᏣ	-11.9019
▁ᏥᏂᏚᏪᏎᎴ	-11.902
ᎪᏢᏅᎯ	-11.9022
▁ᏣᎬ	-11.9023
▁ᏂᎬᎾᏛᏉ	-11.9024
ᎧᏁᎬᎩ	-11.9025
▁ᏚᏃᏕ	-11.9026
ᎵᏍᏙᏰᎲ	-11.903
ᎤᏫᏞᏫᏒ	-11.9031
▁ᏫᏍᎩᏯ	-11.9036
▁ᏗᏥᏃ	-11.9041
▁ᎣᎦᏘᏅ	-11.9041
▁ᎦᏥᏍᏕᎸ	-11.9043
ᏥᏏ	-11.9047
ᏃᎯᏳᏏᏱ	-11.9047
ᏥᎨᏳᎯ	-11.9048
ᎨᏂ	-11.9049
▁ᎤᎵᏓᏍᏔᏅ	-11.9051
ᏍᏚᏕᏍᏗ	-11.9053
ᏍᏗᏱᏉ	-11.9057
▁ᎢᏣᏗᎦᎴᏲ	-11.9058
ᏙᎵᎨᏍᏗ	-11.906
▁ᏓᎦᏅᏓ	-11.9063
ᎦᏠᏯᏍ	-11.9066
▁ᎤᎾᏓᏓᎴᏓᏁ	-11.907
ᏓᏅᏖᎵᏙᎲᎢ	-11.9071
ᏲᎯᏎᎸ	-11.9072
▁ᏳᏴ	-11.9074
ᏥᎦᏔᎲᎢ	-11.9076
ᎵᏨᎯ	-11.9077
ᏍᎨᏍᏗᏉᏍᎩᏂ	-11.9078
ᏲᏍᏓ	-11.9079
▁ᏣᏚ	-11.9079
▁ᏗᏧᎪᏓᏁᏗ	-11.9081
▁ᏙᏓᎦᏥ	-11.9082
▁ᎢᏨᏰ	-11.9085
▁ᎠᏗᏒ	-11.9087
ᏓᏁᎸᎢ	-11.9092
▁ᏗᎨᏣᎧ	-11.9099
ᏥᎩᎵᏲᎢᏍᏗᏍᎬᎢ	-11.9106
▁ᎠᎩᎪᎵᏰ	-11.912
▁ᎢᏥᏍᎪ	-11.9123
ᏂᎯᏍᏗ	-11.9125
ᏏᏍᎨᏍᏗ	-11.9127
▁ᏥᎠ	-11.9128
ᏧᎪᏓᏁᎯ	-11.9131
▁ᎿᏛ	-11.9138
▁ᏓᎬᏁ	-11.9141
▁ᎤᏬᎯ	-11.9148
▁ᎤᎾᏎᎵ	-11.9156
▁ᎢᏛᏗ	-11.9159
ᎦᏙᎥ	-11.9161
ᎻᎾ	-11.9165
ᏅᏙᏗ	-11.9168
ᏚᏭᎪᏔᏁ	-11.9169
ᏃᎪᎢ	-11.9173
ᎸᏨ	-11.9174
ᏣᎵᏍᏓᏴ	-11.9185
▁ᎬᏩᎷᏤ	-11.9188
▁ᏳᏂᏃ	-11.919
▁ᎤᏨ	-11.919
ᏆᏗ	-11.919
ᎸᏉᏔᏅ	-11.9199
▁ᏱᎦᏅ	-11.9204
▁ᏗᎦᎵ	-11.9205
ᏑᎴᎭ	-11.9206
ᏪᏎᎸ	-11.9211
▁ᏗᎧᎾᏩ	-11.9215
▁ᎢᏯᏋᏂ	-11.9219
▁ᏕᎠᎾ	-11.9221
▁ᏚᏄ	-11.9222
ᎦᏁᎲᎾ	-11.9224
ᎦᏙᎵ	-11.9225
▁ᎢᏥᏩᏛᎲ	-11.9225
▁ᏚᏂᏟᏌᏅ	-11.9237
ᏏᏕᎾ	-11.9237
▁ᎤᏍᏛᎦ	-11.924
▁ᏙᎨᏥ	-11.9245
ᎦᎴᏙᏗ	-11.9249
ᏣᏓᏅᏏ	-11.9252
▁ᏅᏓᏥᏪ	-11.9253
▁ᏣᏢᎬ	-11.9257
▁ᏣᎵᏂᎪᎯᏍᏗ	-11.9257
ᏁᎫ	-11.9259
ᏰᏌᏛ	-11.9264
ᏖᎳ	-11.9266
▁ᏄᎵᏍ	-11.9272
▁ᎤᏪᎿ	-11.9274
ᏂᎥ	-11.9278
ᏎᎵᏔᏁ	-11.9279
▁ᏯᎲ	-11.9284
▁ᎢᏍᏓᎵ	-11.9285
▁ᏗᎬᏩᏛ	-11.9286
ᏚᏓᏕᏫᏍᏗ	-11.9286
▁ᎨᏥᎪᎵᏰᏗ	-11.9286
▁ᎦᏥᏲᎢᏳᏓᏁ	-11.9287
ᏢᏕ	-11.9288
ᏍᏘᏰᎬᎢ	-11.9289
ᏣᎫᏴᎡ	-11.9291
▁ᏣᏃ	-11.9295
ᏚᏓᎸᏛᎢ	-11.9298
ᏃᎮᎮ	-11.9298
ᎩᏯᎠ	-11.93
ᏣᏓᎴ	-11.93
▁ᎬᏩᏃᎮ	-11.9306
ᏩᏔᏅᎯ	-11.9306
ᎩᏂᏴᏗ	-11.9306
▁ᎤᎾᏒᎦ	-11.9307
ᏰᎸᏍᎨ	-11.9315
▁ᏘᏁ	-11.9316
ᎪᎸ	-11.9316
▁ᎤᎾᏓᏙᎵᏍᏓᏁᏗ	-11.9316
▁ᏂᏛᏁ	-11.932
▁ᏕᏥᎩᎵᏲᎢᏍᏗᏍ	-11.9324
▁ᎤᏂᎧ	-11.933
ᏂᏓᏂᏪ	-11.9331
▁ᏗᎬᏭᎪ	-11.9333
ᏁᏤᎸᏃ	-11.9333
▁ᎤᎴᏨ	-11.9335
▁ᏓᏨᏯ	-11.934
▁ᏭᎷ	-11.934
ᏟᏍᏕ	-11.9343
ᎶᏔᏁ	-11.9349
ᏚᎴᏔᏁᎢ	-11.9351
▁ᏱᏚᏪᎵᏎ	-11.9351
▁ᏱᏂᎨᏣ	-11.9351
ᏅᏩᏅᎯ	-11.9352
ᎴᏅᏗᏍᎪ	-11.9359
▁ᎠᏂᏁᏉ	-11.9365
ᎦᏘᏁ	-11.9366
ᎩᏃᎮᏍᎬᎢ	-11.9366
ᎪᎮᎢ	-11.9372
ᎦᏱ	-11.938
ᏓᏓᏬᏍᎬᎢ	-11.9381
ᏓᏂᎸᎦ	-11.9386
ᏂᎵᏰᏗᏍᎬ	-11.9387
ᏜᏗ	-11.939
▁ᎤᏃᎮᎴ	-11.939
ᏌᏙ	-11.9395
ᎾᏕᏯᏙᏔᏅᎩ	-11.9401
ᎩᏁᎫ	-11.9402
▁ᎢᎬᏁ	-11.9403
▁ᏯᏙ	-11.9408
▁ᏱᏗᎨᏥ	-11.9409
▁ᏚᎦᏔ	-11.9413
▁ᎤᎸᎮ	-11.9416
ᎾᏕᎨ	-11.9424
▁ᎤᎾᏗᏫᏎ	-11.9425
▁ᎠᏂᎧᎵᏏ	-11.9428
ᏴᎳᏒ	-11.9429
ᎾᎯᏳ	-11.9432
ᏘᎹ	-11.9438
ᏍᎪᏎ	-11.9439
ᏕᎬ	-11.9446
ᏕᎶᏆᎥ	-11.945
ᏂᏆᏘ	-11.9464
ᎯᏍᏆᏂᎪᏕᏍᏗ	-11.9471
▁ᎫᎾ	-11.9474
▁ᎤᎾᎵᏍᎪᎸᏙᏗ	-11.9477
ᏂᏩᏛᏗᏱ	-11.9481
▁ᏥᏚᎸᏫᏍᏓᏁ	-11.9486
ᎾᎢᏒᎢ	-11.9489
ᏆᏙᎳ	-11.9492
ᏎᎮᎢ	-11.9494
ᏟᎶᏒᎸ	-11.9495
ᏚᏁᎴ	-11.9496
ᎵᏎᎯ	-11.9501
ᏓᏴ	-11.9525
▁ᎠᏂᎩᎵᏲᏥᏙ	-11.9526
▁ᎯᏐᏢᎢᏍᏗ	-11.9529
▁ᏥᏄᎾᏍ	-11.9534
ᏨᏔᏅ	-11.9534
▁ᎣᎦᏛᏅᎢᏍ	-11.9538
ᏄᎸᏅ	-11.9542
▁ᎤᏂᏍᏛᏗᏍᏗ	-11.9543
ᏐᏢᏔᏅ	-11.9547
▁ᎡᏥᎦᏙᎥᎯᏍᏗ	-11.9547
▁ᏫᏗᎨᎦ	-11.9547
▁ᏥᏫᏓ	-11.9548
ᏣᎳ	-11.9556
▁ᎠᎩᎶ	-11.956
ᏅᎡᎸ	-11.9561
ᏃᎮᏎ	-11.9566
ᏗᎦ	-11.9571
▁ᎤᏍ	-11.9572
▁ᎢᎧ	-11.9578
ᎴᎰᏒ	-11.9578
▁ᎠᏆᏁᎳᏫᏎ	-11.9579
▁ᏧᏲᎱᎯᏎ	-11.9583
ᎳᎭ	-11.9584
ᎯᏯᏍᎨᏍᏗ	-11.9589
ᎵᏱ	-11.959
▁ᎦᏅ	-11.9596
ᏓᏓᎴᏔᏅᎯ	-11.9597
ᏰᎢᎵᏓᏍ	-11.9599
▁ᏚᏂᎾᏫ	-11.9604
▁ᎤᏗᏒ	-11.9609
▁ᏕᏍᎩᏯ	-11.9613
▁ᎤᏓᎸᏉ	-11.9614
▁ᎣᎪᏪ	-11.9616
ᏯᏪᏨ	-11.9623
ᎦᏄᎪᏫᏍᎨᎢ	-11.9624
▁ᎢᏥᏍᎦᎾᎯ	-11.9626
ᏣᏚᎵᎭ	-11.9629
ᏥᏍᏕᎵᏍᎬ	-11.9631
ᏕᎲᎩ	-11.9633
ᎸᏉᏗᏍᎪ	-11.9638
ᏟᏂᎬᏁ	-11.9642
ᏒᎦ	-11.9644
ᏚᏂᏁᎴ	-11.9644
▁ᎨᏍ	-11.9646
▁ᏗᎪᎵ	-11.9651
▁ᏓᏂᏟᏏᏍ	-11.9655
ᏥᏂᏴᎯ	-11.9657
ᏯᏫᏍᎩ	-11.9658
▁ᎤᏂᎷᏤᏃ	-11.966
▁ᎢᏣᎵᏩᏛᎡ	-11.9665
▁ᎬᏩᏍᏓᏩ	-11.9667
ᏙᏢ	-11.9671
▁ᎣᏣᎵᏍᎦᏍᏙᏗ	-11.9672
ᏲᏩ	-11.9675
▁ᏣᎩᎵᏲᎢᏍᏗ	-11.9686
▁ᎡᏥᎸᏉᏙᏗ	-11.9686
▁ᎢᏥᎶᏒᏍ	-11.9693
▁ᎤᏂᏁᏟᏴ	-11.9695
▁ᎢᏨᏯᏅᏓᏗ	-11.9698
▁ᎬᏩᏓᏅᎡ	-11.97
▁ᏣᏆᎵᏂᎪᎯᏍ	-11.9704
▁ᏥᏨᏯᎵᏥᏙᏁ	-11.971
▁ᎤᏩᏂᎦᎸ	-11.9714
▁ᏗᏣᎶ	-11.9717
▁ᎤᏴᏔᏁ	-11.9721
ᎵᎵ	-11.9721
ᎶᎨᏒ	-11.9722
ᏥᏍᎪᎵ	-11.9724
ᏣᏖᏍᏗ	-11.9726
▁ᏙᏓᏥᏲ	-11.9726
ᏂᎧᏅ	-11.9727
ᏩᏛᎯᎯᏍᏗ	-11.9728
ᏗᏙᎯ	-11.9729
▁ᎤᎬᏫᏳᏒ	-11.973
▁ᏃᎦᎵᏍ	-11.9736
ᎸᏉᏕᏍᏗ	-11.9736
ᏍᏆᏂᎪᏛᎢ	-11.9742
▁ᎨᎦᏛᏅᎢᏍ	-11.9758
ᏒᏁᎴ	-11.976
ᏗᏔᏍᎬ	-11.9763
ᎦᏔᏎ	-11.9767
▁ᎤᎪᎵᏰᏍᎨ	-11.9771
ᏗᎨ	-11.9775
ᏲᏥᎶᏒᏍ	-11.9782
ᎠᏰᎸ	-11.9782
ᎵᎥᏂᎮᏍᏗ	-11.9786
▁ᏗᎩᏬᏂᎯ	-11.9787
ᏂᏣᏘ	-11.9789
ᎾᏝᎥᎢ	-11.9798
ᏩᏁᎵ	-11.9804
▁ᎤᏂᏌᎳᏓᏅ	-11.9807
ᎤᎴᏅ	-11.9807
▁ᎢᏥᏍᎦ	-11.9807
▁ᎢᎫᏓᎴ	-11.9812
▁ᏱᏗᏓᏓ	-11.9819
▁ᎾᎾᏛᏁ	-11.9825
▁ᎬᏩᏛᏛ	-11.9828
ᎣᏒᎩ	-11.9829
▁ᎤᏘᏍᏛ	-11.983
ᏎᎵᏛ	-11.9835
▁ᎤᏁᎴ	-11.9839
▁ᏗᎦᏔ	-11.9839
▁ᏫᎬᏁ	-11.9844
▁ᎤᎾᏘ	-11.9846
▁ᎯᎨᏳ	-11.9848
▁ᎢᏴᏛᎭ	-11.985
ᏓᏰ	-11.9854
▁ᏗᏓᎴᎲᏍᎪ	-11.9856
ᏂᏁᎸ	-11.9859
▁ᎦᏥᏯᎵᏥᏙᏁᏗ	-11.9859
ᏡᎬ	-11.986
ᏯᏰ	-11.9861
▁ᏦᎩᏄ	-11.9863
▁ᎠᎩᏃᎮᎸ	-11.9867
▁ᎤᎾᏄᎪ	-11.9873
▁ᎠᏥᏯᏅ	-11.9873
▁ᎨᏣᎵ	-11.9876
▁ᏗᎦᏲᏥ	-11.9876
▁ᏱᏙᎬᎩ	-11.9877
ᎳᏗᏙᎸᎢ	-11.9878
ᎷᏥᏌᏁ	-11.9882
ᏴᏎᎴᎢ	-11.9886
▁ᎪᎦᏓᏅᏖᏍ	-11.9886
ᎴᏂᏙᎲᎢ	-11.9888
ᎫᏴᏛ	-11.989
▁ᎠᏥᏚ	-11.989
▁ᎤᎾᎵᏔ	-11.9893
ᏡᏗᏍᎪ	-11.9895
ᏙᎵᏍᏗᏍᎬᎢ	-11.99
ᏗᏙ	-11.9903
▁ᎠᏲᎱᎯ	-11.9908
ᎵᎯ	-11.9909
ᎴᏂᏙᎭ	-11.991
▁ᎢᏣᎦᏔᎲ	-11.991
▁ᎬᏍᎬ	-11.9911
▁ᎤᏛᏅᎢᏍ	-11.9913
ᎦᎵᏍᎪᎢ	-11.9922
ᎸᏉ	-11.9925
▁ᎢᏛᏗᏍ	-11.9925
▁ᏕᏣᏙ	-11.9934
ᏥᎩᎡᏗ	-11.9935
ᏳᏩᏁᎵ	-11.9937
▁ᏥᎦᎧ	-11.9937
ᎾᏰᎯᏍᏗᏱ	-11.994
ᏨᏁᎭ	-11.9941
ᎩᎷᏤᏗᏱ	-11.9942
ᏤᏅᏒᎩ	-11.9946
ᎩᏲᏏᎯ	-11.9946
ᏄᎪ	-11.9947
ᎶᏙᏗ	-11.9953
▁ᏚᎾᏓᏁᏤ	-11.9953
▁ᏣᎾᏗ	-11.9955
ᎦᏙᎠᏍᎪ	-11.9956
ᎴᏔᏅᎩ	-11.9972
▁ᏂᎨᎬ	-11.9972
▁ᏚᏬᏁᏔᏁ	-11.9978
ᏳᏍᏗ	-11.9981
ᎫᏍᏛ	-11.9983
ᏥᎪᎵᏰᏍᎩ	-11.9986
ᏍᏛᏗᏍᏗ	-11.9986
▁ᎢᎨᏨᏁ	-11.9988
▁ᎤᏲᎸ	-11.9997
ᎩᏍᎦᎩ	-11.9998
▁ᏗᏣᎸᏫᏍᏓᏁ	-12
▁ᏕᏥᏍᏚ	-12.0002
ᏍᎩᏁᏥ	-12.0005
▁ᎤᏪᎳᏗᏍ	-12.0013
▁ᎬᏂᎨ	-12.0016
▁ᎠᏆᏚᏓᎸ	-12.0016
ᏥᏍᎦᎾᎯᏳ	-12.0026
▁ᎤᏓᏅᎦᎸᏗ	-12.003
ᎵᏃᎮ	-12.0032
▁ᏯᏆᏓᏅᏔ	-12.0038
ᏚᏓᎳᎡᎸ	-12.0042
ᏙᏔᏅ	-12.0043
▁ᎢᏗᎷ	-12.0045
ᏰᏍᎨᏍᏗ	-12.0046
ᏅᏏ	-12.0047
▁ᏥᏄᎾ	-12.0049
▁ᏥᏥᏲ	-12.0051
▁ᎠᏥᎪ	-12.0053
▁ᎣᎩᏩᏛ	-12.0053
▁ᎠᎩᏢ	-12.0054
▁ᏥᏕᎦᏕᏲ	-12.0059
▁ᏱᏣᏰᎸ	-12.0059
ᎶᏂ	-12.0059
ᏣᏠᏯ	-12.0062
▁ᏂᏓᏅ	-12.0062
▁ᎠᎩᏩᏛ	-12.0068
▁ᎤᎸᏒ	-12.0069
ᏬᏎᎴᎢ	-12.0076
▁ᏗᏃ	-12.0079
ᏥᎵᎥᏂᎮᏍᏗ	-12.0084
ᏥᏃᏁᎭ	-12.0087
ᏓᎷᎸ	-12.0089
ᏗᏙᎰ	-12.009
ᏍᏆᏂᎪ	-12.0091
▁ᏓᏃ	-12.0096
ᎤᏪᏅᏃ	-12.0096
ᏐᎾ	-12.0097
ᏩᏛᏍᏗᏱ	-12.0104
▁ᏙᏨ	-12.0109
ᎩᏪᏎᎸᎩ	-12.011
▁ᎤᏂᏍᏓᏱ	-12.011
ᎵᎥᏂᎸ	-12.0115
▁ᏱᏂᎦᏪ	-12.0116
ᏨᏏᏗ	-12.0116
▁ᎨᏥᏚᎢᏍᏓ	-12.0118
ᏓᎵᏁᎯᏕᏗ	-12.0133
▁ᏚᎾᏘᏃ	-12.0139
ᎾᎵᏍᏓᏴᏂ	-12.0144
▁ᎥᏥᏅ	-12.015
ᏲᎲᏍᎬ	-12.015
ᎵᏍᏗᏍᎩ	-12.0151
▁ᎤᏁᎵᏍᏗ	-12.0155
ᎯᏍᏗᏍᎩ	-12.0162
ᎩᎦᎨᎢ	-12.0163
ᎳᏍᏚ	-12.0168
ᏅᏁᏗ	-12.0169
▁ᎤᎵᏍᏓᏴᏙᏗ	-12.0171
▁ᎡᏍᏕ	-12.0172
ᎶᏐᏅ	-12.0173
▁ᏗᏓᏂᎸ	-12.0176
▁ᏚᎾᏕᏲ	-12.0177
▁ᎨᎦᏠᏯᏍ	-12.0181
ᏚᏳᎪᏗ	-12.0181
▁ᎢᏤᏙ	-12.0191
ᏚᏯᏙᎮᎸ	-12.0194
ᏬᏘ	-12.0194
ᎭᏍᎦ	-12.0194
ᏍᏚᎢᎡᎴ	-12.0197
▁ᏧᏍᏆᏂᎪᏙᏗ	-12.0197
ᎵᎠ	-12.02
ᎱᏍᏕ	-12.02
ᏓᏁᏘ	-12.0201
ᏂᎸᎨᏍᏗ	-12.0205
▁ᏱᏍᎩᏁ	-12.0206
▁ᎬᏩᏔᏲᏎ	-12.0212
ᏯᎪᏗᏱ	-12.0216
ᎦᎧᎯᏯᏍ	-12.022
ᏓᎳᎻ	-12.0222
ᎸᏒ	-12.0222
ᏍᎪᏂᎮ	-12.0222
▁ᏓᎾᏕᏍᎪ	-12.0225
▁ᎢᏨᏁᎵ	-12.0229
▁ᏱᏨᏲᏎ	-12.0229
▁ᎤᏱᎶ	-12.0229
ᏚᎵᏍᎪ	-12.023
ᏄᎪᏨᎩ	-12.0232
▁ᏥᏫᏨᏲᏪᎳᏁ	-12.0235
ᏥᏕᎸᎩ	-12.0239
▁ᎬᏩᏂᏱᎵᏙ	-12.0239
ᎤᏍᏕᏎᎸᎯ	-12.024
▁ᎣᏨ	-12.0244
▁ᏂᎬᏁ	-12.0245
ᏙᎯᏳ	-12.0246
▁ᎢᏳᏍᎩ	-12.025
ᎬᏂᏍᏙᏗ	-12.0254
ᎪᎵ	-12.0255
ᏑᎴ	-12.0257
▁ᏗᎬᏩᎾᏁᎶ	-12.0259
ᎬᏕᎪ	-12.026
ᏰᎢᎵ	-12.026
▁ᏗᏞ	-12.0263
▁ᎠᎦᏓᏓᎴᏔ	-12.0263
ᎦᎾᏄᎪᏫᏍᎦ	-12.0265
▁ᏳᏬᎯᏳ	-12.0265
ᏄᏬᏍᏓ	-12.0266
▁ᏂᎬᏩᏪᏎ	-12.0273
▁ᏕᏍᏓ	-12.0274
ᏎᎸᎢ	-12.0275
ᏛᏅᎢᏍᏓᏁᎴ	-12.0282
▁ᎢᏥᏰ	-12.0287
ᏩᏁᏗᏱ	-12.0288
ᎷᎪ	-12.0291
ᏣᎦᏌᏯᏍ	-12.0293
ᏍᏆᏂᎪᏓ	-12.0297
▁ᎠᏥᏍᏛᏗᏍ	-12.0299
▁ᏗᎬᏩᏃ	-12.0299
ᏥᎳᏫᏤ	-12.0308
ᏍᎩᏰᏲᎲ	-12.0313
▁ᎠᎦᏕᏯᏙ	-12.0314
ᎬᏬ	-12.0318
ᎦᎵᏂᎪᎯ	-12.0318
▁ᎫᏓ	-12.0319
ᏯᎪ	-12.0322
ᏱᎵᏙᎲᎢ	-12.0329
▁ᏚᏭᎪᏔ	-12.033
▁ᎢᏥᎧᎵᎢᏍᏗ	-12.0336
ᏘᏍᏔᏅᎩ	-12.0336
▁ᏤᏅ	-12.0342
ᎠᏍᎪᎢ	-12.0343
ᏯᏴᎭ	-12.0343
ᎿᏉ	-12.0359
▁ᎥᏗ	-12.0367
ᏚᎬ	-12.0371
ᏤᎵᎯᏍ	-12.0377
ᏨᏁᎵ	-12.0384
▁ᏫᏚᏂᏁ	-12.0385
▁ᎬᏩᎷ	-12.0386
ᏓᏅᏓᏓ	-12.0386
▁ᎤᎵᏛᏔ	-12.0386
▁ᏥᏥᎪᏩ	-12.0387
ᏛᏍᎬᎢ	-12.0392
▁ᎤᏁᏉᎡ	-12.0394
▁ᏕᏥᎨᏳᏒ	-12.0398
ᎩᎸᏉᏗᏍᎩ	-12.04
ᏈᏯ	-12.0401
ᎦᎾ	-12.0404
ᏕᏋᎯᏍ	-12.0404
ᎾᏗᏔᏍᎬ	-12.0409
▁ᎢᏥᎦᏔ	-12.041
▁ᎤᏪᎧᎮ	-12.0411
ᏆᏓᏅᏓᏗᏍᏓ	-12.0412
ᎪᎵᏰᎭ	-12.0412
▁ᎾᏍᎦ	-12.0414
▁ᏕᏥᎾᏰ	-12.0416
▁ᎤᏕᏔ	-12.0417
ᎪᎲᎢ	-12.0418
ᏂᏰᎸᎭ	-12.042
▁ᎢᏨᏰᎳᏗ	-12.0421
ᎾᏕᎪ	-12.0424
ᏛᏃᎯ	-12.0427
ᏥᎦᏔᎲᎩ	-12.0431
ᏚᎢᏍᏗ	-12.0434
ᏟᏂᎬᏁᎴ	-12.0437
ᎸᏅ	-12.0439
ᏬᏂᏍᎬᎢ	-12.0443
▁ᎦᎶᏐᎲᏍ	-12.0448
ᏔᏁᏃ	-12.0449
ᎢᏍᎨᏍᏗ	-12.045
ᏲᎲᏍᎩ	-12.045
ᏨᎵ	-12.045
▁ᎤᏩᏎ	-12.0453
ᏃᏴᎬ	-12.0454
ᏴᏒ	-12.0459
ᏰᎸᏎᎢ	-12.046
▁ᏙᏥᏩᏛᎲ	-12.046
ᏙᏢᏒᎢ	-12.0464
ᏥᏐᏅᏅᎯ	-12.0465
ᏌᏓᏗᏍᏗᏱ	-12.0466
▁ᎤᏍᎫᏕ	-12.0476
ᏂᏕᎦᏪᏎᎰ	-12.0482
ᎳᎻᏃ	-12.0494
ᏖᎸᎲᏍᎬ	-12.0498
ᏥᏍᏕᎸᎮᎢ	-12.0498
▁ᏗᎦᎪ	-12.0501
ᎩᏲᎱᎯᏍᏗᏱ	-12.0504
▁ᎠᏁᎵᏍ	-12.0509
ᏬᎡᎢ	-12.0509
▁ᏗᏥᏁᎸ	-12.051
▁ᏯᏘ	-12.0511
▁ᏴᎦᎦ	-12.0512
ᏢᏅᎩ	-12.0514
▁ᎠᏂᏯ	-12.0516
ᏂᏓ	-12.0516
ᏕᎲᎢ	-12.052
ᏍᏓᏩᏕᏏ	-12.0522
▁ᏅᏛᏂᏪ	-12.0522
ᏫᏯ	-12.0522
▁ᎤᏂᎸᏉ	-12.053
ᎹᎹ	-12.0531
▁ᏕᏥᏂ	-12.0532
ᏤᎦ	-12.0532
ᏝᏍᎩᏂ	-12.0534
▁ᏤᎵ	-12.0534
▁ᎠᏍᏚᎢᏍ	-12.0535
▁ᎤᏗᎦᎵᏍᏙᏗ	-12.0541
ᎻᏗ	-12.0549
ᏃᏟᏍᏔ	-12.055
ᎪᏎᏗ	-12.0551
▁ᏓᏅ	-12.0552
▁ᏄᎵᏍᏓᏁ	-12.0552
▁ᎠᏆᎵᏥᏙ	-12.0554
ᏲᎰᎢ	-12.0554
ᏗᏍᎦᎶᏗ	-12.0555
ᎬᏯᏎᎮ	-12.0559
ᏂᏲ	-12.0563
▁ᏗᎦᎴᏅᏗ	-12.0563
ᏣᏔ	-12.0564
▁ᏗᎬᏩᏲ	-12.0568
▁ᎠᎩᏃᏁᎸ	-12.057
ᎵᏍᎪᎸᏗᏍᎬᎢ	-12.0571
▁ᏱᏂᏣᏛ	-12.0572
▁ᎠᎦᏛ	-12.0577
ᏐᎯᏍᏗᏱ	-12.0578
ᏯᏛ	-12.0579
▁ᎤᏙᎴᎰ	-12.0579
▁ᏯᎾᎵ	-12.0581
▁ᏄᎨᏳ	-12.0585
ᏄᎪᏥ	-12.0588
ᎩᏍᏆᎸᏔᏅ	-12.0591
ᎵᏙᎸᎢ	-12.0592
ᏰᎮᎢ	-12.0599
ᏙᎾᎥᎩ	-12.0599
ᏘᎾᏫᏛᎮ	-12.0601
ᏣᏓᏓᎴ	-12.0601
▁ᏣᏰᎸ	-12.0604
ᎴᏂᎴᎢ	-12.0604
ᏴᎩᏅᎯ	-12.0605
▁ᏏᏂ	-12.0605
ᎨᏥ	-12.0605
ᏲᏎᎢ	-12.0606
▁ᎠᏂᎦᎾᎦ	-12.0606
▁ᏩᎦᏘᏅᏍ	-12.0609
ᏐᎲᏍᏗᏱ	-12.0616
▁ᏗᏧᎪ	-12.0618
ᏖᎸᎲᎦ	-12.0623
▁ᎤᏅᏤ	-12.0627
ᎬᏩᏂᏴᎯ	-12.0629
ᏥᎦᏙᎥᎯᏍᏗᏱ	-12.0638
▁ᏗᎧᎾ	-12.0639
▁ᏗᎨᎪᏪᎶ	-12.0639
ᎦᏁ	-12.064
▁ᎦᏴᎩ	-12.0645
▁ᏳᏓᏅ	-12.0656
ᏦᎯᏳᎲᎦ	-12.0658
ᎤᏣᏘ	-12.0664
ᏛᎦᏁᎴ	-12.0665
ᏏᏙᎴ	-12.0668
▁ᎤᏂᎿᎸ	-12.0668
▁ᏧᎵᏍᏚ	-12.0671
▁ᏣᎪᏩᏘᏍ	-12.0671
ᎵᎶᎲᏍᎦ	-12.0672
▁ᏚᏍᏓ	-12.0684
ᏲᎵᎴ	-12.0686
ᎨᏥᏲᎵ	-12.069
▁ᏳᏃ	-12.0692
▁ᎠᏍᎦᏅ	-12.0693
ᏅᏍᏓᏕᎸᎩ	-12.0693
ᏩᏘᏍᎬᎩ	-12.0696
ᏆᏍᏗ	-12.0698
ᎥᎦ	-12.0699
ᏄᎪᏫᏎᎢ	-12.0699
▁ᏧᏭᏓᎴ	-12.0699
ᎵᏰᎡᎢ	-12.0702
▁ᎪᎯᏳᏙ	-12.0703
▁ᏫᎨ	-12.0713
ᎷᏤᎲᎢ	-12.0726
ᎦᏢᏔᏍᏗ	-12.073
▁ᏂᏗᏗ	-12.0731
▁ᏥᏚᏂᏂᏴ	-12.0736
ᏘᎸᏉᏙ	-12.0741
ᏅᎢᏍᏔᏅ	-12.0743
ᏴᏉ	-12.0744
▁ᎤᏍᏛᏗᏍᏗ	-12.075
ᏢᏙᏗᏱ	-12.075
▁ᎠᏆᏄᏬ	-12.0751
▁ᏏᎳ	-12.0753
ᏪᏢ	-12.0758
▁ᏗᎫᏴᎡ	-12.0759
▁ᎬᏬᎯᏳᏗ	-12.076
▁ᎢᏤᏲ	-12.076
ᎬᏗᏍᎬᎩ	-12.0762
▁ᏘᏂᏣ	-12.0764
▁ᎿᏛᏁ	-12.0765
▁ᎤᏃᏁᏗ	-12.0765
▁ᏚᏂᏍᏗᏰ	-12.0766
ᏟᏌᏂ	-12.0767
ᏗᎵᎲ	-12.0768
ᎦᏐᎠ	-12.0768
ᏅᏓᏗᏍᏗᏍᎩ	-12.0769
▁ᎤᏛᏅᎢ	-12.0776
▁ᎢᏣᎵᏍᎪᎸᏔ	-12.0777
▁ᏳᎳ	-12.0777
ᏃᎯᏳᏗ	-12.0778
ᏗᏔᏍᎦ	-12.078
▁ᏭᏩ	-12.0781
▁ᏂᏨᏪ	-12.0782
▁ᎢᏯᎦᎵ	-12.0782
ᎦᎶ	-12.0784
ᏦᎯᏳᏅ	-12.0785
ᎵᏰᎢᎵ	-12.0788
▁ᎤᏂᎦᏙᎥ	-12.0789
ᎧᎵᏏᏏ	-12.0793
ᎾᏛᏅᎢᏍᏗ	-12.0793
ᏣᏙ	-12.0794
▁ᎬᏩᎦᏌᏯᏍ	-12.0802
▁ᎤᏁᎳᏗᏍ	-12.0803
ᎾᎢᏒ	-12.0804
▁ᏥᎡᏥ	-12.0807
▁ᏕᏥᏲᎵ	-12.0807
▁ᎤᏂᎧᎵᎢᏍ	-12.0807
▁ᏗᏂᎧᎿᏩ	-12.0808
ᎩᎵ	-12.0809
ᎩᎵᏲᎢᏍᏗᏍᎨᏍᏗ	-12.0816
ᏜᏅᏓᏗᏍᎨ	-12.0816
ᏥᏯᎵᏍᎦᏍᏙᏔ	-12.0817
▁ᎤᏲᎵ	-12.0819
ᏂᏬᏂᏍᎨᏍᏗ	-12.082
▁ᏥᏕᎫᎪᏓᏁ	-12.0822
ᎢᏤ	-12.0829
ᏕᏯᏔᏁᎮᏍᏗ	-12.083
▁ᎤᏂᏩᏛ	-12.0833
ᎵᏍᏗᏰᏓᏁ	-12.0839
ᏚᏅᎦᎸᎡ	-12.084
ᏚᎩᏍᏗᏱ	-12.0842
▁ᏱᏥᏲ	-12.0845
ᏬᏂᏍᎪᎢ	-12.0846
ᏆᏙᏔᏅ	-12.0848
▁ᏅᏓᏳᎶ	-12.0852
▁ᎬᏩᏍᏆᏂᎪᏙᏗ	-12.0855
▁ᎢᏣᎸ	-12.0858
ᏲᎲᏍᎦ	-12.0858
ᏅᏬᏗᏱ	-12.0861
ᏥᏲᎢᏎ	-12.0865
ᏲᎯᏎᎸᎢ	-12.0868
▁ᎤᎪᎵᏰᏍᎬ	-12.0868
ᏱᎵᏙ	-12.0873
ᎷᏤᎮᏍᏗ	-12.0878
ᏗᏩᏛᎯ	-12.0879
ᎪᎨ	-12.0879
▁ᎨᎢ	-12.0879
ᏯᏃ	-12.0886
ᏂᎳᏫᎢᏍᏗᏱ	-12.0887
▁ᏚᎾᏗᏩᏍ	-12.089
▁ᎠᎦᏘᎾᏫᏛ	-12.089
ᏥᏯᎥ	-12.0892
ᏓᏛᏁᎲᎢ	-12.0895
ᏰᏎᎢ	-12.0902
ᏩᏒᎯ	-12.0904
▁ᎠᏂᏯᏫᏍᎬ	-12.0906
▁ᏗᏍᏚ	-12.0907
▁ᎠᏂᏍᎪ	-12.091
▁ᎢᏥᎪᏩᏛᏗ	-12.0916
▁ᏱᏚᎸᏫᏍᏓ	-12.0924
ᏗᎧᎿᏩᏛᏍᏗ	-12.0927
▁ᏗᏁ	-12.0927
▁ᎠᎵᏍ	-12.0931
ᏥᎪᏩᏗᎭ	-12.0948
ᏓᏰᏣ	-12.0948
▁ᎤᏂᏍ	-12.0965
ᎤᏲ	-12.0966
▁ᏛᎭ	-12.0969
▁ᎤᎾᎵᎮᎵᏤᏗ	-12.0971
▁ᏴᎦᎦᎵ	-12.0971
ᎦᎵᎲ	-12.0975
ᏥᎸᏉᏔᏂ	-12.0975
ᏙᎠᏎ	-12.0978
▁ᎠᏆᏕᎰᎯᏍ	-12.0983
ᏣᏁᎸ	-12.0986
▁ᎬᏍᏗᏰ	-12.099
▁ᎯᏃ	-12.099
ᎯᏢ	-12.0992
ᏐᏢᏔᏁᎢ	-12.0996
▁ᏕᎤᏂᎸᏫᏍᏓᏁ	-12.0999
▁ᎤᎵᏁᏌ	-12.1
▁ᏣᏅ	-12.1001
ᎾᏫᏛᎮᎢ	-12.101
ᏯᏍᏚ	-12.1011
▁ᏧᏘᏃᎯᏍᏗ	-12.1011
▁ᎢᏗᎵ	-12.1012
ᏍᏛᎦᎸ	-12.1013
ᏗᏒᏂ	-12.1021
▁ᎢᏗᎦᏲ	-12.1023
▁ᎦᎳ	-12.1023
ᏁᎩᏳ	-12.1026
▁ᏓᎵᏂᎪᎯᏍᏗᏍᎪ	-12.1027
▁ᏕᎪᏢ	-12.1028
▁ᏚᏍᏚᎢᎡ	-12.1032
▁ᎤᏂᎵ	-12.1036
ᏔᎦ	-12.1041
ᏥᏁᏉᎡ	-12.1042
▁ᎠᎦᏛᏁ	-12.1044
▁ᏄᎾᎵᏍᏓᏁ	-12.1051
ᏚᎢᏍᏙᏗ	-12.1052
▁ᎤᎾᏁᎶ	-12.1058
ᏤᏪ	-12.1062
ᏖᏅ	-12.1063
ᏣᏓᏁᎳᏅ	-12.1065
ᎴᏅᏗᏍᎩ	-12.1065
ᏥᏂ	-12.1066
ᎩᏐᏅᏰ	-12.1068
ᏯᏂᏍᎪ	-12.1069
ᎾᏘᏃᎸᎩ	-12.1069
ᏩᏍᏗ	-12.1072
▁ᎥᏝᏍᎪ	-12.1074
▁ᎤᏓᎢᏅ	-12.1074
ᏌᏓ	-12.1076
▁ᏫᏣᎦᏔ	-12.1077
▁ᎯᎦ	-12.1079
ᏍᏓᏱᏗᏍᎬ	-12.1082
▁ᏂᏚᏅᏁ	-12.1085
▁ᏅᏓᏣ	-12.1085
▁ᏱᏂᏕ	-12.1086
▁ᏓᏁ	-12.1094
ᏥᏍᏓ	-12.1099
▁ᏯᏁ	-12.1107
ᎠᏓ	-12.111
▁ᎡᏥᎸᏉᏗ	-12.1111
ᎢᏳᎵᏍᏙᏗᏱ	-12.1114
ᏩᏛᎡᎮ	-12.1114
▁ᎤᎵᎮ	-12.1118
▁ᏳᏕ	-12.1124
▁ᏗᎬᏂ	-12.1127
ᏣᏓᏂᎸᎢᏍᏗ	-12.1129
ᏘᏃᎯᏏ	-12.113
▁ᎢᏥᏙᎵᏍᏗ	-12.1134
▁ᎨᏍᎩᏐᏢ	-12.1136
ᎤᏤᎵᎦ	-12.1136
▁ᏫᏙᎤ	-12.1137
▁ᏚᎸᏌ	-12.1139
ᏪᏎᎲᎢ	-12.1142
ᏍᏗᏃ	-12.1144
ᏯᏙᎵᎩ	-12.1145
▁ᎦᎾᏄᎪᏫᏒ	-12.1145
▁ᎧᏄ	-12.1147
ᎨᏅᏗᏍᏗ	-12.1153
ᏣᏗᏍᏓᏁ	-12.1157
▁ᏕᎨᎦᏬ	-12.1158
▁ᏙᏱᏗᏢᏉ	-12.116
ᎵᏬ	-12.1164
▁ᎠᏙᏢ	-12.1165
ᏲᎯᏎᎲ	-12.1165
ᏂᏗᎩ	-12.1166
ᏥᎵᎥᏂᎸᎢ	-12.1168
ᏲᏎᏗ	-12.1169
▁ᏧᎾᏓᏁᎳ	-12.1172
▁ᏙᏤᎵ	-12.1175
▁ᏓᏲᏍ	-12.118
ᏂᏢᏅᎩ	-12.118
ᎪᎾᏛ	-12.1181
▁ᏃᏥ	-12.1183
▁ᎾᎦᏔᎰ	-12.1188
ᏛᏔᏁ	-12.1188
▁ᎠᏍᎦᎨ	-12.119
▁ᎦᏓᏁᎢᏍ	-12.1193
▁ᎤᏁᏎ	-12.1195
ᏛᏓᏍᏓᏏ	-12.1199
ᎡᏗ	-12.1202
ᏒᎦᎸᎩ	-12.1205
ᏚᎢᏍᏛ	-12.1207
ᎾᏂᎥ	-12.1208
ᏨᏁᎸᎢ	-12.1213
ᎾᏥ	-12.1216
ᏍᏕᎸᎯᏓ	-12.122
ᎤᏤᎵ	-12.122
▁ᎠᏇᏓ	-12.1223
▁ᏤᏦ	-12.1224
ᏡᏗᏍᎬ	-12.1225
▁ᏣᏂᏁ	-12.1225
▁ᏧᏒᎦ	-12.1227
▁ᏧᏅᏙᏗ	-12.1235
ᎥᎭ	-12.1239
ᏚᏂᎸᏫᏍᏓᏁᎮ	-12.1243
ᎦᏅᎩ	-12.1246
▁ᏓᎩᏩ	-12.125
ᎵᏫ	-12.1252
▁ᏕᎦᏓᏅ	-12.1252
▁ᎢᏥᎷ	-12.1254
ᎴᏍᏗᏱ	-12.1256
▁ᎢᏣᎫᏴ	-12.1265
▁ᏗᏄ	-12.1269
ᎯᎯᏍᏗᏱ	-12.1269
▁ᏄᎵᏍᏓᏁᎴ	-12.1269
ᏲᏤᎢ	-12.127
▁ᎤᏁᎷ	-12.1274
ᏲᏨᎯ	-12.1275
ᏣᏲᎯᏎᎸᎯ	-12.1278
ᏤᎴᎢ	-12.128
ᎩᏁᎵ	-12.128
ᎸᏫᏍᏓᏁᎭ	-12.1282
▁ᎢᏨᎨᏳ	-12.1283
▁ᏧᎸᏉᏙ	-12.1284
ᎾᏰᏍᎬᎢ	-12.1284
ᏠᏯ	-12.1293
ᏁᏤᎴᎢ	-12.1293
▁ᎠᎩᏫ	-12.1295
▁ᏂᏥᏴ	-12.1296
▁ᎠᎾᏓᏛ	-12.1297
ᏣᏛᏁᎵᏙᎲ	-12.1298
ᎩᏍᏆᏂᎪᏙᏗᏱ	-12.1301
▁ᎢᏰᏨᏁ	-12.1302
ᎩᎾᎵᎪᎭ	-12.1302
ᏘᎶᏛ	-12.1303
▁ᏧᏠᎠᏎ	-12.1304
ᎠᏃ	-12.1308
ᏆᏙ	-12.1311
▁ᏫᏍᏗ	-12.1312
▁ᏧᏬᏪ	-12.1312
▁ᏗᎦᏬᏂ	-12.1315
▁ᏥᎥᎡ	-12.132
ᏉᎳ	-12.1326
ᏂᎸᎬᎾ	-12.1327
ᏲᏍᏗᏍᎬ	-12.1329
ᏕᎶᏆᎡ	-12.1331
ᏳᎾᏄᎪᎢᏍᏗ	-12.1335
▁ᎭᎵᏍᏓᏴ	-12.1335
ᏆᎵᏃᎮᏗᏍ	-12.1338
ᎪᎩᏂᏄᎪ	-12.1342
ᏲᎢᏍᏗᏱ	-12.1342
▁ᏱᎬᏆᏛ	-12.1345
ᎵᏍᏓᏱᏗᏍ	-12.1349
ᎧᎿᏁᎢ	-12.1351
ᏯᏅᏒ	-12.1353
▁ᏄᎾᏛᎿ	-12.1353
ᎾᏕᏅ	-12.1358
ᏖᏉᎶ	-12.1359
▁ᎪᎯᏳᎲᏍᎪ	-12.1359
ᏓᎸᎢ	-12.136
▁ᎢᏨᏁᎢᏍᏓ	-12.1363
ᏩᏓᎴᏃ	-12.1366
ᏅᎦᎸᏙᏗᏱ	-12.1369
▁ᎦᏃᏍᎩᏍ	-12.1369
▁ᏙᎩᎸᏫᏍᏓ	-12.1369
▁ᎠᏂᎧ	-12.1372
▁ᎬᏩᎦᏘ	-12.1374
▁ᏗᏣᎬᏩ	-12.1379
▁ᏥᏯᏓᏅᏖᏍ	-12.1384
ᎦᏙᎥᎯᏍᏗ	-12.1386
ᏰᏍᎪᎢ	-12.1394
ᎫᏴᏓᏁᏗᏱ	-12.1396
ᏓᏙᎵᏍᏗᏍᎪᎢ	-12.1396
▁ᏨᎦ	-12.1402
▁ᎣᏥᏯ	-12.1403
ᎾᎵᏍᏓᏁᎯ	-12.1404
ᏗᏫᏎᏗ	-12.141
ᏁᎾ	-12.1415
▁ᎢᎦᏓᏅᏓᏗᏍᏗ	-12.1416
ᏅᎦᎸᏓ	-12.1417
ᏃᎯᎮ	-12.1417
ᏁᎨ	-12.142
ᏕᏯᏙᏔᏅ	-12.1423
ᏬᏁᏔᏅᎢ	-12.1423
ᎩᏯᏓᏅᏏ	-12.1426
ᏁᎢᏍᏓᏁ	-12.1426
▁ᏥᏂᎦᎵᏍᏗ	-12.1429
▁ᏱᏂᎦᎵᏍᏗ	-12.1433
ᏚᏅᏁᎸᎩ	-12.1437
▁ᏱᏙᎦᏓᏂᎸ	-12.144
ᎵᎮᎵᏤᏗᏱ	-12.144
ᏂᏯᎠ	-12.1443
▁ᎢᏳᎾᎵ	-12.1444
ᏂᏲᎱᎯᏍᏗ	-12.1447
▁ᏚᏲᏎ	-12.1449
▁ᎢᏥᎪᏩ	-12.1449
▁ᎬᏩᎷᎯᏍ	-12.1452
ᏓᏍᎦᎬ	-12.1452
ᏣᏛᎾ	-12.1458
▁ᎠᏔᏲᎯ	-12.1459
▁ᏚᎧᎿ	-12.1462
ᏄᎪᏨᎭ	-12.1463
▁ᎢᎬᏱᏱᏉ	-12.1463
ᏥᎪᎵᏰᏍᎨᏍᏗ	-12.1465
ᏍᎨᎸ	-12.1465
ᎩᏚᎦ	-12.1466
ᏥᎩᎵᏲᎢᏍᏗᏍᎩ	-12.1469
ᏰᎸᏐᎢ	-12.1469
ᎵᏎ	-12.1472
ᏡᏗᎭ	-12.1473
ᏞᏏ	-12.1476
ᏕᏥ	-12.1477
ᏦᏛ	-12.1477
ᎠᏂᏧᏏ	-12.1477
ᎬᏚᎦ	-12.1478
▁ᎣᏐ	-12.148
ᏁᏤᎸᎩ	-12.1481
▁ᏥᎧᏃᎮᏍ	-12.1484
ᏛᏔᏂᎸ	-12.1493
ᏙᎦᏓᏂᎸᏨ	-12.1493
ᏍᎦᏅᏤ	-12.1494
▁ᎠᏥᏁᎰ	-12.1496
▁ᎤᎾᏚᎵ	-12.1498
▁ᎨᏥᏍᏛᏗ	-12.1499
ᎩᏳᎪᏓᏁ	-12.1502
ᎵᏱᎶ	-12.1503
ᏓᏓᏟᏌ	-12.1503
▁ᏧᎸᏍᏗ	-12.1509
ᏪᎳᏅᎯ	-12.1509
▁ᎤᎪᎯ	-12.151
ᏗᎦᎴᏯᏍ	-12.1512
▁ᎤᎵᏍ	-12.1518
ᏍᏓᏱᏕᎸ	-12.1522
ᎦᏘᏯ	-12.1524
ᎤᏁᏨ	-12.1525
ᎨᏣᎵᏍᏚ	-12.1527
ᏪᎵ	-12.1531
ᎩᎵᏲᎢᏍᏗᏍᎪᎢ	-12.1532
▁ᏚᎴᏔᏁ	-12.1534
▁ᏱᏂᏙᎬ	-12.1536
▁ᎰᏒ	-12.1539
ᏘᎦᏔᎲᏍᏗᏱ	-12.1544
▁ᎦᎾᏄᎪᏫᏎ	-12.1546
ᏃᎯᏳᎲᎦ	-12.1547
ᎸᎩᏃ	-12.155
ᏛᏁᎸᎢ	-12.1552
ᏥᏬᏂᎭ	-12.1552
▁ᏂᎦᏅᏅ	-12.1553
ᎳᏛ	-12.156
ᏍᏗᏍᎨ	-12.1562
ᏒᏂᎸᎩ	-12.1564
ᎯᏍᏛᎾ	-12.1569
ᎯᏙᎸ	-12.1571
▁ᏫᎾ	-12.1575
ᏔᎴᏒᎢ	-12.1575
ᏓᎷ	-12.1578
ᎬᏫ	-12.1581
▁ᏱᏓᎩᎪ	-12.1584
▁ᏧᎦ	-12.1585
▁ᏚᏪᎧᎲ	-12.1587
ᏬᎯᏍᏗᏍᎩ	-12.1589
ᏏᏍᎬᎩ	-12.1589
ᎢᏍᏔᏅᎩ	-12.159
ᏏᏔᏕᎢ	-12.1595
▁ᎣᏥᏍᏗᏰ	-12.1596
▁ᏂᏙᎦᎵ	-12.1601
▁ᎢᏥᎵ	-12.1601
▁ᎥᏆᏒᎦᎶ	-12.1602
▁ᏅᏓᏳᎵᏍᏙ	-12.1603
ᏄᎪᏫᏍᎨᎢ	-12.1607
ᏙᎸ	-12.1609
▁ᏗᎦᎶ	-12.1613
ᏉᎡᏗ	-12.1615
ᎦᏓᏂᎸᏨᎩ	-12.1616
ᎾᏁᎶᏛᎢ	-12.1621
ᏤᎸᎯ	-12.1623
ᏛᏛᏅ	-12.1625
▁ᎤᎾᎵᏖᎸ	-12.1625
ᎬᏍᎪᎸᏁᎢ	-12.1627
▁ᏂᎦᏥᏪᏎᎸ	-12.1632
▁ᏕᎤᏁ	-12.1638
ᎪᏎ	-12.1649
▁ᎠᏓᏲ	-12.1651
▁ᎠᏆᏕᎰ	-12.1653
▁ᎤᎨᏳᏗ	-12.1653
▁ᎤᏗᎦᎵᏍᏙ	-12.1654
▁ᎤᎵᏂᎪᎯᏍᏗᏍ	-12.1663
▁ᏬᏤ	-12.1664
▁ᎠᎵᏛ	-12.1664
ᏃᏅᎯ	-12.1668
ᏓᏙᎵᏍᏔᏁᎢ	-12.167
ᏎᎴᏉ	-12.1671
ᎬᏩᎵᏖᎸ	-12.1671
ᎵᎮᎵᏤᎢ	-12.1671
ᏟᏴᎲ	-12.1677
▁ᏗᏯ	-12.1677
▁ᏂᏯ	-12.168
ᏟᏌᏁ	-12.168
ᏏᏉ	-12.168
ᎷᏆᏗᏅ	-12.1681
ᏂᏏᏁ	-12.1682
ᏙᎩᏯᏍ	-12.1683
ᏥᎤᏍᏕᏎ	-12.1684
▁ᏫᏗᏣᎧ	-12.1684
ᎲᏍᏔᏅ	-12.1685
ᏓᏩᏗᏒᎩ	-12.1686
ᏣᏪᏐᎸᏍᏙᏗ	-12.1687
ᏧᎾᏓᎴᏅᏛ	-12.1688
▁ᏱᏗᎫᎪ	-12.1689
ᏥᎷᏏᎵᎻ	-12.169
ᏆᎵᏏ	-12.1693
ᏂᏩᏛᎲ	-12.1695
ᏬᏨ	-12.1698
ᏁᏉᏏ	-12.17
ᏓᏥᏲᎯᏎ	-12.1701
ᏆᎧᎿᏅ	-12.1704
▁ᎪᎵᎬ	-12.1706
ᏟᎶᎥᎩ	-12.1707
ᏚᎧᎿᏩᏗᏙᎲ	-12.1707
▁ᏙᏥᏁᏤ	-12.1709
▁ᏨᎩ	-12.1711
ᏥᏰᎵᏎ	-12.1713
ᏔᎵᏁ	-12.1715
ᏓᏂᎸᎪ	-12.1716
ᎪᏙᏗ	-12.1716
ᏕᎶᏆ	-12.1717
ᎤᏪᎳᏗᏍᏗ	-12.172
▁ᏧᏂᎸᏉᏗ	-12.1722
▁ᎬᏩᏕ	-12.1722
ᎵᏔᏗᏅᏎ	-12.1723
ᎵᏣᏛᎾ	-12.1725
ᏩᏍᏛ	-12.1728
ᏂᎬᎬ	-12.1731
▁ᏕᎦᏥ	-12.1731
ᏖᏍᎬ	-12.1735
ᎱᏎᎢ	-12.1735
▁ᏴᏓᏲ	-12.1739
▁ᏓᎩᎸᏫᏍᏓ	-12.174
ᏴᎯᎰᎢ	-12.1742
▁ᏧᎫᏴᏔ	-12.1742
ᎾᏗᏔᏍᎨᎢ	-12.1743
▁ᎬᏩᏜ	-12.1743
ᏘᏍᏗᏍᎩ	-12.1743
▁ᏚᏂᎾ	-12.1746
ᏍᎦᏨᎯ	-12.1747
ᏁᎵᏒ	-12.175
ᏩᏗᏍᎨᏍᏗ	-12.1751
▁ᏯᏂᎾᏄᎪ	-12.1754
ᏥᏂᏆᏘᎮᏍᏗ	-12.1755
ᎠᎨᏴ	-12.1757
ᏍᎪᎸ	-12.1759
▁ᎤᏂᏬᏂ	-12.1761
▁ᏚᎾᏘ	-12.1762
ᏅᎦᎸᏗ	-12.1762
▁ᎤᏎᎪᎩ	-12.1766
ᏛᎭ	-12.1767
▁ᎮᎲ	-12.1769
▁ᏚᏂᎸᏫᏍᏓ	-12.1774
ᏅᏔᏅᎯ	-12.1774
ᏙᎥ	-12.1777
▁ᎠᏗᏍᎨ	-12.1779
▁ᏭᏴ	-12.178
ᎵᏍᎨᎢ	-12.1785
ᎫᏍᏓ	-12.1785
ᏟᏴᏗ	-12.1786
ᏄᏬᎢ	-12.1786
ᏯᏓᏅᏖᏍᎬᎢ	-12.1789
ᎨᎦᏓᎢᏅᏒᎩ	-12.1791
ᎦᎶᏁᏛᏱ	-12.1792
▁ᏕᏣᏓᏂᎸ	-12.1793
▁ᏗᏏᎾ	-12.1794
Ꮛ	-12.1797
▁ᏱᏚᏪ	-12.18
ᏗᏩᏍᎬ	-12.1801
▁ᎤᎶᏄᎮ	-12.1801
▁ᎤᎾᎵᏃᎮ	-12.1802
▁ᎤᎾᏘᏍᏓᏁ	-12.1802
ᎬᏩᎦᏘᏯ	-12.1805
▁ᎠᏂᏃᎮ	-12.1805
▁ᎢᏨᎢ	-12.1806
ᏍᎬᎾᏉ	-12.1806
ᎦᏛᏅᎢ	-12.1808
▁ᎠᏂᏄᎪ	-12.1808
ᏄᏍᏗ	-12.1813
ᏐᏢᏗᏍᎩ	-12.1816
ᏫᏍᏗᏍᎨ	-12.1816
ᎵᏅᏟ	-12.1818
ᏍᏓᏩᏗᏙᎮᎢ	-12.1819
ᏪᏎ	-12.182
▁ᏳᏜ	-12.182
▁ᏗᎨᏥᏲᎯᏎ	-12.1823
ᎸᎥ	-12.1824
▁ᎣᏥᏱ	-12.1828
ᏓᏅᏅᎩ	-12.183
ᏂᎪᎯᎸ	-12.183
ᎵᏰᏗᏍᎬ	-12.1831
▁ᏧᎾᏚᎪ	-12.1833
▁ᎦᏟᏂᎬᏁ	-12.1834
ᏁᎢᏍᏗᎭ	-12.1835
ᎸᏣᏘ	-12.184
▁ᏗᎬᏩᏁᏗ	-12.184
ᎾᎠ	-12.1841
▁ᏣᏙ	-12.1842
ᏂᎦᏔᎮ	-12.1844
▁ᏦᏣ	-12.1847
▁ᏗᎬᏩᏂᏲᎯ	-12.1851
ᎠᏰᎵ	-12.1852
▁ᎤᏓᏁᏟᏴᏍ	-12.1854
ᏤᏙ	-12.1855
ᏗᎦᎸᏫᏍᏓᏁᏗ	-12.1857
ᎾᏣᎥ	-12.1858
▁ᎤᏓᏠᏍ	-12.1859
ᎵᏙᎯ	-12.1862
▁ᎢᏣᎵᏍᏓᏴᎲᏍ	-12.1863
ᏟᎶᏍᏓᏁ	-12.1864
ᏄᏙ	-12.1866
ᎵᏎᏗᏱ	-12.1868
▁ᏴᏗᏓᎴ	-12.1869
ᏧᎾᏁᎶᏗ	-12.1871
ᏴᎲᎩ	-12.1871
ᏅᏘᏍ	-12.1872
▁ᏚᏩ	-12.1876
ᎾᎾᎵᏍᏗᏍ	-12.1876
ᎾᎴᏂᎴ	-12.1877
▁ᎬᏩᏗ	-12.1878
▁ᎠᏂᎸᏉᏗᏍ	-12.1881
ᏅᏩᏓᎴ	-12.1881
ᎵᎭᏉ	-12.1882
ᎦᎵᏍᏓᏗᏍᎨᏍᏗ	-12.1885
▁ᏚᏍᏕᎸ	-12.1888
ᏥᏙᏁ	-12.1888
ᏓᎴᎭ	-12.1889
ᏢᎥ	-12.189
▁ᎢᏥᎪᎵᏰ	-12.1892
ᏢᏔᏍᏗ	-12.1895
ᎵᏂᎪᎯᏍᏗᏍᎨ	-12.1895
ᏂᏲᎵ	-12.19
ᏥᎰᎵ	-12.19
ᏥᏩᏛᎡ	-12.1901
ᏔᏃᎢ	-12.1901
▁ᏣᏩᏛ	-12.1904
▁ᏂᎦᏛᏁᎸ	-12.1904
ᏓᏳᏅᏏᏛ	-12.191
ᎬᏁᎮ	-12.1914
▁ᎢᏣᎵᏍᏕ	-12.1915
ᏥᏙᎲᏍᎬ	-12.1916
▁ᎤᏃᏙ	-12.1917
ᏳᎯᏳ	-12.1917
ᎤᏇᏓᎵ	-12.1919
▁ᎤᏩᏴ	-12.192
▁ᎤᎾᎵᎪᏩ	-12.192
ᏍᏆᏗᏍᏗᏱ	-12.1921
ᏍᏓᏁᎰ	-12.1923
ᎵᎮᎵᎩ	-12.1924
▁ᎫᏢ	-12.1925
ᎮᎵᏤᏗ	-12.1926
ᎫᎪᏓᏁᎸ	-12.193
ᎫᏴᏗ	-12.1931
▁ᏱᎦᎵᏍ	-12.1934
ᏏᏔᏗᏍ	-12.1934
▁ᏓᏂᏃᎮ	-12.1935
ᏂᏨᏪᏎᎭ	-12.1937
ᏥᎴᏴ	-12.1938
▁ᏗᎦᏥᎦᏌ	-12.1941
ᏗᏒᎲᏍᏗ	-12.1948
▁ᏲᎦᏛ	-12.1949
ᏣᏗ	-12.1949
ᎧᎿᏩᏗᏙᎯ	-12.1952
ᏲᏍᏙᏓᏁᎸᎩ	-12.1953
▁ᏱᏣᏓᏅ	-12.1955
ᏍᏋ	-12.1957
ᎩᎪᏁᎳ	-12.1958
▁ᎤᏅᏁᏗ	-12.1959
▁ᏫᏕᎨᎦ	-12.1959
▁ᎢᏣᏚᏓ	-12.1963
ᏄᏂᏪᏎᎢ	-12.1964
▁ᏤᏣᏓ	-12.1964
▁ᎢᏯᏍ	-12.1969
ᏔᏲᏎᏗ	-12.1974
ᏂᏙᎾᎡ	-12.1974
ᏥᏙ	-12.1976
ᏟᏂᎬᏁᎮ	-12.1978
ᏰᎵᏉ	-12.1979
▁ᏓᏨᏰ	-12.1979
ᏴᎯ	-12.1982
ᏍᏔ	-12.1983
ᏆᏂ	-12.1984
ᏍᏓᏩᏛᏛ	-12.1987
ᏬᏁᏗᏍᎬᎢ	-12.1989
ᎾᎯᏍᏙᏗ	-12.1991
▁ᎤᎾᎦᏌᏯᏍ	-12.1991
ᏥᏅᏁᎸᎩ	-12.1992
▁ᏫᎦᏓᏙᎵᏍ	-12.1994
ᎵᏔᏗᏅ	-12.1998
ᏛᏕᎢ	-12.1998
▁ᎢᏦᎯᏳᎲᏍ	-12.1999
▁ᎡᏂ	-12.2
▁ᎬᏰᎸᎾ	-12.2001
ᎡᏆᎭᎻ	-12.2002
▁ᏱᎨᏣᏓ	-12.2002
▁ᏥᏯᏛᎦᏁ	-12.2003
ᎣᎢ	-12.2005
ᏐᏅᏤᎸᎩ	-12.2007
ᎾᎵᏥᏙᏂᏙᎸ	-12.2007
▁ᏕᎪᎩ	-12.2008
ᏂᎭ	-12.2012
ᎤᎾᏤᎵᎦ	-12.2013
ᎦᏓ	-12.2013
ᏫᏅ	-12.2014
ᎤᏂᎶᏒ	-12.2014
ᎴᏂᏙᎸᎢ	-12.2015
▁ᎬᏱ	-12.2017
▁ᎤᏂᏬᏁ	-12.2017
▁ᎤᎶᏒᏍᏓᏁ	-12.2018
▁ᏧᎾᏛᏛ	-12.2019
▁ᎠᏲᏍᏙᏗᏍ	-12.2021
ᎪᏓᏁᎭ	-12.2021
ᏱᎨᏎᏍᏗ	-12.2023
ᏣᏚᎵᏍᎬ	-12.2025
▁ᏭᎾᎦᏔᎲᏍᏔ	-12.203
▁ᎢᏓᏗᏔ	-12.2031
ᎪᏍᏓᏴ	-12.2034
▁ᎤᏩᏙᏗ	-12.2035
ᎵᏌ	-12.2037
▁ᎢᏣᏗᏔ	-12.2039
▁ᎢᏣᎵᏍᏗ	-12.2039
ᏄᏬᏍᏗᏱ	-12.2043
ᏱᎶᎯᏍᏗᏱ	-12.2043
ᎷᎯᏍᏗᏱ	-12.2045
▁ᎢᏣᏁᎳ	-12.2045
ᏒᎦᎳ	-12.2047
ᎵᏍᏓᏓ	-12.2051
ᎠᏏ	-12.2054
ᏅᏗᎦᎵᏍᏙᏗᏍᎨᏍᏗ	-12.2055
ᏣᏪᏎᎭ	-12.2062
ᎠᏍᎦᏂ	-12.2064
▁ᎤᎬᏫᏳᏌᏕ	-12.2066
ᏘᏃᎮᎴᎢ	-12.2066
ᎬᏩᏍᏗᏉ	-12.2066
ᏓᏄᏴᏛᎢ	-12.2068
ᏴᎮᎢ	-12.2068
▁ᎠᏰᎮ	-12.2069
▁ᎤᎾᎦᏌᏯᏍᏗ	-12.2072
ᏅᏤᎢ	-12.2074
▁ᎠᎩᏍᏆᏂᎪᏙᏗ	-12.2075
ᎸᎲᎩ	-12.2077
ᎨᏅᏒᎩ	-12.2078
▁ᎯᏲᎢᏳ	-12.2085
ᎫᏏ	-12.2085
ᎵᏔᏗ	-12.2088
ᎩᏴᏍᏗ	-12.2089
ᏥᏬᏁᏙᏗ	-12.2091
ᏰᎸᎾᏁᏗ	-12.2091
ᎩᎯ	-12.2093
▁ᏕᏤ	-12.2095
▁ᏂᎤᏍ	-12.2097
ᏯᎧᏅ	-12.2099
ᏂᎸᎢ	-12.2099
▁ᎤᏍᏕ	-12.21
ᏑᎸ	-12.21
ᎬᏩᏍᏗᏰᏔᏁ	-12.2101
ᏍᏛᏗᏍᎨᎢ	-12.2101
ᏗᎦᎶᏍᎬ	-12.2108
ᏰᎢᎶᎯᏍᏗ	-12.2108
ᏚᎩᏒᎩ	-12.2108
ᎵᏖᎸᏅᎩ	-12.2108
▁ᎡᏣᏛᏅ	-12.211
ᏠᏎ	-12.2111
▁ᏂᏗᎨ	-12.2111
ᏎᎵᏙ	-12.2114
ᎮᎸᎢ	-12.2116
▁ᏗᎦᎳ	-12.2117
▁ᎢᏣᎵᏥᏙ	-12.2118
ᏫᏍᏓᏁᏗ	-12.2121
▁ᎬᏩᏍ	-12.2121
▁ᎠᎾᎵᏍᏓᏴᏗᏍ	-12.2124
ᏍᎫᏓᏛ	-12.2126
ᎴᎯᏌ	-12.2127
▁ᎠᏆᎵᏍᏓᏴ	-12.213
ᏥᏙᎲ	-12.213
▁ᏂᏓᏛ	-12.2134
▁ᏕᎦᏂ	-12.2135
ᏣᏗᎭ	-12.2139
ᏕᎧᏁᏤᎮ	-12.2142
▁ᏥᏨᏲᏪᎳ	-12.2142
ᏗᎦᎵᏍᏙᏗ	-12.2144
▁ᏗᎬᏬ	-12.2145
ᏧᏤᎵ	-12.2145
ᏣᏅᏓ	-12.2146
▁ᎠᏂᏰᎸ	-12.2147
ᎪᎯᏳᎲᏍᎨ	-12.2147
ᏃᏴᏘᏍ	-12.2147
ᎩᏂ	-12.2149
ᏳᎲᏍᎩ	-12.2152
ᎤᎾᏓᏡᎬ	-12.2153
▁ᎤᏲᎱ	-12.2153
ᏩᏅᏁᏗ	-12.2155
ᏓᏅᎦᎸᎮ	-12.2155
ᎠᏎᏉ	-12.2155
ᏇᎷ	-12.2159
▁ᏱᏄᎵᏍᏔ	-12.2161
▁ᏓᏉ	-12.2162
ᎤᏙᏓ	-12.2163
▁ᏛᎦᏁᏍᎨ	-12.2164
ᏗᏍᎦᏅᎨᏍᏗ	-12.2166
▁ᎡᏥᏁᏤ	-12.2166
▁ᏓᏳᏬ	-12.2167
▁ᏥᏂᏕᎬ	-12.2167
▁ᎯᏍ	-12.2167
ᎩᏍᎬᎢ	-12.2169
ᎵᏍᏔᏅᎢ	-12.2169
▁ᏥᏄᏪ	-12.217
ᏂᏚᎲᎢ	-12.2171
ᎡᎮᎢ	-12.2171
ᎩᏴᎩ	-12.2172
ᎠᎦᏙᎥᎯᏍᏗ	-12.2172
▁ᏂᏗᎬ	-12.2172
▁ᎤᎫᏴᎡᏗ	-12.2173
ᎾᎵᏍᏔᏅᎩ	-12.2173
ᎫᏴᎡᎲᎢ	-12.2179
ᎵᏥᏙ	-12.2183
ᏂᏙᎭ	-12.2183
ᏛᏛᎲᏍᎦ	-12.2184
▁ᎦᎶᏐ	-12.2186
▁ᏗᎾᏓᏨᏯᏍ	-12.2187
ᏤᎳᏗᏍᏗ	-12.2188
▁ᎬᏩᏄᎯᏍ	-12.2189
ᏓᏅᏙᎩᎯ	-12.2189
ᏓᏳᎶᏒᎩ	-12.2191
▁ᏚᏅᏫᏍᏔ	-12.2193
ᏤᏯᏔᎲᏍ	-12.2195
ᏒᏂᏍᏗ	-12.2195
ᏐᏢᏗᎭ	-12.2196
▁ᏧᏚ	-12.2198
▁ᎦᏂᏓ	-12.2198
▁ᎤᎾᎦᏙᏍᏔ	-12.2199
▁ᏂᏚᏪᎭ	-12.2202
ᎢᏣᎵᏍᏓᏁᏗ	-12.2204
ᏩᎫᏗᏗ	-12.2204
ᏂᏗᏍᏗᏱ	-12.2208
▁ᏱᎬᏩᏁ	-12.2208
ᏠᎠ	-12.221
ᎿᏫᏛ	-12.221
ᎩᏁᎸ	-12.2211
▁ᎠᏓᏙᎵᏍᏔ	-12.2211
ᎵᏍᏆᏕᎴ	-12.2212
▁ᏂᎭ	-12.2216
ᏏᏔᏗᏍᎨᏍᏗ	-12.2217
▁ᎥᏣ	-12.2218
▁ᎠᏥᎸᎢ	-12.2226
ᏏᏔᏗᏍᏗ	-12.2226
▁ᎢᎤᏪᏅ	-12.2226
▁ᏱᎩᏰᎸ	-12.2227
ᏙᎴᎣᎯ	-12.2228
ᏂᎰᎵ	-12.223
▁ᎬᏩᏂᎾᏄᎪᏫ	-12.223
ᏌᎳᏓᏅᎩ	-12.2231
ᎠᏇᏥ	-12.2231
▁ᎠᏂᎦᏔ	-12.2233
ᎤᏃᏕᎾ	-12.2234
▁ᏣᏕᏯᏙᏗ	-12.2235
ᎠᏲᎵ	-12.2236
▁ᎤᏂᎬᏎ	-12.2236
ᏥᎪᏪᎳ	-12.2237
ᎤᏓᏅᏘ	-12.2239
▁ᏳᎾᏓ	-12.2244
ᏓᏡᏩᏍᏗᏕ	-12.2244
▁ᎠᏆᏓᏄ	-12.2245
ᎫᏍᏓᎥ	-12.2247
ᏃᎦᏛᎿᏕ	-12.2247
ᏅᏗᎦᎵᏍᏙᏗᏍᎬ	-12.2247
ᏯᏓᏙᎵᏍᏓᏁ	-12.225
▁ᎭᎵᏍᏕ	-12.2251
▁ᎦᎾᏍ	-12.2252
ᏄᎪᏫᏎ	-12.2252
▁ᏥᏕᎨ	-12.2253
ᏣᏓᏅᏛᎩ	-12.2257
ᎪᏪᎸᎩ	-12.2257
ᎢᏣᏛᏁᏗᏱ	-12.2259
ᎬᏩᏂᎾᏢ	-12.2264
ᏅᏓᎦᎵᏍᏙᏗᏍᎬᎩ	-12.2264
▁ᏭᏂᏩᏛ	-12.2265
ᎨᎦᏗ	-12.2265
ᏁᎶᏙ	-12.2266
▁ᏣᏲᎱ	-12.2269
ᏗᏃᎮᎭ	-12.2272
ᏂᏐᏢᏗ	-12.2273
ᏅᏓᏗᏍᏔᏅ	-12.2277
ᏣᎸᏉᏙᏗᏱ	-12.2277
ᎠᏆᏛᎦᏅᎩ	-12.2278
ᎢᏯᏛᏁᎯ	-12.228
ᎦᎷᏨᎭ	-12.228
ᏒᏍᎩᏂ	-12.228
▁ᎡᏤ	-12.2285
▁ᏥᎪᎯᏳᎲᏍ	-12.2286
▁ᏪᏓ	-12.2286
ᏙᏱᏗᏢ	-12.2287
ᎠᏁᎲᎢ	-12.2289
▁ᏍᎩᏯᏕᎶᏆ	-12.2289
ᏅᎬᏩᏪᏎᎸᎩ	-12.2289
ᎤᎩᎬ	-12.2291
ᎦᎯᏍᏔᏁ	-12.2293
ᏓᎧᏂᏍᎨ	-12.2295
ᏗᏙᎮᏍᏗ	-12.2296
ᏓᏓᎿᏩᏍᏛ	-12.2298
ᏲᎲᏍᎬᎢ	-12.2298
ᎬᏁᏗ	-12.2298
ᏗᏅᏗᏱ	-12.23
▁ᎤᏍᏆᏂᎪᏙᏗ	-12.2301
▁ᏥᎾᎬ	-12.2302
▁ᏱᏓᏓᏂᎸ	-12.2302
ᎠᎦᏔᎲ	-12.2302
▁ᎢᏥᏰᎸᏗ	-12.2304
▁ᎡᏥᎧᎵ	-12.2306
ᏍᏓᏁ	-12.2306
ᎿᎷᏒ	-12.2307
ᎾᏰᏃ	-12.2308
ᏈᎩ	-12.2309
▁ᎤᎾᏚ	-12.231
ᏍᏆᏂᎪᏗᏍᎪ	-12.2311
ᏍᏛᏗᏍᏗᏱ	-12.2312
ᏂᎦᏘᏯ	-12.2318
ᎦᏥᏯᏕᏯᏙᏔ	-12.232
ᎢᎬᏁᎸᎯ	-12.232
▁ᎣᏥᏃᎮᏍ	-12.2322
▁ᎠᏁᎵ	-12.2322
ᏪᎵᏎᎢ	-12.2323
ᏴᎰ	-12.2326
▁ᏥᏦ	-12.2327
▁ᏱᏨᎦᏔ	-12.2328
ᏳᎨᏗ	-12.2329
▁ᏓᏔᎴ	-12.2331
ᏗᏠ	-12.2332
ᏄᎵᏍᏔᏂᏙᎸ	-12.2332
ᎤᎷᎯᏍᏗᏱ	-12.2334
ᏧᏂᎸᏫᏍᏓᏁᏗᏱ	-12.2334
▁ᏫᎬᏩᏯ	-12.2334
ᎤᎵᏏᎩ	-12.2336
ᎤᏴᏢ	-12.2337
▁ᎨᏥᏍᎦᏅᏤ	-12.2337
▁ᎠᎦᎵᏍᎪᎸ	-12.2338
▁ᎤᏅᎢᏍᏗ	-12.234
▁ᏕᏥᎦᏘᎸ	-12.2342
ᎤᏍᏆᎸᎲ	-12.2342
ᏄᏂᏧᏈᏍ	-12.2344
ᎦᎴᏅᏔᏅ	-12.2344
ᏓᏁᎸᎥᏍᎬ	-12.2345
ᎾᏓᎵ	-12.2346
▁ᎬᏩᏘ	-12.2346
▁ᏦᏢᏅ	-12.2346
▁ᎡᎵᏍᎨ	-12.2347
ᏕᎰᎯᏍᏗ	-12.2347
ᎪᎯᏳᎲᏍᎪ	-12.2347
ᎧᏁᏴ	-12.2348
ᏂᎶᏒᏍᏗᏍ	-12.2348
ᏯᎦᏔᏂ	-12.2349
ᎠᏂᎩᏏᏙᎯ	-12.2349
ᎢᏥᏯᏫᏍᎨᏍᏗ	-12.2349
▁ᏓᎧᏂᏍ	-12.235
▁ᏕᏣᏓᏠ	-12.2351
▁ᏤᏤ	-12.2354
ᏛᏁᎸᎩ	-12.2354
ᎪᎵᏰᏍᎨ	-12.2355
ᏚᏂᎸᏫᏍᏓᏁᎸᎢ	-12.2355
ᏗᎨᏫ	-12.2356
▁ᏣᎪᏩᏛᏗ	-12.2357
▁ᏕᏥᎦᎿᏩᏕ	-12.2357
ᎵᎸᎭ	-12.2358
ᎾᏍᎦᏅᎾ	-12.2358
ᏗᎧᏁᏤ	-12.2361
ᏄᎪᏫᏍᎪᎢ	-12.2362
▁ᏕᏥᏲᎯ	-12.2364
ᏣᎵᏍᎪᎸᏓᏁ	-12.2364
ᎬᏩᎷᏤᎴᎢ	-12.2365
▁ᎤᎦᏔᎲ	-12.2365
▁ᏫᏅ	-12.2365
▁ᎤᎾᏓᏛᏛ	-12.2369
ᎾᎩᎸᏔᏅ	-12.2371
ᎬᏩᏂᎷᏤᏗ	-12.2371
ᎧᏃᎮᏍᎩ	-12.2372
▁ᏫᏨᏲᏪ	-12.2374
ᎵᏲᎦ	-12.2375
ᏂᎬᏩᏂᏪᏎ	-12.2375
ᏗᏍᏓᏓᏅᏟ	-12.2377
ᎣᏓᎸ	-12.2378
ᎤᏪᎧᏅ	-12.2379
ᏰᎶᎢᏍᏔ	-12.2379
ᏴᎡᎮᏍᏗ	-12.238
ᏁᎢᏍᏓᏁᎸ	-12.2382
ᎢᏳᎵᏍᏔᏅᎯ	-12.2383
▁ᏓᎾᏕᏲᎲᏍ	-12.2383
ᏕᎹᏍᎦ	-12.2385
ᏧᎸᏫᏍᏓᏁᏗ	-12.2386
▁ᎣᎩᏃᎸ	-12.2387
ᎢᏥᏍᎦᎾ	-12.2387
ᎢᏤᎲ	-12.2387
ᎠᏓᏲᏁ	-12.2387
▁ᏕᎦᎧ	-12.2388
▁ᏗᎬᏩᏓ	-12.2388
ᎠᏥᎸᎨᎶᎯ	-12.2388
ᏛᏗᏍᎬᎩ	-12.2389
ᎠᏲᎱᏒ	-12.2389
ᎤᏂᎶᏎᎢ	-12.2391
ᎣᎦᏣᏅ	-12.2391
ᎤᎾᏓᏈᎬ	-12.2391
ᏦᎯᏳᏗ	-12.2391
▁ᎤᏍᏗᏰ	-12.2391
ᎥᏥᎪᎥᎩ	-12.2392
▁ᏚᏔᏲ	-12.2392
ᎤᎾᏂᎩᏒ	-12.2393
▁ᏗᏍᎩᏯᏓ	-12.2393
ᎤᎾᎵᏍᏓᏴᏗᏱ	-12.2394
▁ᏥᏨᏲᏪ	-12.2394
ᏥᎷᎩ	-12.2395
ᏥᎷᏤᎸᎭ	-12.2397
ᎪᏓᏁᎵ	-12.2397
▁ᎬᏩᎪᏩ	-12.2398
ᏚᏟᎶᏍᏓᏁᎴᎢ	-12.2398
▁ᏥᎨᏳ	-12.2398
ᎠᏍᎦᎾ	-12.2399
ᎤᏲᎱᏎᎮᏍᏗ	-12.2399
ᏧᎾᎵᏂᎩᏛ	-12.2399
ᏓᏆᏓᏂᎸᎨᏍᏗ	-12.24
▁ᏗᎨᏥᏰ	-12.24
▁ᏫᏗᏨ	-12.2401
ᎤᎾᏙᎴᎰᎯᏍᏗᏱ	-12.2401
ᎬᏩᏛᏛᏗ	-12.2402
ᎤᏬᏎᎴᎢ	-12.2402
ᏗᏣᎧᏅᎦ	-12.2402
ᎠᏂᎪᏩᏘᏍᎬ	-12.2404
ᎥᎦᏥᎪᎥᎩ	-12.2404
ᎨᎦᎫᏴᎡ	-12.2405
ᎢᏨᏗᏍᎨᏍᏗ	-12.2405
ᏕᎪᏢᏒᎩ	-12.2405
▁ᏗᎫᎪ	-12.2405
ᏃᎯᏳᎲᏍᎪ	-12.2406
ᎺᏌᏯ	-12.2406
ᏐᏅᏤ	-12.2406
ᎪᎯᏳᎲᏍᎩ	-12.2406
ᎠᏆᎵᏏ	-12.2407
ᎠᎾᏗᎭ	-12.2407
ᏗᎨᎫᎪᏓᏁᏗ	-12.2407
ᏙᏓᎦᏥ	-12.2407
ᏛᏛᏅᎩᏃ	-12.2407
ᎠᏰᎸᎢ	-12.2407
ᏁᎶᎢ	-12.2407
ᎠᎵᏍᏓᏴᎲᏍᎬ	-12.2408
ᏥᎥᎡᎸ	-12.2408
ᏧᎾᎩᎸᏗ	-12.2409
ᎠᏔᎴᏒ	-12.2409
ᎫᎪᏓ	-12.2409
ᏚᏂᎳᏫᏤ	-12.2409
ᏨᏗᎦᏚᎭ	-12.2409
ᎤᎾᏚᎵᏍᎬᎩ	-12.2409
ᎤᏒᏂᎴᎢ	-12.241
ᏂᏍᏋᏁᎸ	-12.2411
ᏓᏂᏙᎬᎩ	-12.2411
ᏗᏇᏥ	-12.2411
ᏭᏣᏅᎩ	-12.2411
ᏓᏆᎴᎷ	-12.2411
ᎠᏂᎦᏘᏯ	-12.2412
ᎠᏁᏙᎮᎢ	-12.2412
ᎤᏲᎱᏎᎢ	-12.2412
ᏖᎳᏗᏍᏗ	-12.2412
ᎣᏥᏁᎦ	-12.2413
▁ᏱᏚᎾᏓᎴ	-12.2413
ᎠᏂᎦᏯᎷᎥᏍᎩ	-12.2413
ᎠᏂᎦᏔᎮ	-12.2414
ᏩᎩᎶᏒᎩ	-12.2415
ᎢᏧᏕᏘᏴᏛ	-12.2416
ᏃᏣᎴ	-12.2416
ᎧᏁᎦ	-12.2417
ᏓᏓᎶᏂ	-12.2417
ᏫᏥᎪᎥᎩ	-12.2418
ᎤᏂᏴᏍᏗ	-12.2418
ᏫᏥᎦᏛ	-12.2418
ᎨᎦᎫᏴᏓᏁᏗ	-12.2418
ᎾᏞᎬ	-12.2419
ᎨᏣᏓᏑᏴ	-12.2419
ᏂᏍᏓᏩᏗᏙᎮ	-12.2419
ᏕᎤᎸᏫᏍᏓᏁᎭ	-12.2419
ᏦᎴᏍᏗ	-12.242
▁ᎤᏓᎵᏍᎪᎸᏓᏁ	-12.242
ᎠᎢᏒᎩ	-12.242
ᏧᏓᎴᏁ	-12.242
ᏈᎵᏱ	-12.2422
ᏅᏋᏁᎸ	-12.2422
ᏙᎵᏨᎩ	-12.2424
ᏭᎪ	-12.2424
ᏄᏁᎸ	-12.2425
ᏛᎦᏁᎲ	-12.2425
ᎦᏄᎪᎢ	-12.2425
ᏭᏴᎸ	-12.2426
▁ᎢᏨᏲᏪᎳᏁᎸ	-12.2427
ᎩᏨᏅ	-12.2427
ᏅᎩᏦᏁ	-12.2428
ᎮᎮᎸ	-12.2428
ᏩᏗᏙᎸᎯ	-12.2429
ᎩᏢᎬ	-12.2429
ᏓᏩᏗᏙᎯ	-12.2429
▁ᎢᏗᎦ	-12.243
ᎦᎶᏔᏅ	-12.2432
ᎬᏩᎪᎮᎢ	-12.2432
ᎳᏫᏎᎸᎩ	-12.2433
ᎭᎷᎨ	-12.2433
ᎠᏧᏏ	-12.2434
▁ᏚᎾᏄᎪᏫᏎ	-12.2434
ᏥᏯᏁᎶ	-12.2434
ᏗᎪᏢᏔᏅᎯ	-12.2434
ᏄᏢ	-12.2436
▁ᎤᏂᎸᏉᏗ	-12.2436
ᏄᎾᏛᏁᎸᎩ	-12.2436
▁ᏂᎬᏩᏪ	-12.2438
ᏱᏥᏁᎦ	-12.2438
▁ᏔᎫᏴ	-12.2438
ᎦᏁᎵ	-12.2438
ᎡᏃᏱ	-12.2438
ᏓᎬᏔᏂ	-12.244
ᎬᏆᏓᏅᏓᏗᏍ	-12.2442
ᎠᏯᎥ	-12.2442
▁ᏓᏠᏱ	-12.2446
ᏬᎶᏒ	-12.2446
▁ᎠᎩᏔᏕ	-12.2446
ᏄᏩᏂᏌᏅ	-12.2447
ᎤᏛ	-12.2447
ᏪᎳᏏ	-12.2448
ᏍᎩᏍᏓᏩᏚᎦ	-12.2448
ᎠᎦᏴᎵ	-12.2448
ᎾᏄᎪᏫᏍᎩ	-12.2449
ᏕᏣᎵᏂᎬ	-12.2449
▁ᎣᏣᏓ	-12.2449
▁ᎠᏡ	-12.2454
ᏃᎮᎵᏙ	-12.2454
ᎬᏬᎯᏳᏅᎩ	-12.2455
ᏖᏍᎨᏍᏗ	-12.2456
ᎤᎷᏨᎩ	-12.2456
ᎦᏓᎷᏯᏛ	-12.2456
ᏚᎪᏓᏁᎯ	-12.2458
ᏲᎯᏍᏗᏍᎬᎾ	-12.2458
▁ᏳᏞ	-12.2459
ᎵᏍᏔᏁᏍᏗ	-12.2459
ᏌᎻ	-12.2462
ᎬᏋᏁᏗ	-12.2466
ᎥᏍᎬᎢ	-12.2467
▁ᎬᏩᎸ	-12.2467
ᎵᏍᎪᎸᏓᏁ	-12.2467
ᏗᏥᏰᎸ	-12.2467
ᏕᎤᎷᎬ	-12.2468
▁ᎠᏆᏚ	-12.2469
ᏕᎵᏎᎮ	-12.2469
ᏓᎾᏠᏱᎲ	-12.2469
ᏓᎻ	-12.247
ᏂᏚᏩᏁᎴᎢ	-12.247
ᏗᏤᏅᏒ	-12.247
ᎦᎸᎳᏗᏳ	-12.2471
▁ᏥᏯᎵᎡᎵ	-12.2471
ᏚᎵᏥᏙᏁᎴ	-12.2471
ᏂᏏᏗᏱ	-12.2472
ᎤᎾᏨ	-12.2473
ᏢᏃᎢ	-12.2474
▁ᏙᏓᎫ	-12.2476
▁ᏥᎨᎦᏛᏅᎢᏍ	-12.2476
ᏠᏍᏗ	-12.2477
ᎷᏤ	-12.2479
ᎯᏳᏅᎩ	-12.2479
ᏆᎳ	-12.2479
▁ᏥᏯᎥ	-12.248
ᏣᏓᏅᏙᎩ	-12.248
ᏚᏠᏱᎴᎢ	-12.2481
ᏞᎦ	-12.2481
▁ᎦᎾᏄ	-12.2481
▁ᏧᏢ	-12.2482
ᏥᏬᏁᏔᏅ	-12.2483
ᎢᏥᏗᏱ	-12.2484
ᏕᏂ	-12.2484
▁ᏗᏣᏕᏲ	-12.2486
ᏂᏪᎭ	-12.2486
▁ᏓᏓᏬ	-12.2487
ᏂᏨᏴᏁᎭ	-12.2487
▁ᎬᏩᎨᏳ	-12.249
ᏠᎥᏔᏂ	-12.2491
ᎢᏍᏔᏅᎢ	-12.2493
ᏣᏖ	-12.2497
▁ᏄᎵᏍᏔᏂ	-12.2498
ᏫᏍᎨ	-12.2498
ᏙᏰ	-12.2498
▁ᎢᎩᏁᏗ	-12.2499
▁ᎠᏓᏰ	-12.2499
ᏗᏍᎩᏯᏓᏂᎸ	-12.2499
ᎦᎸᏉᏙᏗ	-12.25
▁ᎤᏚᏓᎴᏍ	-12.25
ᏳᎪᏛ	-12.2501
ᎦᏁᎸᎢ	-12.2503
ᏚᏬᏕᎯᎰᎢ	-12.2503
ᎩᏲᏍᏙᏓ	-12.2503
ᏴᏍ	-12.2503
▁ᎵᏲᎢᏍᏗ	-12.2504
ᏍᎩᏲᎯ	-12.2504
ᎵᏃᎮᏗᏱ	-12.2504
ᏅᏛᏛᏁᎵ	-12.2505
ᏫᏨᎷᏤᎸ	-12.2506
ᏠᎠᎯ	-12.2506
ᎪᏩᏛᎲ	-12.2508
ᎠᎩᎭ	-12.2509
ᎾᎦᎸᎲ	-12.251
ᏣᏛᏁᎰᎢ	-12.251
ᎤᏁᏨᎩ	-12.2514
▁ᏱᏭᎷᏤ	-12.2515
ᏚᏪᏲᏁ	-12.2515
▁ᎤᏓᏙᎵᏣ	-12.2516
▁ᎦᎵᏥᏙ	-12.2517
▁ᎤᏙᏯᏅᎯ	-12.2518
ᏁᏨᎯ	-12.2518
▁ᏫᎩᎾᏄ	-12.2518
ᏄᎪᏫᏒᎭ	-12.2519
ᏍᏆᏂᎪᏙᎢ	-12.2521
▁ᏍᎩᏲ	-12.2521
ᏂᏙᎸᎢ	-12.2522
ᏩᏕᎬ	-12.2523
▁ᎢᏣᎵᏍᏓᏴ	-12.2523
ᎵᏍᏓᏴᏅᎯ	-12.2524
▁ᏕᏥᏍᏕ	-12.2524
▁ᏄᏂᏪ	-12.2524
▁ᏧᎾᏓᏲ	-12.2524
ᎤᏦ	-12.2524
▁ᏗᏣᏓᎨ	-12.2525
▁ᎥᎩᎸ	-12.2526
ᏲᎢᏍᏗᏍᎬᎾ	-12.2526
▁ᏥᏍᏚᏂᎩᏍᏗ	-12.2526
ᏁᎵᏍᎬᎾ	-12.2527
ᏕᏯᏔᏁᎴᎢ	-12.2527
ᏓᏉ	-12.2529
▁ᏚᎧᎾ	-12.2529
ᏳᎾᏄᎪᏨ	-12.2529
▁ᎨᎷ	-12.2529
ᎤᎾᏙᏓ	-12.253
ᏃᎦᏛᏁᎸ	-12.2531
▁ᏫᏨ	-12.2531
▁ᏱᏚᎾᏓ	-12.2532
▁ᎤᎾᏡ	-12.2532
ᏲᎲᏍᎨᏍᏗ	-12.2533
▁ᏕᏣᏓᏲ	-12.2533
▁ᎠᎵᏍᏓᏴᎲᏍ	-12.2533
ᎷᎶᏤ	-12.2533
ᏍᎦᏍᏙᏙ	-12.2535
▁ᎢᎦᎵᏍᎪᎸᏓᏁ	-12.2537
▁ᏚᏂᏍᏚ	-12.2538
ᏍᏗᏍᎬᎾ	-12.2538
ᎤᏄᎪᏨ	-12.2538
ᎵᏰᏍᎬᎢ	-12.2538
▁ᎣᏣᎵᏥᏙ	-12.2539
ᏥᎸᏌᏓᏕ	-12.254
ᏚᏂᏍᏗᏰ	-12.2541
ᏪᏌᏆᎴ	-12.2542
ᎬᏬᎯᏳ	-12.2542
ᎡᏥᏲᎭ	-12.2543
ᎷᎩᏍᎩ	-12.2544
ᏗᏓᏅᏙ	-12.2546
ᏩᏪᏎᎸᎩ	-12.2546
ᏡᏗᏍᎪᎢ	-12.2547
▁ᏥᏥᎷ	-12.2547
ᏬᏢᏅ	-12.2548
ᎤᎾᏗᏒ	-12.2548
ᏄᏓ	-12.2548
ᏅᎦᎵᏍᎪᎢ	-12.2549
ᎤᏂᎷᏨ	-12.2549
ᎡᎮ	-12.255
ᎵᏲᎬ	-12.2551
ᏗᏣᎸᏫᏍᏓᏏ	-12.2553
ᎾᏄᎪᏥ	-12.2553
▁ᎠᏆᏓᏅᏔ	-12.2554
▁ᏅᏗᎦᎵᏍᏙ	-12.2555
ᏣᏄᏬᏍᏓ	-12.2555
ᏣᎬ	-12.2555
▁ᎣᎦᏚᎵ	-12.2555
ᏤᎵᏎᎰ	-12.2556
ᎦᏘᎾᏫ	-12.2557
▁ᏧᎾᏓᎴ	-12.2558
▁ᏕᎤᎷ	-12.2559
ᏄᏩᎥ	-12.256
ᎴᏂᏙᎸ	-12.2562
ᏂᏪᏍᎨ	-12.2563
▁ᏚᏢ	-12.2565
ᎬᎩᎵᎥᏂ	-12.2566
ᏯᏂ	-12.2567
▁ᎨᎦᎵᏍᎪᎸᏓᏁ	-12.2568
ᏚᏂᏴᏍᏕ	-12.2568
ᎢᏳᏅᏁᏗᏱ	-12.2569
ᎧᏅᎢ	-12.2569
ᎬᏍᏓᏩᏛᏍᏗ	-12.2569
▁ᏓᏥᏯᎵ	-12.2571
▁ᎢᏨᏯᎵ	-12.2572
ᎩᏃᎸᏔᏂ	-12.2572
▁ᎣᏍᏛᏉ	-12.2574
ᏃᎬᏁᎸ	-12.2574
ᎿᏩᏗᏙ	-12.2574
ᎴᎰᎯᏍᏙᏗ	-12.2574
ᏚᏍᏆᏃᏴ	-12.2575
ᏂᎩᏒᎢ	-12.2576
ᎬᏩᎴᎢ	-12.2577
ᏕᎬᎩ	-12.2577
ᏕᎧ	-12.2577
ᎵᏂᎬᎬᎢ	-12.2578
▁ᎤᏓᏙᎵᏍᏓᏁᎸ	-12.2579
ᏓᎦᎵᏍᏙᏗᏍᎬᎩ	-12.258
ᎬᏫᏳᏌᏕ	-12.258
▁ᎤᎾᏝ	-12.2581
▁ᎤᎾᏓᏅᎦ	-12.2581
ᏩᏘᏍᎪᎢ	-12.2582
ᏆᎪᎳᏗᏴ	-12.2582
ᎰᏉ	-12.2582
ᏓᏛᎩ	-12.2582
ᏩᎫ	-12.2583
▁ᏱᏂᏚ	-12.2583
ᏘᏏ	-12.2583
ᏅᏠ	-12.2585
ᏥᏯᏅᏔᏅ	-12.2587
▁ᏕᎧ	-12.2587
▁ᏚᏑᏰ	-12.2588
▁ᎬᏩᏛᏛᏅ	-12.2588
ᏩᏘᏍᎬ	-12.2588
ᎢᏯ	-12.2588
ᏯᏪᏐ	-12.2589
▁ᎤᏓᎬᏩᏓᎴ	-12.2589
ᎬᏃᏌ	-12.2589
ᏍᏓᏴᎲᏍᎩ	-12.2589
ᏓᏘᎾᎥ	-12.2593
ᎵᏍᏓᏗᏍᏗ	-12.2594
▁ᎤᏁᎷᎬ	-12.2594
ᏚᎸᏅᏗᏱ	-12.2595
ᏚᎪᏔᏅ	-12.2595
ᏃᎯᏳᏁ	-12.2595
ᏍᎪᎸᏙᏗ	-12.2595
ᎦᏙᎴᎣ	-12.2596
ᎤᏪᎧᏁ	-12.2597
▁ᏓᏍᏚᎲ	-12.2597
ᏔᏲᎯᎮᏍᏗ	-12.2597
▁ᎤᏂᏇ	-12.2598
▁ᎤᏡᏗᏍ	-12.2598
▁ᎠᎾᏛᏁᎵ	-12.2599
ᏰᎢᎶᎦ	-12.2601
ᏏᎵ	-12.2602
▁ᎻᏗ	-12.2602
ᎵᏍᏓᏴᎲᏍᎪᎢ	-12.2602
▁ᏓᎾᎵᏍᏓᏴᎲ	-12.2602
ᏥᏄᎦ	-12.2602
ᏓᏥ	-12.2603
▁ᏗᏂᏴ	-12.2605
▁ᎬᏩᎪᏁᎶᎯᏎ	-12.2605
▁ᏥᏯᎵᏍᎦᏍᏙ	-12.2606
▁ᏙᏦᏪ	-12.2606
ᎦᎳᎨᏴ	-12.2607
ᎩᏍᎦᎬ	-12.2607
ᏍᏘᏰᎬ	-12.2608
▁ᏫᎬᏩᏓ	-12.2608
ᎶᏄᎮᏗ	-12.2608
ᏥᎥᎡ	-12.2609
ᎲᏍᎬᎩ	-12.261
▁ᏥᎾᏂ	-12.261
ᏩᏗᏙᎮᏍᏗ	-12.261
ᏋᏔᏅ	-12.261
▁ᏴᏛᎦ	-12.2611
ᏂᏣᏛᎿᏕᎬ	-12.2612
ᏣᎵᏍᏓᏴᏁ	-12.2613
ᏑᎵᎪᎪ	-12.2613
▁ᏱᏗᏦᎯᏳ	-12.2613
ᏣᎾᎡᏗ	-12.2615
ᏬᏁᏗᎭ	-12.2615
▁ᎤᏪᏔ	-12.2615
▁ᎠᏓᏴᏗ	-12.2616
ᏑᏰᏎ	-12.2616
ᎦᏓᎢᏅ	-12.2617
▁ᎠᏯᏙᎵ	-12.2617
ᏅᏌᏗ	-12.2618
ᎾᏛᏁᎮ	-12.2618
ᎠᎻ	-12.2618
▁ᎠᏍᎫᏕ	-12.2619
ᏚᎸᏌᏛᎢ	-12.262
ᎢᏓᏙᎴᎰ	-12.262
ᏧᏂᎶ	-12.262
ᎬᏍᎦ	-12.262
ᏃᎯᏳᏒ	-12.262
ᎢᏦᎯᏳᏒᎢ	-12.2621
ᏥᎶᏄᎮᎴ	-12.2621
ᎵᏍᎪᎸᏔᏅ	-12.2621
▁ᏙᏓᏥᎵ	-12.2621
ᎠᏘᏍᏓᏁ	-12.2623
▁ᏱᏚᏬᏕ	-12.2623
ᎳᎨᏯᏛᏤᎢ	-12.2623
ᏖᏍᎪᎢ	-12.2624
ᏘᎸᏍᏗ	-12.2624
ᏣᏘᏃᎦ	-12.2624
▁ᎦᏥᏯᏓᏙᎵᏍᏓᏁ	-12.2625
▁ᎬᏩᏁᏁ	-12.2625
ᏚᎾᎢ	-12.2626
▁ᎤᏩᏂᎦ	-12.2626
▁ᎬᏩᏂᎪᏩ	-12.2626
ᏲᏑᎴ	-12.2627
▁ᎤᏙᎳ	-12.2628
ᎤᏪ	-12.263
ᏍᏚᎢᏛ	-12.263
ᏂᎾᏄᎪᏫᏍᎨ	-12.263
ᏅᏓᏗᏍᎪ	-12.263
ᎾᏰᏍᏗ	-12.2631
ᎠᏓᏅᏖᏍᎨ	-12.2631
ᏬᏪᎳ	-12.2631
ᏓᏄᏴ	-12.2631
ᏖᎵᏙᎩᎯ	-12.2632
ᏩᎾᎦᎸ	-12.2632
▁ᏕᎦᏁ	-12.2632
ᏇᏲᏅ	-12.2632
ᎵᎪᏁᎴ	-12.2632
ᎡᏥᎪᎵᏰ	-12.2633
ᎾᏓᎢᏅᏎ	-12.2633
ᏧᎳᎭ	-12.2633
ᏕᏯᏙᏗ	-12.2633
▁ᎤᏍᏉᎵ	-12.2634
ᎦᏑᎲᎢ	-12.2635
ᏍᏚᏟᏍᏗ	-12.2635
▁ᎠᎩᏍᎦ	-12.2635
▁ᎤᏄᏖ	-12.2635
▁ᏧᏅᏍᏗ	-12.2636
ᏍᏆᏂᎪᏔᏁ	-12.2636
▁ᎤᏍᎦᏅᏥᏙᎸ	-12.2636
▁ᏄᎾᎵᏍᏔᏁ	-12.2636
▁ᎤᏪᏲᏓᏛ	-12.2636
▁ᎠᏂᏯᏙᎯᎲ	-12.2636
▁ᏕᏥᎦᎿᏩᏗᏒ	-12.2636
▁ᎬᏩᏓᏅᏘ	-12.2637
▁ᎤᏬᏂᏎ	-12.2637
▁ᏂᏚᏩᏁᎴ	-12.2637
ᏂᏆᏘᎲ	-12.2638
ᏓᏂᎸᏤᎸᎯ	-12.2638
▁ᎤᎵᏍᎪᎸᏔᏁ	-12.2638
ᏥᎶᏄᎡᎸ	-12.2638
▁ᏫᎤᏂᎶᏎ	-12.2639
ᎦᏥᏴ	-12.2639
ᎾᏂᏪᏍᎨᎢ	-12.264
ᎫᏴᎯᏓᏍᏗ	-12.264
ᎵᎶᎲᏍᎩ	-12.264
▁ᏓᏂᏄᏙᎬ	-12.264
ᎾᏓᏃᎮᎵᏙᎯ	-12.264
▁ᏕᎤᎴᏔᏁ	-12.264
ᏲᎵᏳ	-12.2641
▁ᎥᏆᎸᎥ	-12.2641
▁ᏓᎾᎵᏍᏓᏴᎲᏍᎨ	-12.2641
▁ᏂᏚᎾᏓᏪᏎᎴ	-12.2641
▁ᏗᏆᏓᎴᏅ	-12.2641
▁ᏧᏬᎯᏳᏁ	-12.2641
▁ᏙᏗᏣᏓᏅᏛ	-12.2641
▁ᎤᏓᏙᎵᏍᏓᏁᎴ	-12.2641
ᎦᏙᎥᎯᏍᏙᏗ	-12.2642
▁ᎢᏥᎿ	-12.2642
▁ᏙᏗᎧᏅ	-12.2642
ᏔᏕᎪᏗ	-12.2642
ᏣᏜᏅᏓᏕ	-12.2642
▁ᏕᎩᎸᏫ	-12.2642
▁ᎤᏂᏲᏠᎯᏎᎸ	-12.2642
▁ᎤᏁᏍᎨᎲ	-12.2642
▁ᎤᎾᎳᏅ	-12.2643
ᎾᏕᏯᏙᏗᏍᎬ	-12.2643
ᏂᎰᎢ	-12.2643
▁ᏂᎦᎵ	-12.2644
▁ᏄᏍᏗᏕ	-12.2644
ᏄᏬᏍᏛᎩ	-12.2644
ᎪᏢᎾᏁᎸᎯ	-12.2644
▁ᎤᏗᏩᏎ	-12.2644
▁ᎠᎾᎵᏍᏓᏴᎲᏍᎪ	-12.2644
ᏦᏪᎵᏍ	-12.2644
▁ᎬᏬᎯᏳᏅ	-12.2645
▁ᏕᎦᏚᏓᏕᏫᏒ	-12.2645
ᎨᎳᏗᏓᏍᏗ	-12.2645
▁ᎤᏓᏱᎴ	-12.2645
▁ᎠᏲᎱᏍᎨ	-12.2646
ᏘᎾᏫᏛᎲ	-12.2646
▁ᎠᎦᏬᎡ	-12.2646
▁ᏭᏘᏅᏍᏔᏅ	-12.2646
ᎯᏱᎵᏙ	-12.2646
▁ᎡᏥᏍᏓᏩᏗ	-12.2646
ᎵᏠᏯᏍᏕᏍᏗ	-12.2646
ᎾᎴᏲᎥ	-12.2646
ᎿᏕᎬ	-12.2647
ᏂᏙᎾᎢ	-12.2647
▁ᏱᏥᏩᏘᏍᎪ	-12.2647
▁ᎤᏂᏐᏢᎢᏍᏔᏅ	-12.2647
▁ᏚᏚᎢ	-12.2647
▁ᎦᎵᎡᎵᎬ	-12.2647
▁ᏧᏂᎵᎡ	-12.2648
ᎨᎳᏗᏙᎮ	-12.2648
▁ᏚᏅᎵᏰᎥ	-12.2648
ᏛᏂᏗᏍᏙᏗ	-12.2648
ᏂᏆᏘᎴ	-12.2649
ᏓᏪᎵᎩᏍᎬ	-12.2649
▁ᎣᏤᏙᎲ	-12.2649
▁ᏗᎦᏓᎴ	-12.265
ᏕᏍᎬᎢ	-12.265
ᏂᏃᎯᎵᏙᎯ	-12.265
ᏂᎵᏅᏨ	-12.265
▁ᏁᏪᏎᎴ	-12.265
ᏓᏅᏖᎢ	-12.265
ᏁᏉᏨ	-12.265
▁ᏚᏂᏲᎯᏎᎸ	-12.2651
▁ᎡᏦᎯᏳᎲᏍ	-12.2651
▁ᏲᏥᎩ	-12.2651
ᏐᏢᎢᏍᏗᏍᎬᎢ	-12.2651
▁ᏧᏂᏴᏍᏕᏍ	-12.2652
▁ᎣᎩᏃᎮᏍᎬ	-12.2652
▁ᎤᏚᎸ	-12.2652
ᏣᏪᏐᎸᏍᏙᏗᏱ	-12.2652
▁ᎾᏂᏪᏍᎨ	-12.2652
▁ᎦᎬᏩᏐᏢᏕ	-12.2652
ᏩᏲᎢ	-12.2652
▁ᏭᏂᏴᎸ	-12.2653
ᏣᎵᏍᏕᎸᏗ	-12.2653
▁ᏦᏥᏰᎸ	-12.2653
ᏩᏂᎦᎸ	-12.2653
ᎠᎩᎸᏉᏗ	-12.2653
ᏂᏔᏲᎯᎮᏍᏗ	-12.2653
ᏦᏁ	-12.2654
▁ᏗᎫᎪᏙ	-12.2654
▁ᏂᎬᏩᏪᏎᎴ	-12.2654
▁ᎢᏥᎾᏄᎪᏫ	-12.2655
ᎦᏌᏬᎢᎲ	-12.2655
▁ᎤᏒᏂᎴ	-12.2655
▁ᏣᏍᎦᎸ	-12.2655
ᏁᎳᏗᏍᏗᏱ	-12.2656
ᎾᎵᏍᏓᏴᏗᏍᎪ	-12.2656
ᎵᏍᎦᏂᏍᏛ	-12.2656
[...]
