<unk>	0
<s>	0
</s>	0
,	-2.5107
▁the	-3.03472
▁and	-3.44234
.	-3.54597
▁of	-3.63585
▁to	-3.94091
▁that	-4.29904
▁in	-4.30879
▁you	-4.51233
▁he	-4.5449
▁I	-4.5767
▁him	-4.58948
▁is	-4.61048
▁a	-4.63367
▁be	-4.76917
;	-4.89527
▁for	-4.94105
▁not	-4.97646
▁God	-5.02912
▁And	-5.05643
▁them	-5.05856
▁they	-5.06386
▁with	-5.08801
▁his	-5.0887
:	-5.10487
▁was	-5.18838
▁	-5.19195
▁who	-5.19688
▁which	-5.23097
▁unto	-5.24774
s	-5.25746
▁it	-5.26886
'	-5.30584
▁"	-5.31413
▁will	-5.31815
▁said	-5.31841
▁are	-5.31971
▁all	-5.3283
▁have	-5.35592
▁Jesus	-5.39592
▁but	-5.4254
▁as	-5.50672
ing	-5.50848
t	-5.54465
▁me	-5.56405
?	-5.56634
▁from	-5.57658
▁we	-5.61544
▁For	-5.62736
n	-5.63105
▁by	-5.63545
▁this	-5.66026
▁man	-5.69289
▁But	-5.69332
▁things	-5.69739
▁ye	-5.69883
▁your	-5.74048
▁were	-5.74051
▁one	-5.7552
▁Lord	-5.8099
▁The	-5.82583
▁also	-5.82714
▁on	-5.852
▁my	-5.88295
▁Christ	-5.88784
▁when	-5.92945
▁into	-5.95306
."	-5.96286
▁had	-6.00678
▁out	-6.05243
l	-6.10026
▁no	-6.10426
▁He	-6.11534
▁their	-6.11898
▁us	-6.12025
▁come	-6.15928
▁do	-6.16141
▁came	-6.17171
ed	-6.1755
▁shal	-6.17697
▁there	-6.23237
▁saying	-6.24231
▁up	-6.26077
▁if	-6.28613
▁our	-6.32858
▁thou	-6.3912
▁these	-6.39618
▁men	-6.42081
▁at	-6.43374
▁what	-6.43613
▁may	-6.46774
▁know	-6.47136
▁those	-6.49139
▁or	-6.49635
▁say	-6.50592
▁has	-6.51152
▁so	-6.55696
▁s	-6.59145
▁whom	-6.6039
d	-6.6172
▁day	-6.63157
▁made	-6.65019
▁before	-6.6581
▁therefore	-6.65856
▁her	-6.6618
▁because	-6.67437
▁did	-6.67687
▁hath	-6.68226
▁many	-6.68704
f	-6.68977
▁should	-6.69212
hall	-6.70234
▁went	-6.70266
▁Father	-6.70893
▁faith	-6.73093
▁good	-6.73942
▁am	-6.74593
▁an	-6.76655
▁even	-6.77458
▁through	-6.7885
▁They	-6.80373
th	-6.80984
▁world	-6.82499
en	-6.82781
▁disciples	-6.84007
▁great	-6.84058
▁heard	-6.84288
▁law	-6.86889
▁might	-6.87045
▁more	-6.87793
▁Son	-6.87979
▁love	-6.88221
▁let	-6.89095
▁Now	-6.89124
▁heaven	-6.89957
▁called	-6.90314
▁people	-6.90507
▁own	-6.90941
▁himself	-6.91065
▁answered	-6.9132
▁any	-6.91517
▁saw	-6.92039
▁another	-6.93624
▁see	-6.94013
▁after	-6.94143
▁down	-6.95192
▁son	-6.95612
▁now	-6.96554
▁word	-6.96565
▁away	-6.96586
▁life	-6.96806
e	-6.96899
▁against	-6.971
▁every	-6.97892
▁'	-6.99113
▁When	-7.00056
mong	-7.0063
▁house	-7.01514
▁earth	-7.02434
▁would	-7.03756
▁thy	-7.04346
▁Spirit	-7.0521
▁give	-7.0727
▁glory	-7.07574
▁go	-7.07947
▁sent	-7.08233
▁about	-7.08819
▁dead	-7.091
▁having	-7.09436
▁name	-7.10783
▁then	-7.11327
?"	-7.11917
▁don	-7.13429
▁being	-7.13585
y	-7.14376
▁first	-7.14724
▁Jews	-7.14808
▁thee	-7.15161
▁again	-7.15363
▁Paul	-7.17681
▁tell	-7.18047
▁like	-7.18241
▁children	-7.19023
▁way	-7.20698
▁where	-7.20823
▁Peter	-7.21727
▁she	-7.22283
▁flesh	-7.23067
▁how	-7.23826
▁neither	-7.24205
▁given	-7.24981
▁same	-7.25295
▁time	-7.25837
▁days	-7.27663
▁saith	-7.27806
▁nor	-7.27842
▁yet	-7.29045
▁two	-7.29287
▁accord	-7.30051
!	-7.3024
▁Therefore	-7.31991
I	-7.32054
▁than	-7.32519
▁power	-7.32731
▁some	-7.3294
▁works	-7.33355
▁hand	-7.33417
▁make	-7.33957
▁body	-7.3467
▁city	-7.354
▁speak	-7.35721
ly	-7.37773
▁written	-7.37808
▁death	-7.39042
▁other	-7.39585
▁Jerusalem	-7.40295
▁evil	-7.40736
▁John	-7.41189
▁took	-7.41552
▁brother	-7.41851
▁over	-7.4417
▁eat	-7.44261
▁gave	-7.45054
▁without	-7.45481
▁put	-7.45527
▁hear	-7.4589
▁together	-7.47226
▁believe	-7.47385
▁upon	-7.47741
▁receive	-7.48937
▁spirit	-7.49245
▁done	-7.49533
▁sin	-7.49898
▁found	-7.49943
▁father	-7.50267
▁does	-7.50386
▁cast	-7.50808
ever	-7.50815
▁much	-7.51255
eth	-7.51805
▁truth	-7.53125
▁nothing	-7.54584
▁received	-7.54749
▁voice	-7.55953
▁certain	-7.55963
▁can	-7.5654
▁take	-7.56781
▁grace	-7.56978
!"	-7.59008
▁temple	-7.59409
▁brethren	-7.59973
▁You	-7.61055
▁both	-7.61219
▁blood	-7.62532
▁This	-7.62778
▁forth	-7.6507
▁righteousness	-7.6519
▁heart	-7.65448
▁brothers	-7.65828
▁brought	-7.6678
▁behold	-7.67595
▁only	-7.68731
▁Holy	-7.68982
▁words	-7.6948
▁woman	-7.71215
▁themselves	-7.71814
▁kingdom	-7.72374
▁bring	-7.72904
▁Gentiles	-7.72939
▁angel	-7.73024
▁seven	-7.73341
▁peace	-7.73482
▁So	-7.73607
▁place	-7.74744
▁It	-7.76225
▁prophets	-7.7623
▁light	-7.76302
▁sea	-7.76416
▁sins	-7.77116
▁multitude	-7.7712
▁chief	-7.77575
▁under	-7.77691
▁mother	-7.77704
▁must	-7.78256
▁What	-7.78763
▁servant	-7.78957
▁high	-7.79407
▁hour	-7.79512
▁enter	-7.81182
▁while	-7.81408
▁Let	-7.81708
▁three	-7.8202
▁thing	-7.82913
▁such	-7.83245
You	-7.83282
▁As	-7.83357
▁coming	-7.83366
▁asked	-7.83374
▁That	-7.84017
▁A	-7.84254
▁seen	-7.84294
▁work	-7.84409
▁holy	-7.84529
▁wife	-7.85169
▁hands	-7.85692
▁stood	-7.85898
▁known	-7.86004
▁O	-7.86061
▁priest	-7.86619
▁Pharisees	-7.87214
▁whole	-7.87277
▁believed	-7.88132
▁Behold	-7.8816
▁angels	-7.89097
▁concern	-7.89216
▁bread	-7.89659
▁well	-7.90531
▁Moses	-7.90564
▁yourselves	-7.91226
▁fell	-7.91232
▁priests	-7.91763
▁live	-7.91822
▁sat	-7.92005
▁judgment	-7.92054
▁left	-7.93307
▁eyes	-7.93705
▁Go	-7.94003
▁Who	-7.94284
▁Abraham	-7.94771
▁Israel	-7.96176
▁twelve	-7.96178
▁fire	-7.96205
▁set	-7.96403
▁little	-7.96909
▁feet	-7.96916
▁hope	-7.97467
▁walk	-7.97891
▁Do	-7.97986
▁seek	-7.98211
▁Kingdom	-7.98384
▁spoken	-7.98631
▁Simon	-7.99243
▁fear	-8.00352
▁We	-8.00996
▁There	-8.01217
▁keep	-8.02527
▁water	-8.0293
▁here	-8.0393
▁hast	-8.045
▁full	-8.05179
▁fruit	-8.05372
▁drink	-8.06309
oever	-8.06317
▁began	-8.0701
▁entered	-8.07123
▁ask	-8.07133
▁prophet	-8.07207
▁sake	-8.07234
▁B	-8.07244
The	-8.07542
▁sh	-8.07674
▁able	-8.07846
▁mouth	-8.08003
▁right	-8.08529
.'	-8.09299
▁new	-8.10569
▁though	-8.10781
▁servants	-8.10996
▁pass	-8.11043
all	-8.11583
▁become	-8.11745
▁scribes	-8.11932
▁toward	-8.12071
▁hearts	-8.12741
▁joy	-8.12769
▁laid	-8.12785
est	-8.13361
▁In	-8.13449
se	-8.13583
▁spake	-8.1448
▁Be	-8.15057
▁end	-8.15668
▁cometh	-8.15746
▁ever	-8.1621
▁mercy	-8.16241
▁David	-8.16264
r	-8.16981
▁child	-8.17116
▁Galilee	-8.1714
▁third	-8.18038
▁raised	-8.18111
▁followed	-8.18165
▁cause	-8.18761
▁judge	-8.18925
▁eternal	-8.18946
▁cried	-8.18949
▁elders	-8.19026
▁saved	-8.20013
▁rest	-8.20738
▁bear	-8.20739
▁delivered	-8.20863
▁night	-8.2232
▁saints	-8.22676
▁living	-8.22678
▁send	-8.2313
▁wisdom	-8.23619
▁indeed	-8.23656
came	-8.2386
▁faithful	-8.2391
▁part	-8.24424
▁beloved	-8.24685
▁years	-8.24777
▁Thou	-8.25544
▁Mary	-8.25576
▁baptized	-8.25588
▁fathers	-8.2569
▁unti	-8.258
▁desire	-8.25987
▁righteous	-8.2647
▁Pilate	-8.26531
▁stand	-8.26676
▁apostles	-8.2673
▁throne	-8.26976
▁head	-8.27277
ll	-8.27277
▁gospel	-8.27521
▁immediately	-8.27524
▁worthy	-8.27715
▁departed	-8.28592
▁opened	-8.28599
ld	-8.28666
▁art	-8.28954
▁thousand	-8.28984
▁comes	-8.29255
▁revealed	-8.30576
very	-8.30594
▁none	-8.30656
st	-8.30767
▁mind	-8.30947
er	-8.30979
▁face	-8.31072
▁pray	-8.31095
▁born	-8.31231
▁How	-8.31317
▁last	-8.31605
▁anyone	-8.31645
▁filled	-8.31657
▁knowledge	-8.31689
▁commandment	-8.32103
▁kill	-8.32865
▁To	-8.33134
▁tree	-8.33186
od	-8.33494
▁un	-8.34252
▁f	-8.34439
▁long	-8.34503
▁blind	-8.3457
▁true	-8.34766
▁sight	-8.34773
▁lord	-8.35404
▁knew	-8.35815
▁seed	-8.36147
▁think	-8.36278
▁taken	-8.36665
▁S	-8.36734
▁save	-8.36802
▁ought	-8.36832
▁preached	-8.37032
▁witness	-8.37422
▁spoke	-8.37632
▁darkness	-8.38004
▁four	-8.38447
▁Ye	-8.39102
▁News	-8.39114
▁testimony	-8.39114
▁fulfilled	-8.39139
▁authority	-8.39146
▁lest	-8.39173
▁lay	-8.39613
▁All	-8.39673
▁suffer	-8.39783
▁Wherefore	-8.40241
▁died	-8.4046
▁others	-8.40649
▁old	-8.40767
▁could	-8.41371
▁wrath	-8.41371
▁write	-8.41395
▁stone	-8.41491
ther	-8.41547
▁wise	-8.41613
▁says	-8.41634
▁nations	-8.41737
ness	-8.42451
▁beginning	-8.4253
▁always	-8.42587
▁devil	-8.43165
▁These	-8.43244
▁salvation	-8.43685
▁Amen	-8.4386
▁follow	-8.43996
▁die	-8.44574
▁need	-8.45179
▁hold	-8.45257
▁call	-8.45304
▁promise	-8.4534
▁find	-8.45621
▁never	-8.46121
▁king	-8.46279
▁sha	-8.46661
▁James	-8.47253
▁killed	-8.47468
▁beast	-8.48068
▁sheep	-8.48483
▁certainly	-8.48606
▁except	-8.49506
▁rejoice	-8.49555
▁Herod	-8.49704
▁loved	-8.4971
▁rather	-8.4971
▁commanded	-8.49852
▁greater	-8.49878
▁gold	-8.50272
▁times	-8.50441
▁land	-8.50577
▁second	-8.50958
▁resurrection	-8.50962
▁women	-8.50962
▁happened	-8.51
▁near	-8.51046
▁taught	-8.52229
▁present	-8.52231
▁why	-8.52486
▁each	-8.52628
▁worship	-8.53614
▁Man	-8.53754
▁Ghost	-8.54803
▁knowing	-8.56075
▁assembly	-8.56124
▁myself	-8.56158
▁teaching	-8.5642
▁serve	-8.56787
▁synagogue	-8.56926
▁husband	-8.56971
▁rich	-8.57408
▁King	-8.57517
▁t	-8.57995
▁book	-8.5826
▁No	-8.58386
Lord	-8.59611
▁named	-8.59626
▁H	-8.60096
▁country	-8.60178
▁wine	-8.60232
What	-8.60285
▁off	-8.60343
▁seeing	-8.60686
▁soul	-8.61071
He	-8.61356
▁sick	-8.61492
▁show	-8.61532
▁blessed	-8.61601
▁gathered	-8.61649
▁preach	-8.6165
▁After	-8.61738
▁whe	-8.62039
▁standing	-8.6206
▁Why	-8.62103
▁shew	-8.62281
▁Eve	-8.62417
▁kept	-8.62967
ought	-8.62969
▁above	-8.62983
▁command	-8.63037
▁thanks	-8.63181
ive	-8.63253
▁Blessed	-8.63571
▁just	-8.63795
▁gift	-8.63869
▁church	-8.64367
▁poor	-8.644
▁thine	-8.64556
▁Which	-8.64733
▁sign	-8.65131
▁hundred	-8.65174
Do	-8.6523
▁perfect	-8.6525
▁free	-8.65594
▁Satan	-8.65846
▁cannot	-8.65895
▁Th	-8.67223
▁afraid	-8.67318
▁arose	-8.67357
▁Or	-8.67479
,"	-8.67914
▁eye	-8.67974
il	-8.68114
▁Philip	-8.6881
▁Joseph	-8.68849
▁bound	-8.68872
less	-8.68901
▁One	-8.6909
as	-8.69652
▁feast	-8.69773
▁rise	-8.70169
▁healed	-8.70398
▁circumcision	-8.70398
▁sinners	-8.70501
▁Master	-8.70525
▁F	-8.70924
▁generation	-8.71333
▁glorified	-8.71868
▁better	-8.71877
▁testify	-8.7188
▁mine	-8.71963
▁ourselves	-8.7201
▁going	-8.72066
▁teach	-8.72269
▁mighty	-8.72635
▁false	-8.7337
▁still	-8.73434
▁gone	-8.73483
▁prison	-8.74388
▁patience	-8.75015
▁crucified	-8.75015
is	-8.75543
▁dwell	-8.75598
▁understand	-8.75601
▁justified	-8.76636
▁vain	-8.76637
▁alone	-8.76639
▁weak	-8.76643
▁nation	-8.77822
▁ship	-8.78148
▁midst	-8.78265
▁reward	-8.78266
Behold	-8.78921
▁multitudes	-8.79722
▁conscience	-8.79935
▁strong	-8.79966
▁chosen	-8.80015
▁Judas	-8.8007
▁sit	-8.80275
▁far	-8.81217
▁speaking	-8.81423
erily	-8.81597
▁sky	-8.81621
▁Lamb	-8.81623
▁ready	-8.81768
▁want	-8.81937
▁spiritual	-8.81963
▁judged	-8.81987
loud	-8.82296
▁kings	-8.82398
▁commandments	-8.82498
▁destroy	-8.82522
▁unclean	-8.83332
▁likewise	-8.83356
▁signs	-8.83977
▁T	-8.84434
▁cup	-8.8453
▁disciple	-8.84576
▁turn	-8.84931
▁ten	-8.85164
▁most	-8.85356
▁once	-8.85469
▁sound	-8.85805
▁its	-8.86084
▁fall	-8.86099
a	-8.86825
▁wilderness	-8.86892
▁members	-8.86993
▁looked	-8.87095
▁passed	-8.87297
▁look	-8.87665
▁unt	-8.88
▁doctrine	-8.8813
▁parable	-8.88177
▁continue	-8.8839
▁cross	-8.88751
▁verily	-8.88755
▁everyone	-8.88819
▁turned	-8.88914
▁door	-8.88925
▁around	-8.89135
▁remember	-8.89166
▁C	-8.8934
Why	-8.89808
▁forgive	-8.90351
▁wait	-8.90367
▁back	-8.90555
▁already	-8.9056
▁anything	-8.90576
▁suffered	-8.90826
▁white	-8.90883
▁My	-8.91552
▁answer	-8.92036
▁commit	-8.92081
S	-8.93197
in	-8.93332
This	-8.93594
▁measure	-8.93769
▁doing	-8.93818
▁sword	-8.93873
▁Jew	-8.94067
▁Sabbath	-8.9437
▁riches	-8.94413
▁lawful	-8.94487
▁th	-8.94746
drew	-8.94823
▁forever	-8.95173
▁fast	-8.95184
▁whos	-8.95256
rom	-8.95432
▁Where	-8.95435
▁Not	-8.95555
▁prayer	-8.95867
▁image	-8.96329
▁Jacob	-8.96376
▁prepared	-8.9652
▁side	-8.9693
▁gifts	-8.97056
es	-8.97582
▁manner	-8.97702
▁kind	-8.98133
▁Barnabas	-8.9833
▁honour	-8.99377
▁open	-8.9946
▁covenant	-8.99801
▁read	-9.00099
▁fellow	-9.00138
▁sun	-9.00316
▁pure	-9.00422
▁deliver	-9.00433
▁yourself	-9.00439
▁spirits	-9.00706
▁Because	-9.00857
▁leave	-9.01439
on	-9.01859
?'	-9.01921
▁money	-9.0245
▁Nazareth	-9.02453
▁repentance	-9.02456
▁thyself	-9.0247
▁appointed	-9.02494
▁demons	-9.02686
▁within	-9.02754
▁abide	-9.02917
▁preaching	-9.0295
▁perish	-9.02958
▁sold	-9.03024
▁Again	-9.0329
▁honor	-9.04399
▁obey	-9.04415
▁witnesses	-9.0468
▁praise	-9.04833
▁Neither	-9.04857
m	-9.04867
▁ran	-9.05085
▁risen	-9.05094
▁meat	-9.06134
▁daughter	-9.06201
▁tongue	-9.06329
▁hearing	-9.06398
▁altar	-9.06751
▁Macedonia	-9.06754
▁sabbath	-9.06759
▁ground	-9.06784
▁deny	-9.06808
▁appeared	-9.06875
▁lusts	-9.07074
us	-9.07108
▁See	-9.07127
▁looking	-9.07135
▁till	-9.07373
▁devils	-9.07743
it	-9.08342
▁foundation	-9.08449
▁rebuke	-9.08685
▁mountain	-9.08949
▁sons	-9.08952
▁Grace	-9.08973
▁baptism	-9.08975
▁vineyard	-9.08976
▁Saying	-9.09043
▁returned	-9.09062
▁sexual	-9.09082
▁offered	-9.09143
▁prayed	-9.09332
▁young	-9.09805
▁build	-9.09916
ous	-9.10088
▁boast	-9.10309
▁wind	-9.10862
▁whoso	-9.10885
▁lie	-9.10928
▁Immediately	-9.11249
▁sitting	-9.11255
▁heavens	-9.11483
▁led	-9.11645
▁heavenly	-9.11709
▁understanding	-9.11716
▁forgiven	-9.11803
▁Is	-9.11928
▁lift	-9.12354
▁depart	-9.12588
▁war	-9.12998
▁field	-9.13005
▁manifest	-9.1341
▁subject	-9.13566
▁else	-9.13568
▁loaves	-9.13571
▁few	-9.13582
▁glorify	-9.13587
▁committed	-9.13606
▁troubled	-9.13672
▁Caesar	-9.13683
▁touched	-9.13697
▁soldiers	-9.13758
▁means	-9.13776
.'"	-9.14013
▁lead	-9.14145
▁Are	-9.14147
▁past	-9.14345
▁often	-9.14565
▁Hav	-9.14573
▁thought	-9.14807
ers	-9.14844
▁abound	-9.15204
▁remain	-9.1525
an	-9.15303
▁nigh	-9.15443
▁ashamed	-9.15953
▁testified	-9.15956
▁throughout	-9.16045
▁rose	-9.16074
▁giving	-9.16151
"	-9.16203
▁knoweth	-9.16309
▁w	-9.16427
ce	-9.16456
much	-9.16586
▁ears	-9.16906
▁Take	-9.17092
▁reason	-9.17407
▁Every	-9.17585
▁sacrifice	-9.17663
▁centurion	-9.17823
▁tribe	-9.17841
▁number	-9.18226
▁foolish	-9.18373
▁Egypt	-9.18388
▁wrote	-9.1839
▁service	-9.18466
▁Mos	-9.18757
▁rulers	-9.18808
We	-9.19394
Who	-9.1955
▁food	-9.20344
▁E	-9.20755
▁raise	-9.20861
▁Judea	-9.20891
▁Greet	-9.20893
▁repent	-9.20903
▁exceedingly	-9.20928
▁comfort	-9.20954
▁longer	-9.20967
▁itself	-9.21015
▁pleased	-9.21026
▁alive	-9.21101
▁clothed	-9.21119
▁cut	-9.2116
▁doeth	-9.2143
For	-9.21888
▁believeth	-9.21897
▁thus	-9.21929
▁She	-9.22523
▁boat	-9.22948
or	-9.23399
▁mystery	-9.23454
▁presence	-9.23455
▁purpose	-9.23463
▁outside	-9.23509
▁obtained	-9.23527
▁gather	-9.23936
▁lived	-9.24208
▁sail	-9.24702
▁heads	-9.24777
al	-9.25247
▁accuse	-9.25807
▁Isaac	-9.26083
▁parents	-9.26086
▁Heaven	-9.26095
▁order	-9.26118
▁trust	-9.26155
he	-9.26487
▁souls	-9.27074
▁synagogues	-9.27147
F	-9.27189
▁wh	-9.27308
▁friends	-9.27429
▁year	-9.27721
▁stones	-9.28205
▁apostle	-9.28254
▁tomb	-9.283
▁Yes	-9.28727
▁council	-9.28787
▁enemies	-9.28787
▁cities	-9.28789
▁compassion	-9.2879
▁crying	-9.28907
▁broken	-9.28955
▁forty	-9.29011
▁prayers	-9.29546
▁calling	-9.29554
▁hid	-9.29602
▁M	-9.297
It	-9.30216
▁lives	-9.30278
▁gain	-9.30299
▁governor	-9.30998
▁offer	-9.31375
▁sorrow	-9.31567
▁since	-9.31592
▁partakers	-9.31697
▁Saul	-9.31775
Go	-9.31901
▁Some	-9.31943
▁answering	-9.32057
▁Woe	-9.32625
A	-9.32808
▁journey	-9.32969
▁Yet	-9.33074
▁clean	-9.33468
▁pleasure	-9.33869
▁listen	-9.34129
▁Judaea	-9.34422
▁everything	-9.34448
▁adultery	-9.34476
▁lose	-9.34635
▁hair	-9.34813
▁endure	-9.34997
▁greatly	-9.35041
▁remains	-9.35062
▁beg	-9.35201
▁appear	-9.35306
▁self	-9.35534
▁woe	-9.35636
▁Come	-9.36468
▁draw	-9.368
▁exhort	-9.37029
▁speech	-9.37344
▁Asia	-9.3736
yond	-9.3736
▁small	-9.37361
▁confidence	-9.37363
▁inheritance	-9.37366
▁quickly	-9.37367
▁linen	-9.37376
▁divided	-9.37406
▁persuaded	-9.37481
▁fallen	-9.3758
▁P	-9.37643
▁weeping	-9.37652
▁pay	-9.37947
▁receives	-9.38093
▁therein	-9.38641
▁reign	-9.3949
able	-9.39571
▁season	-9.39676
▁yea	-9.39738
▁places	-9.40092
▁sleep	-9.40094
▁care	-9.40167
▁release	-9.40212
▁won	-9.40387
▁daily	-9.4039
▁silver	-9.4039
▁While	-9.40392
▁marriage	-9.40392
▁bondage	-9.40392
▁arise	-9.40402
▁built	-9.40404
▁unrighteousness	-9.40406
▁shepherd	-9.40417
▁sinned	-9.40421
▁churches	-9.40459
▁betrayed	-9.40528
▁sealed	-9.40574
▁idols	-9.40582
▁destroyed	-9.40679
▁get	-9.40922
▁On	-9.40997
▁Have	-9.41022
re	-9.41151
▁working	-9.41185
▁watch	-9.41211
▁speaks	-9.41458
▁thereof	-9.417
▁throw	-9.41819
▁bega	-9.42482
old	-9.42568
▁reap	-9.4288
▁fig	-9.42958
▁sister	-9.4298
▁ruler	-9.43052
▁household	-9.43505
▁inherit	-9.43516
▁precious	-9.43516
▁assemblies	-9.43518
▁fornication	-9.43518
▁hidden	-9.4352
▁something	-9.43536
▁company	-9.43539
▁sanctified	-9.43554
▁hypocrites	-9.43596
▁months	-9.43641
▁wonders	-9.437
▁speaketh	-9.43711
▁shewed	-9.43882
▁stars	-9.43887
How	-9.44051
▁touch	-9.44064
▁help	-9.44087
of	-9.45205
▁table	-9.4542
▁ways	-9.45505
ether	-9.45593
▁tabernacle	-9.46146
▁matter	-9.46198
▁master	-9.46383
▁wrong	-9.46559
▁glad	-9.46666
▁behind	-9.4674
▁counsel	-9.46741
▁Antioch	-9.46741
▁Ephesus	-9.46741
▁amazed	-9.46743
▁least	-9.46757
▁shut	-9.46797
▁moved	-9.46799
▁stayed	-9.46844
▁clothing	-9.46914
▁bonds	-9.46951
▁root	-9.46954
▁weep	-9.46959
▁condemned	-9.46969
▁forbid	-9.47079
▁deeds	-9.4714
▁minister	-9.47182
▁sacrifices	-9.47461
▁walked	-9.47493
▁W	-9.47505
▁desired	-9.47527
at	-9.47915
▁beasts	-9.48157
▁Whoever	-9.48191
▁fish	-9.48351
▁greet	-9.48448
Mos	-9.48579
▁waters	-9.4898
▁profit	-9.49223
▁crown	-9.49467
▁sepulchre	-9.49478
▁curse	-9.49865
▁wicked	-9.50066
▁Timothy	-9.50073
▁beseech	-9.50073
▁immorality	-9.50077
▁determined	-9.50078
▁Elias	-9.50079
▁fellowship	-9.50079
▁carried	-9.50084
▁ignorant	-9.50084
▁godliness	-9.50091
▁kiss	-9.50166
▁counted	-9.50235
▁believes	-9.50308
▁swear	-9.50324
▁Greeks	-9.50498
▁person	-9.5109
▁knows	-9.51313
▁receiveth	-9.51449
▁age	-9.51507
▁willing	-9.52185
▁D	-9.52516
ies	-9.52949
▁scripture	-9.52986
▁secret	-9.53468
▁Passover	-9.53522
▁Nevertheless	-9.53523
▁straightway	-9.53526
▁subjection	-9.53531
▁marry	-9.53536
▁thorns	-9.53537
▁possible	-9.53552
▁worse	-9.53555
▁deceive	-9.53558
▁denied	-9.53568
▁uncircumcision	-9.53612
▁tempted	-9.5363
▁lust	-9.53709
▁blessing	-9.53751
▁confess	-9.53822
▁Ma	-9.54225
▁beat	-9.54333
▁tongues	-9.54381
▁praying	-9.54639
▁walking	-9.5502
▁fruits	-9.55887
▁charge	-9.56259
▁temptation	-9.56527
▁rock	-9.56529
▁Scripture	-9.56556
▁cloud	-9.56581
▁despise	-9.5689
▁please	-9.56925
▁report	-9.56929
▁exceeding	-9.57084
▁Jordan	-9.57091
▁further	-9.57091
▁Capernaum	-9.57093
▁everlasting	-9.57094
▁worshipped	-9.57122
▁hate	-9.57159
▁finished	-9.57164
▁begged	-9.57283
▁meet	-9.57518
▁sown	-9.5762
▁wilt	-9.5764
o	-9.57813
▁thoughts	-9.57901
▁thence	-9.57979
Teacher	-9.58118
▁heed	-9.5836
▁heal	-9.59048
!'	-9.59331
▁wherein	-9.59812
▁condemn	-9.59906
▁thank	-9.6005
round	-9.60066
▁join	-9.60132
▁affliction	-9.60257
▁letter	-9.60297
een	-9.606
▁next	-9.60791
▁ministry	-9.60795
▁Likewise	-9.60795
▁prophecy	-9.60795
▁unbelief	-9.60795
▁disobedient	-9.60796
▁destruction	-9.60799
▁Hi	-9.6084
▁home	-9.60874
▁bought	-9.60939
▁sixth	-9.6094
▁comforted	-9.61033
▁washed	-9.61049
▁Elijah	-9.6108
▁goeth	-9.61101
THE	-9.61141
▁gates	-9.6119
▁widows	-9.61286
▁shame	-9.6131
▁masters	-9.61395
▁count	-9.61428
▁betray	-9.61791
▁ones	-9.61889
Come	-9.61974
▁salute	-9.62115
▁L	-9.62537
▁rule	-9.63571
▁treasure	-9.63622
▁break	-9.63632
ation	-9.63787
▁garment	-9.64106
▁learn	-9.64134
▁strength	-9.64479
▁torment	-9.64492
▁naked	-9.64618
▁Festus	-9.64639
▁charity	-9.6464
▁contrary	-9.6464
▁occasion	-9.6464
▁bridegroom	-9.64641
▁blameless	-9.64642
▁murder	-9.64642
▁sober	-9.64644
▁truly	-9.64653
▁smoke	-9.64662
▁obedience	-9.6468
▁rejected	-9.64733
▁ear	-9.64753
▁apart	-9.64815
▁Fear	-9.64829
▁However	-9.64838
▁flee	-9.64891
▁reasoned	-9.64896
▁hated	-9.6492
▁clothes	-9.64961
▁Many	-9.64989
▁rain	-9.64994
▁Whom	-9.65128
▁Andrew	-9.65134
▁betw	-9.65236
rew	-9.6525
▁perceive	-9.65489
▁sp	-9.65587
▁sure	-9.65597
▁seal	-9.65618
▁soon	-9.65693
▁parables	-9.65787
▁loves	-9.65794
▁gives	-9.6632
▁promises	-9.6642
▁desires	-9.66833
▁held	-9.66912
▁question	-9.67079
▁burn	-9.67295
▁eating	-9.67376
▁grow	-9.67503
▁desir	-9.67786
▁labour	-9.67789
▁With	-9.68035
▁village	-9.68101
▁widow	-9.68107
▁afterward	-9.68112
▁stumble	-9.68402
▁consider	-9.68475
▁thief	-9.68635
▁ungodly	-9.68639
▁wives	-9.68642
▁caught	-9.68643
▁acceptable	-9.68644
▁supper	-9.68647
▁created	-9.68648
▁Caesarea	-9.6865
▁abundantly	-9.68666
▁declare	-9.68709
▁exalted	-9.68721
▁Others	-9.68725
▁anointed	-9.68734
▁lost	-9.68734
▁proceed	-9.68748
▁plagues	-9.68783
▁burned	-9.68784
▁persecuted	-9.688
▁corrupt	-9.68828
▁perceived	-9.68906
ve	-9.69048
▁Whoso	-9.69314
▁boasting	-9.69322
▁served	-9.69353
▁feared	-9.69466
one	-9.69902
Where	-9.70113
My	-9.70198
▁wash	-9.70893
ion	-9.71093
▁commend	-9.71104
▁giveth	-9.71232
▁hard	-9.71262
▁return	-9.71639
▁names	-9.71649
▁respect	-9.71912
▁tax	-9.72131
▁region	-9.72227
▁prophesy	-9.72252
▁Greek	-9.72257
▁creature	-9.72268
▁room	-9.72299
▁prisoner	-9.7235
▁prepare	-9.72657
▁natural	-9.72745
ebedee	-9.72789
▁abroad	-9.72789
▁astray	-9.72789
▁Titus	-9.72789
▁Sidon	-9.7279
▁dragon	-9.72792
▁behalf	-9.72799
▁womb	-9.72804
▁abundance	-9.72806
▁Magdalene	-9.72806
▁grain	-9.72808
▁bodies	-9.7281
▁passover	-9.72815
▁Tyre	-9.72817
▁mountains	-9.72859
▁circumcised	-9.72879
▁steal	-9.72892
▁buy	-9.72967
▁deceived	-9.73016
▁strangers	-9.7305
▁miracles	-9.73092
▁sufferings	-9.73103
▁separate	-9.73118
▁garments	-9.73388
▁promised	-9.73476
▁belong	-9.73582
▁star	-9.73886
▁Did	-9.74125
▁powers	-9.74385
Are	-9.74897
,'	-9.76403
But	-9.76456
▁captain	-9.76574
▁six	-9.76755
▁Solomon	-9.77137
▁liberty	-9.77137
▁Thomas	-9.77137
▁nature	-9.77141
▁boldness	-9.77152
▁redemption	-9.77153
▁astonished	-9.77157
▁condemnation	-9.77161
▁married	-9.77168
▁afar	-9.77218
▁openly	-9.77248
▁marveled	-9.77283
▁fled	-9.77351
▁begin	-9.77357
▁foot	-9.77383
am	-9.77386
▁eateth	-9.77398
▁declared	-9.77407
▁officers	-9.7744
▁Yea	-9.77516
▁greatest	-9.77564
▁heareth	-9.77566
▁worshiped	-9.77691
▁liveth	-9.78229
▁seat	-9.78259
▁agree	-9.78411
for	-9.78638
▁ate	-9.78685
Let	-9.78826
ose	-9.7938
▁mak	-9.79492
▁trouble	-9.79766
▁fi	-9.8045
▁yours	-9.80584
▁overcome	-9.81
▁use	-9.81022
▁ointment	-9.81057
▁revelation	-9.81058
▁tradition	-9.81102
▁demon	-9.81154
▁sinner	-9.81199
▁account	-9.81539
▁goes	-9.81657
▁offering	-9.81664
▁birth	-9.81681
▁Agrippa	-9.81682
▁Sadducees	-9.81682
▁iniquity	-9.81682
▁Silas	-9.81682
▁blasphemy	-9.81687
▁branches	-9.81697
▁grew	-9.81699
▁wickedness	-9.81708
▁guard	-9.8174
▁carry	-9.81761
▁fine	-9.81818
▁talents	-9.81871
▁hither	-9.81963
▁lying	-9.81987
▁grant	-9.82046
rust	-9.82072
▁voices	-9.82101
▁languages	-9.82121
▁oil	-9.82124
▁lo	-9.82135
▁rejoiced	-9.82383
▁aside	-9.8251
ell	-9.82778
to	-9.82897
▁husbands	-9.83552
▁air	-9.83766
rs	-9.83781
aking	-9.83832
▁parts	-9.84194
▁visit	-9.8429
▁exercise	-9.84549
and	-9.84573
▁news	-9.84617
▁sakes	-9.84724
▁affection	-9.84788
▁observe	-9.85038
▁de	-9.85093
▁devour	-9.85478
▁example	-9.85756
▁Hebrew	-9.85875
tten	-9.85945
▁stay	-9.85948
▁gate	-9.85954
▁marvel	-9.86273
▁Samaria	-9.86444
▁disobedience	-9.86444
▁hungry	-9.86444
▁twenty	-9.86444
▁Savior	-9.86444
▁Saviour	-9.86444
▁creation	-9.86445
▁Achaia	-9.86446
▁mark	-9.86452
▁surname	-9.86463
▁stumbling	-9.86464
▁herself	-9.86498
▁uncleanness	-9.86498
▁dwelleth	-9.86519
▁bondservant	-9.86522
▁common	-9.86602
▁Art	-9.86626
▁tears	-9.86634
▁run	-9.8669
▁Lazarus	-9.86697
▁stretch	-9.86857
▁ordained	-9.86961
thrown	-9.86982
▁letters	-9.87141
▁heirs	-9.87512
be	-9.87711
▁allow	-9.87818
▁tempt	-9.87961
nto	-9.88148
ful	-9.88605
▁G	-9.88833
Yes	-9.88875
▁poure	-9.88909
▁vari	-9.88918
ment	-9.88926
ir	-9.89011
red	-9.89157
▁d	-9.89774
▁happen	-9.90286
▁seeth	-9.90471
▁neighbor	-9.90871
▁earthquake	-9.90874
▁vessel	-9.90906
▁add	-9.90911
▁custom	-9.9093
▁defile	-9.91065
▁harm	-9.91225
▁persecute	-9.91262
▁Isaiah	-9.91444
▁Iscariot	-9.91444
▁enemy	-9.91444
▁excellent	-9.91444
▁record	-9.91444
▁ninth	-9.91444
▁holiness	-9.91445
▁morning	-9.91446
▁wrought	-9.91447
▁Damascus	-9.91447
▁tribulation	-9.91451
▁sorrowful	-9.91452
▁beheld	-9.91464
▁slain	-9.91465
▁absent	-9.91468
▁moon	-9.91469
the	-9.91479
▁godly	-9.91538
▁asleep	-9.91551
▁Martha	-9.91573
▁reproach	-9.91587
▁horns	-9.91592
▁pit	-9.9162
▁freely	-9.91621
▁shaken	-9.91649
▁someone	-9.91664
▁withered	-9.91684
▁repented	-9.9177
▁sow	-9.91938
▁teachers	-9.91981
▁knowest	-9.92165
▁scriptures	-9.92233
hose	-9.92281
▁bare	-9.92311
▁baptize	-9.92788
▁form	-9.93574
▁met	-9.93693
▁minds	-9.94079
▁labor	-9.94304
▁resist	-9.94638
▁At	-9.9524
▁virgin	-9.96153
▁oath	-9.9616
▁Pharisee	-9.96162
▁teacher	-9.96303
▁vision	-9.96327
▁sharp	-9.96653
▁deed	-9.96662
▁short	-9.96689
▁Esaias	-9.96707
▁Remember	-9.96707
▁Almighty	-9.96707
▁course	-9.96707
▁Sodom	-9.96708
▁grass	-9.96718
▁trespasses	-9.96718
▁deep	-9.96727
▁Apollos	-9.9673
▁boldly	-9.96746
▁bind	-9.9676
▁morrow	-9.96764
▁wept	-9.96768
▁drunken	-9.96793
▁chains	-9.96825
▁Babylon	-9.96842
▁Barabbas	-9.96843
▁Moreover	-9.96843
▁due	-9.96881
▁peril	-9.96882
▁pour	-9.96918
▁lack	-9.96947
▁offended	-9.96966
▁pieces	-9.97103
▁goodness	-9.97193
▁creatures	-9.97394
▁sayest	-9.97444
▁questions	-9.97446
▁Scriptures	-9.97511
▁Give	-9.97899
▁Thy	-9.97941
▁fully	-9.98547
When	-9.98777
▁makes	-9.98851
▁evening	-9.98857
They	-9.99161
▁trees	-9.9941
▁judges	-9.99417
unto	-9.99438
▁friend	-9.99443
Take	-9.99587
▁p	-9.99631
▁b	-9.99701
with	-9.99786
▁taste	-10.0058
▁strife	-10.0164
▁language	-10.0173
▁escape	-10.0209
▁proclaim	-10.021
▁obtain	-10.021
▁steadfast	-10.0224
▁salt	-10.0225
▁Caiaphas	-10.0226
▁Felix	-10.0226
▁Joppa	-10.0226
▁harvest	-10.0226
▁impossible	-10.0226
▁necessary	-10.0226
▁perhaps	-10.0226
▁remembrance	-10.0226
▁Bethany	-10.0226
▁Syria	-10.0226
▁angry	-10.0226
▁remission	-10.0226
▁conversation	-10.0226
▁raiment	-10.0226
▁unbelieving	-10.0226
▁thanksgiving	-10.0226
▁glorious	-10.0227
▁marvelled	-10.0228
▁understood	-10.0228
▁humble	-10.0229
▁weakness	-10.0229
▁devout	-10.023
▁earnestly	-10.0231
▁error	-10.0233
▁approved	-10.0233
▁birds	-10.0234
▁mount	-10.0235
▁whither	-10.0237
▁baskets	-10.0237
▁cleansed	-10.0239
▁ceased	-10.024
▁blasphemed	-10.0242
▁lame	-10.0243
▁building	-10.0245
▁workers	-10.0264
▁wheat	-10.027
▁sayings	-10.027
▁vessels	-10.0287
▁villages	-10.0302
▁shine	-10.0325
▁winds	-10.0342
▁Men	-10.0352
▁dwelling	-10.0375
▁seventh	-10.0401
▁doors	-10.0403
▁possess	-10.0439
▁Know	-10.0473
▁ago	-10.049
▁asking	-10.0514
▁deceit	-10.0554
▁spare	-10.0556
▁takes	-10.0569
le	-10.0587
▁hears	-10.0592
O	-10.0598
▁dominion	-10.0746
▁houses	-10.0753
▁elder	-10.0761
▁bless	-10.0776
▁broke	-10.0778
▁patient	-10.0809
▁thirty	-10.0814
acharias	-10.0814
▁footstool	-10.0814
▁abode	-10.0815
▁consolation	-10.0815
▁flock	-10.0815
▁pertain	-10.0815
▁darkened	-10.0815
▁straight	-10.0815
▁divers	-10.0815
▁oppression	-10.0815
▁sorry	-10.0815
▁accusation	-10.0815
▁privately	-10.0815
▁unleavened	-10.0815
▁hunger	-10.0815
▁otherwise	-10.0816
▁exhortation	-10.0816
▁scattered	-10.0817
▁dwelt	-10.0817
▁lake	-10.0817
▁corruption	-10.0818
▁foolishness	-10.0819
▁shortly	-10.082
▁south	-10.0822
▁winter	-10.0826
▁younger	-10.0827
▁henceforth	-10.0832
▁publicans	-10.0833
▁defiled	-10.084
▁reported	-10.0841
▁firm	-10.0841
▁learned	-10.0843
▁doubt	-10.0844
▁Knowing	-10.0848
▁fasting	-10.0857
▁forward	-10.0861
▁ministered	-10.0862
▁sounded	-10.0874
T	-10.0885
▁afflictions	-10.0902
▁either	-10.0929
▁tombs	-10.0933
▁Rejoice	-10.0947
▁following	-10.0977
led	-10.101
▁fill	-10.1026
▁generations	-10.1027
▁seize	-10.1057
Now	-10.1074
▁needs	-10.1092
▁goods	-10.1095
▁yield	-10.1142
which	-10.1159
Blessed	-10.116
▁Levi	-10.1214
▁c	-10.1216
▁bow	-10.1321
▁heir	-10.133
▁cloth	-10.1354
▁desert	-10.136
W	-10.1365
▁trumpet	-10.138
▁neighbour	-10.1382
▁prince	-10.1385
▁liar	-10.1402
▁dear	-10.1403
All	-10.141
▁veil	-10.1419
▁increase	-10.1428
▁thirst	-10.143
▁strange	-10.1431
▁earnest	-10.1432
▁office	-10.1433
▁mean	-10.1434
▁healing	-10.1435
▁infirmities	-10.1439
▁multiplied	-10.1439
▁purple	-10.1439
▁Adam	-10.144
▁Rome	-10.144
▁week	-10.144
▁hurt	-10.1441
▁dust	-10.1442
▁jealousy	-10.1442
▁spent	-10.1442
▁fight	-10.1443
▁rejoicing	-10.1443
▁tried	-10.1446
▁accomplished	-10.1446
▁proof	-10.1446
▁serving	-10.145
▁accepted	-10.1451
▁changed	-10.1451
▁island	-10.1453
▁belly	-10.1456
▁Watch	-10.1471
▁Another	-10.1473
▁putt	-10.1483
▁endured	-10.1487
▁Cornelius	-10.1489
▁charged	-10.1498
▁hell	-10.1498
me	-10.1522
h	-10.1523
▁clouds	-10.1536
▁fourth	-10.1537
▁persons	-10.1543
ill	-10.1543
▁sisters	-10.155
▁Peace	-10.1557
▁Arise	-10.156
▁turning	-10.1563
▁reject	-10.1567
not	-10.1582
▁leaves	-10.1607
▁today	-10.1657
▁minded	-10.1699
▁wish	-10.1721
▁feed	-10.1761
▁lodge	-10.1762
▁seem	-10.1832
special	-10.1883
alute	-10.1907
▁wall	-10.1976
▁wipe	-10.2034
▁dream	-10.2038
▁al	-10.2039
▁mourn	-10.2056
▁offence	-10.2067
▁soldier	-10.2075
▁anoint	-10.209
▁reveal	-10.2091
▁careful	-10.2099
▁faint	-10.21
▁quiet	-10.2104
▁admonish	-10.2106
▁crucify	-10.2106
▁desolate	-10.2106
▁sanctification	-10.2106
▁dumb	-10.2106
▁humility	-10.2106
▁price	-10.2106
▁stripes	-10.2107
▁pluck	-10.2107
▁Word	-10.2107
▁summon	-10.2108
▁covetousness	-10.2108
▁firstborn	-10.2108
▁flood	-10.2109
▁trembling	-10.2109
▁invited	-10.2109
▁diligently	-10.2109
▁prophesied	-10.2111
▁husbandmen	-10.2111
▁dying	-10.2112
▁fishes	-10.2113
▁press	-10.2113
▁olive	-10.2114
▁dogs	-10.2114
▁obedient	-10.2114
▁elect	-10.2115
▁Olives	-10.2116
▁reconciled	-10.2116
▁vine	-10.2119
▁cold	-10.2122
▁Ananias	-10.2122
▁shadow	-10.2122
▁loosed	-10.2123
▁proclaimed	-10.2126
▁planted	-10.2127
▁collectors	-10.2127
▁accounted	-10.213
▁calleth	-10.213
▁wild	-10.2141
▁bold	-10.2142
▁horses	-10.2153
that	-10.2159
▁perished	-10.216
▁reed	-10.2171
▁perfected	-10.2184
▁fleshly	-10.2208
▁bestow	-10.2208
ng	-10.2226
▁stoned	-10.2227
▁blaspheme	-10.223
▁tribes	-10.2263
▁establish	-10.2265
To	-10.229
ting	-10.2296
▁worked	-10.2305
▁passing	-10.237
ish	-10.2394
te	-10.2411
▁bed	-10.2469
God	-10.247
No	-10.2504
Have	-10.2505
▁cares	-10.2525
Woe	-10.2559
";	-10.2559
Whoever	-10.2566
▁shed	-10.2585
▁offend	-10.26
gave	-10.2608
▁sees	-10.262
▁cheer	-10.2629
▁Sir	-10.2629
▁Here	-10.2681
▁di	-10.2694
ster	-10.2733
▁envy	-10.2743
▁burden	-10.2747
▁Lo	-10.2748
▁fault	-10.2749
B	-10.2759
▁persecution	-10.2765
▁bad	-10.2768
▁chose	-10.2789
▁refuse	-10.2802
▁cry	-10.2812
▁unrighteous	-10.2819
▁divorce	-10.282
▁Baptizer	-10.282
▁double	-10.282
▁Baptist	-10.282
▁Bethlehem	-10.282
▁Cilicia	-10.282
▁Cyprus	-10.282
▁Stephen	-10.282
▁Timotheus	-10.282
▁diligence	-10.282
▁testament	-10.282
▁tetrarch	-10.282
▁thieves	-10.282
▁travel	-10.282
▁anxious	-10.2821
▁spread	-10.2821
▁Jonah	-10.2821
▁interpretation	-10.2821
▁suddenly	-10.2821
▁priesthood	-10.2821
▁enough	-10.2821
▁consent	-10.2821
▁brass	-10.2822
▁Judah	-10.2823
▁colt	-10.2823
▁necessity	-10.2824
▁avenge	-10.2826
▁wages	-10.2827
▁mocked	-10.2828
▁beforehand	-10.2828
▁talking	-10.283
▁loss	-10.283
▁ascended	-10.2833
▁fulfill	-10.2834
▁piece	-10.2838
▁fullness	-10.2838
▁ordinances	-10.2843
▁escaped	-10.2846
▁believing	-10.2848
▁tormented	-10.2851
▁mourning	-10.2856
▁anger	-10.2859
▁tak	-10.287
▁burning	-10.2875
▁sacrificed	-10.2878
▁Great	-10.2884
▁R	-10.2885
▁sleeping	-10.2899
▁seats	-10.2904
▁fail	-10.2951
reserved	-10.2953
▁early	-10.2977
▁Can	-10.2978
Be	-10.2979
▁prove	-10.298
▁selves	-10.2981
▁eats	-10.2984
ted	-10.2991
▁east	-10.3003
▁travail	-10.3055
▁warn	-10.3068
▁thereon	-10.3099
▁drinking	-10.3121
by	-10.3159
▁Mak	-10.3165
ture	-10.3179
▁Whos	-10.3184
▁teaches	-10.3257
▁arm	-10.3282
Is	-10.3315
Rabbi	-10.3321
Sir	-10.3407
seeking	-10.348
▁roo	-10.3484
ward	-10.3491
▁bond	-10.3524
▁guide	-10.3532
ccord	-10.3533
▁horse	-10.3535
▁lamp	-10.3535
▁miracle	-10.3536
▁officer	-10.3546
▁perform	-10.3572
▁remove	-10.3575
▁grievous	-10.3584
▁unjust	-10.3584
▁abundant	-10.3585
▁stedfast	-10.3587
▁gentle	-10.3588
▁covetous	-10.3588
▁Finally	-10.359
▁advantage	-10.359
▁drank	-10.359
▁glass	-10.359
▁longsuffering	-10.359
▁mediator	-10.359
▁merciful	-10.359
▁profane	-10.359
▁struck	-10.359
▁silent	-10.359
▁fourteen	-10.359
▁idle	-10.359
▁danger	-10.359
▁bride	-10.359
▁repay	-10.359
▁buried	-10.359
▁sitteth	-10.359
▁brake	-10.359
▁easier	-10.359
▁continually	-10.359
▁afflicted	-10.3591
▁adorn	-10.3591
▁void	-10.3591
▁bitter	-10.3591
▁sixty	-10.3591
▁mute	-10.3591
▁teeth	-10.3591
▁wrapp	-10.3591
▁evident	-10.3592
▁filthy	-10.3593
▁conceived	-10.3593
▁half	-10.3597
▁accusers	-10.36
▁upper	-10.3601
▁tithes	-10.3601
▁gladly	-10.3602
▁wondered	-10.3604
▁pearls	-10.3605
▁animals	-10.3605
▁beware	-10.3606
▁established	-10.3608
▁zealous	-10.361
▁along	-10.3615
▁covered	-10.3615
▁finish	-10.3618
▁net	-10.3619
▁supposed	-10.362
▁robbers	-10.3622
▁farmers	-10.3623
▁diseases	-10.3626
▁streets	-10.3627
▁sowed	-10.364
▁murderers	-10.3642
▁spring	-10.3656
▁Ha	-10.3657
▁incense	-10.3671
▁gods	-10.3671
el	-10.3677
ring	-10.3695
w	-10.3696
▁interpret	-10.3699
▁scourge	-10.37
▁rent	-10.3705
▁re	-10.3713
▁goats	-10.3735
▁Follow	-10.3741
▁strike	-10.3759
▁Brothers	-10.3782
▁sell	-10.3794
▁intend	-10.3796
▁sits	-10.3834
▁eaten	-10.3875
▁doest	-10.3881
ur	-10.3958
ble	-10.3995
▁leaven	-10.4011
▁faces	-10.4016
men	-10.4035
nd	-10.4045
ors	-10.4119
▁beholding	-10.4139
There	-10.415
▁perceiv	-10.4182
▁Re	-10.4198
▁content	-10.4199
▁gna	-10.4234
▁inso	-10.4249
eloved	-10.4254
▁dis	-10.426
ius	-10.4308
man	-10.4315
▁smo	-10.4341
▁epistle	-10.4354
▁practice	-10.4361
▁serpent	-10.4368
▁idol	-10.4369
▁Roman	-10.4369
▁suppos	-10.4369
▁murderer	-10.4376
ver	-10.4381
▁bury	-10.4389
eep	-10.4391
▁complete	-10.4399
▁favor	-10.4403
▁eleven	-10.4405
▁provoke	-10.4407
▁drunk	-10.4408
▁discern	-10.4413
▁confident	-10.4417
rethren	-10.4418
▁High	-10.4422
▁Corinth	-10.4423
▁Cephas	-10.4423
▁Alexander	-10.4423
▁Aquila	-10.4423
▁Bethsaida	-10.4423
▁Jericho	-10.4423
▁Nathanael	-10.4423
▁Simeon	-10.4423
▁Thessalonica	-10.4423
▁bottles	-10.4423
▁fifty	-10.4423
▁indignation	-10.4423
▁malice	-10.4423
▁tribute	-10.4423
▁carnal	-10.4423
▁fierce	-10.4423
▁Galatia	-10.4423
▁Philippi	-10.4423
▁offspring	-10.4423
▁space	-10.4423
▁lips	-10.4423
▁tender	-10.4423
▁Herodias	-10.4424
▁unfruitful	-10.4424
▁appearance	-10.4424
▁cock	-10.4424
▁cleanse	-10.4424
Truly	-10.4424
▁hypocrisy	-10.4424
▁smite	-10.4425
▁iron	-10.4425
▁accompan	-10.4425
▁opposit	-10.4426
▁key	-10.4426
▁relatives	-10.4426
▁grieved	-10.4427
▁dishonor	-10.4428
▁sickle	-10.4429
▁Nay	-10.443
▁instructed	-10.4431
▁kindness	-10.4431
▁stirre	-10.4431
▁descended	-10.4432
▁rod	-10.4435
▁Jonas	-10.4436
▁crowd	-10.4437
▁coasts	-10.4439
▁corruptible	-10.4439
▁thunders	-10.4445
▁alms	-10.4446
▁watching	-10.4454
▁thither	-10.4456
▁equal	-10.4458
▁bright	-10.446
▁gained	-10.4464
▁nets	-10.4466
▁yoke	-10.4466
▁yeast	-10.447
▁Romans	-10.4478
▁serpents	-10.4478
▁fulness	-10.4482
▁figure	-10.4495
▁customs	-10.4516
▁appearing	-10.452
ough	-10.4521
▁overcomes	-10.4529
▁race	-10.4542
▁matters	-10.4568
▁tables	-10.4578
▁falling	-10.4582
▁pleasing	-10.4585
▁wars	-10.4607
▁suffering	-10.4617
▁An	-10.464
▁swords	-10.468
▁JE	-10.4685
aving	-10.4702
dded	-10.4807
rang	-10.4826
▁m	-10.4848
▁accept	-10.487
▁calls	-10.491
▁kneel	-10.4922
▁dies	-10.4923
▁prais	-10.4956
four	-10.5115
▁continu	-10.5135
Jesus	-10.519
▁loose	-10.5217
▁wonder	-10.5222
▁cloak	-10.527
▁sanctif	-10.5271
▁steward	-10.5275
▁fool	-10.5277
▁river	-10.5277
▁corner	-10.528
▁alway	-10.528
▁member	-10.5284
▁stranger	-10.529
▁zeal	-10.5308
▁shake	-10.5315
▁fervent	-10.5326
▁intercession	-10.5332
▁Lystra	-10.5332
▁Troas	-10.5332
▁bottom	-10.5332
▁damnation	-10.5332
▁imitat	-10.5332
▁perplexed	-10.5332
▁religion	-10.5332
▁unprofitable	-10.5332
▁violence	-10.5332
▁maimed	-10.5332
▁midnight	-10.5332
▁donkey	-10.5332
▁ignorance	-10.5332
▁silence	-10.5332
▁penny	-10.5332
▁Hades	-10.5332
▁Noah	-10.5332
▁habitation	-10.5332
▁sweet	-10.5332
▁winepress	-10.5332
▁uncircumcised	-10.5332
▁large	-10.5332
▁partiality	-10.5332
▁porch	-10.5332
▁empty	-10.5332
▁renew	-10.5332
▁defense	-10.5332
▁running	-10.5333
▁meekness	-10.5333
▁tarried	-10.5333
▁state	-10.5333
▁baptizing	-10.5334
▁heavy	-10.5334
▁Afterward	-10.5334
▁testifies	-10.5335
▁murmured	-10.5335
▁tarry	-10.5335
▁wedding	-10.5336
▁armies	-10.5337
▁required	-10.5337
▁gladness	-10.5338
▁captive	-10.5339
▁borders	-10.534
▁somewhat	-10.5341
▁sinful	-10.5341
▁incorruptible	-10.5341
▁Love	-10.5341
▁oxen	-10.5342
▁Joses	-10.5343
xcept	-10.5344
▁redeemed	-10.5344
▁wound	-10.5344
▁tolera	-10.5344
▁hardened	-10.5346
▁secretly	-10.5346
▁Crete	-10.5347
▁thirsty	-10.5349
▁findeth	-10.535
▁descending	-10.5351
▁interpreted	-10.5351
▁KING	-10.5352
▁sufficient	-10.5355
▁pain	-10.5355
▁deserted	-10.5356
▁lots	-10.5357
▁suppose	-10.5358
▁increased	-10.536
▁Samaritans	-10.5361
▁array	-10.5366
▁reigned	-10.5383
▁despised	-10.5385
▁fools	-10.539
▁strive	-10.5391
▁numbered	-10.5396
▁lamps	-10.5397
rolled	-10.5398
▁value	-10.5405
▁ascend	-10.5424
▁fever	-10.5426
ittle	-10.5434
▁prisoners	-10.5462
▁mayest	-10.5467
▁wax	-10.5483
▁crowns	-10.5487
▁fit	-10.5494
▁Stand	-10.5496
▁Thus	-10.5498
▁hill	-10.5513
▁Mo	-10.5518
▁judgeth	-10.5531
▁test	-10.5533
ar	-10.5539
▁spe	-10.5555
▁hoped	-10.5593
nce	-10.561
▁treasures	-10.5619
ught	-10.5622
▁honest	-10.5628
ntil	-10.5646
▁utter	-10.5648
▁Rabbi	-10.5661
▁best	-10.5674
portion	-10.5676
▁hence	-10.5678
▁hates	-10.5698
ull	-10.5714
▁borne	-10.5723
go	-10.5723
bearing	-10.5744
▁deceitful	-10.5759
▁acknowledge	-10.5856
▁Out	-10.5865
▁thrones	-10.5876
▁worke	-10.5878
▁weight	-10.5881
im	-10.5892
rough	-10.5927
▁h	-10.5955
▁strait	-10.5984
Get	-10.603
▁slow	-10.6071
These	-10.6073
though	-10.6075
▁leav	-10.6178
D	-10.6183
ma	-10.6186
▁exalt	-10.6195
ings	-10.6207
▁El	-10.6226
▁covet	-10.6242
▁declar	-10.6251
▁Juda	-10.627
▁finger	-10.6273
▁marketplace	-10.6276
▁division	-10.6276
▁possession	-10.6278
▁fulfil	-10.629
▁lion	-10.63
▁effect	-10.6301
▁forget	-10.6306
▁cease	-10.6314
▁confirm	-10.6315
▁appoint	-10.6316
▁adulter	-10.6318
▁clothe	-10.6324
▁diligent	-10.6327
▁branch	-10.6329
▁change	-10.6331
▁dark	-10.6331
▁Laodicea	-10.6332
▁Aristarchus	-10.6332
▁Gehenna	-10.6332
▁Iconium	-10.6332
▁Pharaoh	-10.6332
▁abomination	-10.6332
▁adoption	-10.6332
▁adversaries	-10.6332
▁appropriate	-10.6332
▁blemish	-10.6332
▁business	-10.6332
▁desolation	-10.6332
▁expedient	-10.6332
▁guilty	-10.6332
▁invisible	-10.6332
▁lump	-10.6332
▁magistrates	-10.6332
▁mysteries	-10.6332
▁palace	-10.6332
▁victory	-10.6332
▁vinegar	-10.6332
▁captivity	-10.6332
▁nevertheless	-10.6332
▁scarlet	-10.6332
▁milk	-10.6332
▁Alphaeus	-10.6332
▁principalities	-10.6332
▁stopped	-10.6332
▁punishment	-10.6332
▁Gaius	-10.6332
▁unlearned	-10.6332
▁uttermost	-10.6332
▁proud	-10.6332
▁twain	-10.6332
▁physician	-10.6332
▁sincerity	-10.6332
▁surround	-10.6332
▁different	-10.6332
▁pool	-10.6333
▁front	-10.6333
▁unknown	-10.6333
▁Jesse	-10.6333
▁dressed	-10.6333
▁plainly	-10.6333
▁clay	-10.6334
▁shining	-10.6334
▁slaughter	-10.6335
▁gentleness	-10.6335
▁profitable	-10.6335
▁merchant	-10.6335
▁spoil	-10.6336
▁depth	-10.6336
▁clearly	-10.6336
▁Cain	-10.6336
bei	-10.6337
▁shoes	-10.6338
▁eight	-10.6339
▁flame	-10.6339
▁co	-10.634
▁hindered	-10.634
▁waves	-10.634
▁tomorrow	-10.6341
▁bush	-10.6343
▁manna	-10.6344
▁forgiveness	-10.6345
▁calf	-10.6345
▁render	-10.6347
▁confirmed	-10.6349
▁strengthened	-10.6349
▁restored	-10.635
▁deal	-10.635
▁Only	-10.6352
▁idolaters	-10.6353
▁forsaken	-10.6358
▁robes	-10.6358
▁standeth	-10.6358
▁debtors	-10.6359
▁beside	-10.6359
▁shore	-10.6359
▁lepers	-10.637
▁eunuchs	-10.637
▁lawyers	-10.6371
▁highest	-10.6371
▁beaten	-10.6373
▁wood	-10.6377
▁swallow	-10.6381
▁hateth	-10.6381
▁Anna	-10.6384
▁Pray	-10.6386
▁besides	-10.6387
▁possessions	-10.6388
▁nought	-10.6388
▁watched	-10.6389
▁wings	-10.6393
▁released	-10.6399
▁abounded	-10.6403
▁cursed	-10.6403
▁tenth	-10.6405
ood	-10.6406
▁manifested	-10.6406
▁doves	-10.6409
▁obeyed	-10.6412
oncern	-10.6437
▁virgins	-10.644
ity	-10.6455
▁regard	-10.6458
▁dur	-10.646
▁offerings	-10.6462
▁seals	-10.6483
▁reasoning	-10.6486
▁urge	-10.6486
▁excuse	-10.6492
▁ministers	-10.6505
i	-10.6511
▁figs	-10.6516
so	-10.6517
▁da	-10.6524
▁earthly	-10.6525
▁joint	-10.6557
▁song	-10.659
▁strengthen	-10.6666
▁harden	-10.667
▁got	-10.6702
▁doer	-10.6739
▁dare	-10.6751
ments	-10.6784
pressed	-10.6798
uch	-10.6826
nt	-10.6848
tha	-10.6857
Look	-10.6897
▁l	-10.6917
▁Cyren	-10.6933
alked	-10.696
▁stands	-10.6968
▁o	-10.6968
ard	-10.6981
▁Look	-10.7004
ied	-10.7014
▁groan	-10.7016
informed	-10.7017
▁fly	-10.702
ship	-10.7028
▁drinks	-10.7062
minded	-10.707
side	-10.7087
end	-10.7104
▁Teacher	-10.7113
ence	-10.7125
Which	-10.7147
C	-10.7148
Because	-10.7157
See	-10.7169
'"	-10.718
Brothers	-10.7186
▁liken	-10.7221
ain	-10.7241
ke	-10.7241
▁wo	-10.7288
▁close	-10.7296
ding	-10.7302
Ha	-10.7309
aeus	-10.7329
ven	-10.7346
age	-10.7348
▁Br	-10.7361
▁neck	-10.7381
ssage	-10.7386
▁famine	-10.7387
▁street	-10.7389
▁disease	-10.7393
▁partaker	-10.7395
▁grave	-10.7408
▁coat	-10.7423
▁mention	-10.7441
control	-10.7442
▁corn	-10.7442
▁Se	-10.7442
▁Melchizedek	-10.7443
▁Elisabeth	-10.7443
▁Elizabeth	-10.7443
▁Melchisedec	-10.7443
▁Tychicus	-10.7443
▁anguish	-10.7443
▁denarius	-10.7443
▁fifteen	-10.7443
▁middle	-10.7443
▁palsy	-10.7443
▁perseverance	-10.7443
▁reverence	-10.7443
▁sanctuary	-10.7443
▁terrified	-10.7443
▁vipers	-10.7443
▁virtue	-10.7443
▁Priscilla	-10.7443
▁Matthew	-10.7443
▁twice	-10.7443
▁handmaid	-10.7443
▁craftiness	-10.7443
▁blasphemies	-10.7443
▁vengeance	-10.7443
▁ungodliness	-10.7443
▁fables	-10.7443
▁readiness	-10.7444
▁bidden	-10.7444
▁barren	-10.7444
▁Mark	-10.7444
▁thrice	-10.7444
▁election	-10.7444
▁arrest	-10.7444
▁reprove	-10.7444
▁confession	-10.7445
▁treasury	-10.7445
▁eighth	-10.7446
▁striving	-10.7446
▁almost	-10.7447
▁hardness	-10.7447
▁issue	-10.7448
▁pigs	-10.7449
▁seventy	-10.7449
▁assembled	-10.745
▁road	-10.745
▁choked	-10.7451
▁bones	-10.7451
▁refreshed	-10.7452
▁sect	-10.7452
▁patiently	-10.7453
▁band	-10.7454
▁oppose	-10.7455
▁soweth	-10.7456
▁remaineth	-10.7456
▁receiving	-10.7462
▁builders	-10.7465
▁snare	-10.7465
▁foreheads	-10.7473
▁refused	-10.7474
▁removed	-10.7474
but	-10.748
▁overcometh	-10.7491
▁testing	-10.7491
fore	-10.7493
▁breath	-10.7493
onsider	-10.7495
▁Death	-10.7498
▁hail	-10.7498
Today	-10.7499
▁profess	-10.7503
ier	-10.7511
▁corners	-10.7513
▁washing	-10.7514
▁west	-10.7516
mus	-10.7521
▁Say	-10.7522
▁swor	-10.7525
▁remained	-10.7527
▁persecutions	-10.7532
▁delay	-10.7537
▁suppl	-10.7543
▁spot	-10.7546
▁ours	-10.7555
▁wanted	-10.7557
ance	-10.7571
▁sows	-10.7574
▁top	-10.7574
▁exhorting	-10.7576
▁lend	-10.7576
▁withstand	-10.7588
▁Beware	-10.7595
▁freed	-10.76
way	-10.7628
▁reading	-10.7632
▁thereby	-10.7657
▁seasons	-10.7657
▁Hold	-10.7661
▁Well	-10.7667
▁pleasures	-10.7671
▁Put	-10.7684
▁ages	-10.769
▁str	-10.7693
▁immoral	-10.7696
;'	-10.7743
▁daughters	-10.7744
shing	-10.7758
▁appeal	-10.7766
In	-10.7776
▁falls	-10.7811
▁divin	-10.7823
out	-10.7826
▁permit	-10.7828
our	-10.7833
▁ships	-10.7839
▁wants	-10.7843
N	-10.7848
▁dea	-10.7854
▁Whe	-10.7876
▁move	-10.7918
▁books	-10.7928
g	-10.7946
▁J	-10.7951
▁less	-10.7954
▁nourishe	-10.7962
▁finds	-10.7971
So	-10.7988
▁hang	-10.7996
▁distribute	-10.8017
▁sore	-10.8018
▁compelle	-10.805
▁flow	-10.8057
tention	-10.8101
▁thousands	-10.8107
▁K	-10.8107
▁fore	-10.8116
▁god	-10.8133
▁Hear	-10.8169
▁point	-10.8172
▁pervert	-10.8198
law	-10.8205
▁examine	-10.8216
▁possesse	-10.8217
▁camel	-10.8245
▁purge	-10.8253
▁mouths	-10.8254
holding	-10.8254
Therefore	-10.8256
▁puffe	-10.8278
▁recognize	-10.828
John	-10.829
ck	-10.8296
▁fasten	-10.8303
un	-10.8309
unt	-10.8331
▁wa	-10.8338
▁hi	-10.8376
Give	-10.8417
Rejoice	-10.8419
Not	-10.8501
▁contain	-10.8529
▁sand	-10.8531
▁seeme	-10.8535
Every	-10.8542
▁se	-10.8556
▁crow	-10.8556
▁perver	-10.8574
▁haven	-10.8618
ea	-10.8621
▁mat	-10.8623
▁purse	-10.863
▁supplication	-10.8631
▁prostitute	-10.8634
▁court	-10.8635
▁messenger	-10.8635
▁talent	-10.8639
▁month	-10.864
▁farmer	-10.8641
▁kindred	-10.8641
▁telling	-10.8642
id	-10.8646
▁robber	-10.8648
▁insult	-10.8655
▁sprinkl	-10.8659
▁purify	-10.866
▁maid	-10.8664
▁craft	-10.867
▁distress	-10.8672
▁mortal	-10.8672
▁Sal	-10.8673
▁affirm	-10.8676
▁entreat	-10.8676
▁redeem	-10.8677
▁scribe	-10.8679
▁ox	-10.8683
▁debt	-10.8688
score	-10.8691
▁convenient	-10.8693
▁Aaron	-10.8693
▁Bartholomew	-10.8693
▁LORD	-10.8693
▁Nicodemus	-10.8693
▁Pamphylia	-10.8693
▁Silvanus	-10.8693
▁Thyatira	-10.8693
▁bodily	-10.8693
▁fowls	-10.8693
▁infirmity	-10.8693
▁iniquities	-10.8693
▁jasper	-10.8693
▁leprosy	-10.8693
▁merchandise	-10.8693
▁opportunity	-10.8693
▁poverty	-10.8693
▁produce	-10.8693
▁sackcloth	-10.8693
▁sorcerer	-10.8693
▁sparrows	-10.8693
▁spices	-10.8693
▁sulfur	-10.8693
▁wolves	-10.8693
▁brimstone	-10.8693
▁ceasing	-10.8693
▁direct	-10.8693
▁length	-10.8693
▁preferr	-10.8693
▁abyss	-10.8693
▁bowels	-10.8693
▁accursed	-10.8693
▁beheaded	-10.8693
▁garden	-10.8693
▁immortality	-10.8693
▁slept	-10.8693
▁swift	-10.8693
▁undefiled	-10.8693
▁unmarried	-10.8693
▁housetop	-10.8693
▁neglect	-10.8693
▁enjoy	-10.8693
▁Jason	-10.8693
▁bosom	-10.8693
▁fifth	-10.8693
▁endurance	-10.8693
▁ninety	-10.8693
▁difference	-10.8693
▁shortened	-10.8694
▁preparation	-10.8694
▁expectation	-10.8694
▁salutation	-10.8694
▁dawn	-10.8694
▁savour	-10.8694
▁unholy	-10.8694
▁disappointed	-10.8695
▁adulterers	-10.8695
▁Abel	-10.8695
▁heathen	-10.8695
▁apostleship	-10.8695
▁merry	-10.8696
▁mankind	-10.8696
▁platter	-10.8696
▁Walk	-10.8696
▁explain	-10.8696
▁swine	-10.8697
▁clear	-10.8698
▁arrived	-10.87
▁Cana	-10.87
▁cured	-10.87
▁pierced	-10.8701
▁fearful	-10.8701
▁Athens	-10.8701
▁decay	-10.8702
▁quenched	-10.8703
▁male	-10.8703
▁tails	-10.8704
▁preserved	-10.8704
▁sincere	-10.8705
▁edifying	-10.8705
▁elements	-10.8705
▁driven	-10.8705
▁everywhere	-10.8707
▁hereafter	-10.8707
▁pull	-10.8708
▁uttered	-10.8711
▁creep	-10.8712
▁proper	-10.8713
▁nay	-10.8716
▁wounded	-10.8716
▁tested	-10.8719
▁First	-10.872
▁outward	-10.8721
▁slave	-10.8722
▁boy	-10.8725
▁mourned	-10.8726
▁dispute	-10.8726
▁ahead	-10.873
▁effectual	-10.873
▁forthwith	-10.8731
▁denie	-10.8731
▁preacher	-10.8732
▁Was	-10.8733
▁bid	-10.8733
▁mocking	-10.8736
▁skins	-10.8741
▁coats	-10.8743
▁corrupted	-10.8748
▁ashes	-10.8748
k	-10.8749
▁Children	-10.8756
▁single	-10.8758
▁restore	-10.8758
▁tied	-10.876
▁extortioner	-10.8761
▁heat	-10.8762
▁moth	-10.8764
▁exhorted	-10.8768
▁lacking	-10.8773
▁Repent	-10.8792
▁burdens	-10.8794
▁remind	-10.8797
▁princes	-10.8807
▁grown	-10.8821
▁Hosanna	-10.8829
▁Crucify	-10.8829
▁envying	-10.8834
▁writing	-10.8835
▁forgot	-10.8838
▁accus	-10.8849
▁prophesying	-10.8868
▁grows	-10.8869
▁leap	-10.8877
▁ark	-10.8877
ry	-10.888
▁tower	-10.8881
▁inward	-10.8882
▁rebuk	-10.8898
▁beating	-10.8901
▁formed	-10.8904
▁boats	-10.8972
▁conform	-10.8975
▁hire	-10.902
▁foundations	-10.9031
▁Lot	-10.904
ga	-10.9048
▁br	-10.9057
▁breadth	-10.9064
▁mad	-10.9068
▁Pa	-10.9074
ge	-10.9095
ave	-10.9102
▁Ari	-10.9104
▁Get	-10.9109
▁laborer	-10.9109
rely	-10.9112
▁store	-10.913
▁cr	-10.9148
▁justif	-10.9149
▁sing	-10.9161
▁pro	-10.9167
▁dwells	-10.9173
▁pipe	-10.9181
▁feasts	-10.9191
▁special	-10.9193
ook	-10.9197
▁wear	-10.9218
▁tread	-10.9219
▁lot	-10.923
▁knee	-10.9238
▁N	-10.925
ew	-10.928
▁serves	-10.9292
are	-10.9295
▁compare	-10.9323
▁compel	-10.9386
onour	-10.9394
▁con	-10.9419
▁Ch	-10.9424
gat	-10.9432
ned	-10.9437
▁owed	-10.9438
Father	-10.9499
ris	-10.9509
▁haste	-10.9509
▁e	-10.9551
▁dishonour	-10.9552
▁Ab	-10.9624
sh	-10.9679
lew	-10.9743
ad	-10.9749
▁greed	-10.9764
▁behave	-10.9784
▁sad	-10.9789
ling	-10.9803
tain	-10.9805
▁judgments	-10.9808
▁Wil	-10.9829
▁searche	-10.9831
Follow	-10.984
pleasing	-10.9846
Can	-10.9846
Arise	-10.9847
Peace	-10.9848
▁intent	-10.9853
dden	-10.9854
hereby	-10.9878
▁try	-10.991
▁pa	-10.9912
aea	-10.9921
loved	-10.9942
Did	-10.9944
ten	-10.995
ty	-10.9955
▁stablish	-10.9957
coming	-10.9991
▁riot	-11
▁force	-11.0012
▁Nazarene	-11.0053
▁kingdoms	-11.0059
▁vial	-11.0065
▁eunuch	-11.0067
▁lawyer	-11.0067
▁leper	-11.0067
▁disputing	-11.0067
▁plague	-11.0068
▁breast	-11.0068
▁pound	-11.007
▁rem	-11.0074
▁bowl	-11.0094
▁err	-11.0099
▁circumcise	-11.0104
nding	-11.0105
▁accomplish	-11.0106
▁sen	-11.0107
▁provide	-11.011
▁inquire	-11.0112
▁safe	-11.0117
▁recompen	-11.0118
▁trespass	-11.0119
▁partake	-11.012
▁Alpha	-11.0122
▁Beelzebub	-11.0122
▁Beelzebul	-11.0122
▁Benjamin	-11.0122
▁Notwithstanding	-11.0122
▁Praetorium	-11.0122
▁Tarsus	-11.0122
▁abolished	-11.0122
▁affairs	-11.0122
▁assurance	-11.0122
▁avoid	-11.0122
▁babies	-11.0122
▁denarii	-11.0122
▁favour	-11.0122
▁guile	-11.0122
▁hospitality	-11.0122
▁insurrection	-11.0122
▁mercies	-11.0122
▁ministration	-11.0122
▁paralytic	-11.0122
▁uproar	-11.0122
▁apparel	-11.0122
▁convict	-11.0122
▁steps	-11.0122
▁damsel	-11.0122
▁eagle	-11.0122
▁entangle	-11.0122
▁confusion	-11.0122
▁candle	-11.0122
▁mammon	-11.0122
▁block	-11.0122
▁potter	-11.0122
▁queen	-11.0122
▁staves	-11.0122
▁perdition	-11.0122
▁hungred	-11.0122
▁Italy	-11.0122
▁utterance	-11.0122
▁marries	-11.0122
▁moment	-11.0123
▁blew	-11.0123
▁case	-11.0123
▁dishonest	-11.0123
▁drunkard	-11.0125
▁begun	-11.0125
▁Si	-11.0125
▁sinneth	-11.0125
▁blasphemous	-11.0125
▁healthy	-11.0125
▁choose	-11.0126
▁incorruption	-11.0126
▁entrusted	-11.0126
▁alienate	-11.0126
▁punished	-11.0126
▁firstfruits	-11.0127
▁perfection	-11.0128
▁honourable	-11.0129
▁shook	-11.0131
▁weary	-11.0133
▁honorable	-11.0133
▁taxes	-11.0134
▁Servants	-11.0135
▁prevailed	-11.0136
▁fair	-11.0138
▁sickness	-11.014
▁stoop	-11.014
▁dry	-11.0141
▁Sion	-11.0141
▁palm	-11.0144
▁reproved	-11.0147
▁babes	-11.015
▁submit	-11.0153
racles	-11.0153
▁Believe	-11.0154
▁dragg	-11.0156
▁mixed	-11.016
▁asunder	-11.016
▁purifying	-11.0162
▁sprinkling	-11.0162
▁transgressions	-11.017
▁lightnings	-11.017
▁psalms	-11.0171
wo	-11.0173
▁greetings	-11.0174
▁slander	-11.0181
▁doubting	-11.0204
▁divisions	-11.0205
▁marketplaces	-11.0205
▁cal	-11.0209
▁gir	-11.021
▁treated	-11.021
▁rivers	-11.0212
▁tro	-11.0217
▁liars	-11.025
▁returning	-11.0251
▁prosper	-11.0253
▁fountain	-11.0254
▁lower	-11.0257
▁noble	-11.0257
▁peoples	-11.0262
▁sawest	-11.0262
▁needy	-11.0289
slay	-11.0296
▁compass	-11.0301
▁confer	-11.031
▁happens	-11.031
▁memori	-11.0313
▁share	-11.0314
▁captains	-11.0318
▁loc	-11.0325
▁regions	-11.0327
▁plow	-11.0329
▁bill	-11.034
gged	-11.0341
▁communicate	-11.0359
▁rocks	-11.0362
▁blinded	-11.0366
▁sanctifie	-11.0375
usts	-11.0399
▁height	-11.0408
▁wanton	-11.043
day	-11.0445
Ma	-11.0448
▁gathering	-11.0471
▁meats	-11.0514
▁trade	-11.0519
▁wander	-11.0527
▁cheerful	-11.0531
▁Her	-11.0548
aster	-11.057
▁plant	-11.0579
where	-11.0609
▁sounds	-11.0615
▁longing	-11.0621
▁stirr	-11.0623
▁low	-11.0637
▁descend	-11.0657
hanged	-11.0672
cy	-11.0687
bout	-11.0708
▁purifie	-11.0712
ia	-11.0716
udge	-11.0722
ay	-11.0723
▁la	-11.0745
▁hot	-11.0745
▁town	-11.0754
▁spit	-11.0777
▁reach	-11.0791
▁mot	-11.0813
ach	-11.0822
p	-11.0828
▁warm	-11.0838
▁lords	-11.0857
ate	-11.0861
▁abst	-11.0865
arned	-11.09
light	-11.097
ount	-11.1032
▁act	-11.1035
▁tear	-11.1044
▁approve	-11.1063
because	-11.1077
▁red	-11.1086
▁ar	-11.1181
▁main	-11.1219
ure	-11.1248
▁stir	-11.1248
worthy	-11.1259
body	-11.127
▁kn	-11.1298
▁Bar	-11.13
▁Ga	-11.1301
speak	-11.1323
mer	-11.1324
And	-11.1331
together	-11.1341
▁Him	-11.1413
Simon	-11.1415
wn	-11.1415
▁g	-11.1439
Y	-11.1448
▁Na	-11.1451
Wom	-11.1455
Man	-11.1516
how	-11.1528
▁bes	-11.1531
til	-11.155
will	-11.162
▁ha	-11.1631
ch	-11.1675
fully	-11.1688
▁ass	-11.1701
▁ch	-11.1708
Hono	-11.1708
jure	-11.1712
▁mock	-11.1714
As	-11.1719
▁instruct	-11.1722
▁Egyptian	-11.1729
▁fellowservant	-11.173
▁mothers	-11.173
▁lamb	-11.173
▁request	-11.1732
▁psalm	-11.1732
▁transgression	-11.1733
▁Samaritan	-11.1733
▁ordinance	-11.1734
▁collector	-11.1735
▁publican	-11.1736
▁Salmon	-11.1738
▁knock	-11.1739
▁lightning	-11.1739
▁lean	-11.1746
▁threaten	-11.1748
▁overthrow	-11.1752
▁sa	-11.1753
▁prevail	-11.1772
▁endur	-11.1776
▁happ	-11.1779
▁constrain	-11.1783
▁Pont	-11.1785
▁black	-11.1787
▁author	-11.1788
▁scrip	-11.1788
▁conquer	-11.1788
acchaeus	-11.1788
▁Bernice	-11.1788
▁Decapolis	-11.1788
▁Demetrius	-11.1788
▁Eliakim	-11.1788
▁Epaphras	-11.1788
▁Erastus	-11.1788
▁Samuel	-11.1788
▁Siloam	-11.1788
▁Thessalonians	-11.1788
▁Trophimus	-11.1788
▁abominable	-11.1788
▁adversary	-11.1788
▁behavior	-11.1788
▁benefit	-11.1788
▁consume	-11.1788
▁convince	-11.1788
▁crumbs	-11.1788
▁crystal	-11.1788
▁dissolved	-11.1788
▁distinction	-11.1788
▁enmity	-11.1788
▁fashion	-11.1788
▁female	-11.1788
▁fragments	-11.1788
▁goddess	-11.1788
▁grapes	-11.1788
▁idolatry	-11.1788
▁innocent	-11.1788
▁inscription	-11.1788
▁lasciviousness	-11.1788
▁majesty	-11.1788
▁myrrh	-11.1788
▁paralyzed	-11.1788
▁pattern	-11.1788
▁principles	-11.1788
▁superscription	-11.1788
▁temperate	-11.1788
▁Esau	-11.1788
▁Sardis	-11.1788
▁marvellous	-11.1788
▁strangled	-11.1788
▁tidings	-11.1788
▁Demas	-11.1788
▁beggar	-11.1788
▁millstone	-11.1788
▁liberality	-11.1788
▁battle	-11.1788
▁displeased	-11.1788
▁filthiness	-11.1788
▁recover	-11.1788
▁reconciliation	-11.1789
▁Answer	-11.1789
▁unruly	-11.1789
▁Enoch	-11.1789
▁honey	-11.1789
▁estate	-11.1789
▁Balaam	-11.1789
▁Mattath	-11.1789
▁staff	-11.1789
▁box	-11.1789
▁manager	-11.1789
▁forbad	-11.1789
▁wineskins	-11.1789
▁pride	-11.1789
▁freedom	-11.1789
▁furnished	-11.1789
▁adulteress	-11.1789
▁communication	-11.1789
▁overshadow	-11.1789
▁beautiful	-11.179
▁nobleman	-11.179
▁Herodians	-11.179
▁camp	-11.179
▁reconcile	-11.179
▁cursing	-11.179
▁departure	-11.179
▁graff	-11.179
▁eighteen	-11.1791
▁Justus	-11.1791
▁cleansing	-11.1791
▁kinsmen	-11.1791
▁storm	-11.1792
▁translated	-11.1792
▁shamefully	-11.1792
▁Pontus	-11.1792
▁Also	-11.1793
▁bitterness	-11.1793
allowed	-11.1793
▁reviled	-11.1794
owed	-11.1794
▁sandals	-11.1794
▁railing	-11.1795
▁Obed	-11.1795
▁ability	-11.1795
▁imputed	-11.1795
▁needful	-11.1795
▁slanderers	-11.1796
▁highways	-11.1796
▁danced	-11.1797
▁nakedness	-11.1798
▁publish	-11.1798
▁vow	-11.1799
▁persecuting	-11.1803
▁coins	-11.1803
▁persecutest	-11.1804
▁Ephesians	-11.1805
▁lampstands	-11.1805
▁foreigners	-11.1805
▁evildoers	-11.1805
▁labourers	-11.1809
▁instruction	-11.1809
▁inwardly	-11.181
▁host	-11.181
▁Day	-11.181
▁stock	-11.1811
▁entreated	-11.1812
▁distressed	-11.1812
▁sentence	-11.1813
▁passions	-11.1814
▁Bless	-11.1814
▁unbelievers	-11.1815
▁scorpions	-11.1815
▁inquired	-11.1817
▁impart	-11.1817
▁transform	-11.1819
▁closed	-11.1819
nant	-11.1821
lease	-11.1821
▁murmuring	-11.1822
▁breastplates	-11.1825
▁eleventh	-11.1826
▁willingly	-11.1827
▁teacheth	-11.1828
Abba	-11.1831
▁Ask	-11.1832
▁guests	-11.1835
▁candlesticks	-11.1835
▁deceivers	-11.1839
▁requests	-11.1846
▁humbled	-11.1849
▁relieve	-11.1849
▁falsely	-11.1851
▁sores	-11.1852
▁pounds	-11.1853
icted	-11.1853
▁defileth	-11.1854
▁fresh	-11.1856
▁begging	-11.1856
▁breasts	-11.1857
▁proved	-11.1857
▁feeding	-11.1858
▁richly	-11.1862
▁graft	-11.1863
▁considered	-11.1864
▁graves	-11.1866
▁laboured	-11.1867
▁exchange	-11.1868
▁overcame	-11.1869
▁hearers	-11.187
▁Depart	-11.1873
▁famines	-11.1877
▁lions	-11.1878
▁knees	-11.1879
▁pains	-11.1881
▁crowned	-11.1881
▁despiseth	-11.1882
▁crows	-11.1882
▁changers	-11.1885
▁righteously	-11.189
▁confessed	-11.1891
▁listened	-11.1891
▁higher	-11.1896
▁greeting	-11.1897
▁stewards	-11.1897
▁lawless	-11.1901
▁nine	-11.1908
ither	-11.1911
▁partner	-11.1913
ake	-11.1917
▁Write	-11.1924
▁groaning	-11.1926
cked	-11.1935
▁snow	-11.1937
▁offences	-11.194
▁forsake	-11.1942
▁su	-11.1951
▁learning	-11.1952
▁fastings	-11.1969
▁Rise	-11.1975
▁owe	-11.1982
▁attend	-11.1983
▁earthquakes	-11.1993
▁bringe	-11.1996
▁Hebrews	-11.2003
▁dove	-11.2027
▁Friend	-11.2027
▁inside	-11.2034
▁afterwards	-11.2045
▁needed	-11.2055
▁judgest	-11.2061
▁however	-11.2067
▁departing	-11.2068
▁Herm	-11.2073
▁temptations	-11.2078
rnel	-11.2083
▁harp	-11.2089
▁Ph	-11.2095
▁Eli	-11.2107
▁fo	-11.213
▁den	-11.2151
▁catch	-11.2152
▁governors	-11.2162
▁soil	-11.2169
▁late	-11.2204
▁centurions	-11.2217
▁Lyc	-11.2233
▁fields	-11.2237
▁questioning	-11.2251
▁belt	-11.2262
▁helper	-11.2269
▁believest	-11.2294
▁covenants	-11.2303
▁search	-11.2305
lings	-11.2316
▁execute	-11.2328
▁Cast	-11.2334
▁u	-11.2354
times	-11.2467
▁prisons	-11.2479
▁divide	-11.2509
▁ris	-11.2513
b	-11.2542
▁reckon	-11.2545
▁troubles	-11.2555
ess	-11.256
roy	-11.2578
▁esteem	-11.2617
ians	-11.2618
ine	-11.2622
▁lands	-11.2638
▁play	-11.2668
onia	-11.2672
▁withal	-11.2727
▁overthr	-11.275
▁fat	-11.2751
som	-11.2783
lee	-11.2786
▁withdraw	-11.2793
▁tent	-11.2802
▁Christian	-11.2827
most	-11.2827
▁i	-11.2828
ne	-11.2838
if	-11.2852
▁nourish	-11.2879
lab	-11.2912
▁nights	-11.2922
▁mu	-11.2923
▁acc	-11.2942
▁prov	-11.2942
▁lover	-11.2947
▁beckon	-11.2976
efore	-11.2985
▁keeper	-11.3043
▁clo	-11.3052
good	-11.306
▁ink	-11.3123
▁persuade	-11.3179
Son	-11.3197
▁north	-11.3216
ent	-11.3271
▁st	-11.3355
king	-11.3375
▁le	-11.3401
▁j	-11.3411
vail	-11.3428
▁prop	-11.3428
With	-11.3446
▁converte	-11.3446
▁Rem	-11.3447
Amen	-11.345
After	-11.3455
Master	-11.3459
Hear	-11.346
M	-11.346
Again	-11.347
Stand	-11.3473
Neither	-11.3478
chamber	-11.3495
Put	-11.3501
Friend	-11.3505
Beware	-11.351
ince	-11.3514
▁mi	-11.3522
Men	-11.3528
ware	-11.3553
▁yes	-11.3563
▁memor	-11.3567
▁forbidd	-11.3569
ily	-11.3604
ug	-11.3626
▁bro	-11.3665
▁Alexandria	-11.3684
▁enters	-11.3706
gging	-11.3707
▁proceede	-11.372
forgiving	-11.372
▁reprobate	-11.3726
▁trial	-11.3728
▁chariot	-11.3729
▁candlestick	-11.3731
▁guest	-11.3732
ities	-11.3733
▁forehead	-11.3733
▁hypocrite	-11.3734
▁transgressor	-11.3735
▁thunder	-11.374
▁debtor	-11.3742
▁Wh	-11.3747
inner	-11.3749
▁expect	-11.3754
▁contention	-11.3756
▁mina	-11.3756
▁robe	-11.3764
tretch	-11.3767
hepherd	-11.3771
▁scorch	-11.3771
▁quench	-11.3772
▁refresh	-11.3772
▁hinder	-11.3774
aring	-11.378
▁violent	-11.3783
▁chain	-11.3783
▁deceiver	-11.3785
ighteous	-11.3788
▁partial	-11.3788
▁Areopag	-11.3788
▁subvert	-11.3788
▁Creator	-11.3788
▁Diana	-11.3788
▁Gomorrah	-11.3788
▁Gomorrha	-11.3788
▁Rahab	-11.3788
▁Stephanas	-11.3788
▁announce	-11.3788
▁censer	-11.3788
▁chastise	-11.3788
▁clubs	-11.3788
▁countenance	-11.3788
▁custody	-11.3788
▁destitute	-11.3788
▁evangelist	-11.3788
▁frank	-11.3788
▁furlongs	-11.3788
▁furnace	-11.3788
▁hymns	-11.3788
▁indignant	-11.3788
▁lucre	-11.3788
▁proconsul	-11.3788
▁purchase	-11.3788
▁relief	-11.3788
▁result	-11.3788
▁substance	-11.3788
▁triumph	-11.3788
▁Derbe	-11.3788
▁Joanna	-11.3788
▁Lydda	-11.3788
▁Majest	-11.3788
▁administration	-11.3788
▁excess	-11.3788
▁haply	-11.3788
▁stadia	-11.3788
▁vexed	-11.3788
▁warfare	-11.3788
▁edification	-11.3788
▁embrac	-11.3788
▁tanner	-11.3788
▁eager	-11.3788
▁awoke	-11.3788
▁permission	-11.3789
▁rebellion	-11.3789
▁support	-11.3789
▁heaviness	-11.3789
▁reputation	-11.3789
▁prize	-11.3789
▁grief	-11.3789
▁justification	-11.3789
▁conduct	-11.3789
▁plunder	-11.3789
▁authorities	-11.3789
▁offense	-11.3789
▁severity	-11.3789
▁stature	-11.3789
▁Sinai	-11.3789
▁quickeneth	-11.3789
▁bank	-11.3789
▁deception	-11.3789
▁preten	-11.3789
▁bishop	-11.3789
▁vehemently	-11.3789
▁equality	-11.3789
▁stewardship	-11.3789
▁cleave	-11.3789
▁hundredfold	-11.3789
▁terror	-11.379
▁supplies	-11.379
▁Whereupon	-11.379
▁loins	-11.379
▁lady	-11.379
▁attain	-11.379
▁privily	-11.379
▁Tiberias	-11.379
▁tares	-11.379
▁forewarn	-11.379
▁wallet	-11.379
▁awake	-11.379
▁quickened	-11.3791
▁enlightened	-11.3791
▁hateful	-11.3791
▁plot	-11.3791
▁undone	-11.3791
▁mistreat	-11.3791
▁Artemis	-11.3791
▁girdle	-11.3791
▁blackness	-11.3792
▁hardship	-11.3792
▁dinner	-11.3792
▁shrink	-11.3792
▁magnified	-11.3793
▁faultless	-11.3793
▁welcome	-11.3793
▁steppe	-11.3793
▁evermore	-11.3794
▁herbs	-11.3794
▁harmless	-11.3795
▁quietness	-11.3795
▁stern	-11.3795
▁grab	-11.3795
▁shorn	-11.3798
▁cover	-11.3798
▁AN	-11.3799
▁imprisonment	-11.3799
▁outwardly	-11.3801
▁holes	-11.3801
Th	-11.3801
▁trance	-11.3802
▁weaknesses	-11.3802
▁Way	-11.3803
▁miserable	-11.3804
▁beneath	-11.3804
▁resort	-11.3805
▁Am	-11.3806
▁mightily	-11.3807
▁needle	-11.3808
▁revel	-11.3809
▁moreover	-11.3809
▁attained	-11.3811
▁householder	-11.3813
▁chastening	-11.3816
▁signifying	-11.3816
▁affirmed	-11.3817
aid	-11.382
▁weeds	-11.382
▁army	-11.3821
▁anchors	-11.3821
▁Galilaeans	-11.3821
▁crowed	-11.3823
▁Abia	-11.3824
▁raven	-11.3824
▁understandeth	-11.3825
▁wholly	-11.3827
▁workman	-11.383
▁Claudius	-11.3832
▁Galileans	-11.3832
▁worshippers	-11.3834
▁thinkest	-11.3835
▁performed	-11.3837
▁acts	-11.3838
▁needeth	-11.3839
▁burdened	-11.3841
▁pots	-11.3842
▁harps	-11.3842
▁completed	-11.3842
▁transgressors	-11.3847
▁worm	-11.3847
▁salted	-11.3849
▁doubted	-11.385
▁talk	-11.3851
▁shineth	-11.3855
▁tents	-11.3855
▁sower	-11.3855
▁thefts	-11.3857
▁lacked	-11.386
▁singing	-11.386
▁bag	-11.3861
▁mud	-11.3862
seeing	-11.3863
▁labored	-11.3865
▁bowls	-11.3871
▁vials	-11.3872
▁disputes	-11.3873
▁bore	-11.3877
▁burst	-11.3881
worthily	-11.3881
▁worker	-11.3885
▁kindreds	-11.3885
▁messengers	-11.3886
▁strict	-11.389
▁sort	-11.3892
▁wealth	-11.3893
▁petitions	-11.3896
▁meaning	-11.3904
▁profited	-11.3905
▁gri	-11.391
ow	-11.3912
herefore	-11.3913
▁conceit	-11.3931
rushed	-11.3936
▁trusted	-11.3937
▁fade	-11.3944
▁guides	-11.395
▁exp	-11.3952
▁faithless	-11.3954
▁def	-11.3956
▁shout	-11.3958
▁growing	-11.3975
ible	-11.3979
▁beach	-11.399
▁neighbours	-11.399
▁erred	-11.399
▁trumpets	-11.3991
▁torn	-11.4002
▁ministering	-11.4022
▁sup	-11.4032
▁temples	-11.4035
▁secure	-11.4036
amed	-11.4039
▁neighbors	-11.4039
▁labors	-11.4042
▁traditions	-11.4069
▁alter	-11.4072
▁manif	-11.4083
▁rooms	-11.4088
▁chamber	-11.4091
iel	-11.4094
▁tossed	-11.411
▁labours	-11.4116
▁Lay	-11.4117
▁nail	-11.4118
ic	-11.4148
ined	-11.4149
▁Receive	-11.4153
▁charges	-11.4166
ks	-11.4166
▁helps	-11.4169
▁namely	-11.4187
▁committe	-11.4198
ame	-11.4208
▁fold	-11.4218
▁reproaches	-11.4218
▁convert	-11.4232
ri	-11.4242
▁goest	-11.4254
ailed	-11.4262
▁necessit	-11.4269
▁aged	-11.4289
Mak	-11.4306
▁trans	-11.4313
▁afore	-11.4314
ooked	-11.4321
▁hearken	-11.4322
▁wasted	-11.4375
R	-11.4397
▁vo	-11.4398
▁Just	-11.4404
▁citizen	-11.442
▁pen	-11.4471
▁decree	-11.4479
▁ended	-11.4486
um	-11.4509
▁doctrines	-11.4515
▁li	-11.4522
her	-11.453
▁opens	-11.4532
▁pap	-11.4542
▁meal	-11.4545
ced	-11.4579
ong	-11.4605
Si	-11.4609
dged	-11.4623
sop	-11.4625
▁examin	-11.4636
▁talke	-11.4653
▁noise	-11.4691
aged	-11.4696
early	-11.4698
ide	-11.4721
▁hedge	-11.475
Eve	-11.476
▁fox	-11.4771
▁injur	-11.4794
ives	-11.4834
uke	-11.4865
▁seduce	-11.4873
tent	-11.4926
▁win	-11.4933
bas	-11.495
ions	-11.4966
▁edge	-11.4982
▁sometime	-11.4998
ath	-11.4998
▁transgress	-11.5033
▁spr	-11.5053
li	-11.5085
▁preaches	-11.5132
▁stu	-11.5145
▁differ	-11.5154
▁remembere	-11.5172
▁cele	-11.5179
▁Turn	-11.5205
▁sw	-11.523
oman	-11.5247
▁cha	-11.5264
▁impo	-11.5271
▁Noe	-11.5335
▁forbear	-11.5351
▁divid	-11.5393
time	-11.5427
▁upright	-11.5446
▁heap	-11.5452
▁ex	-11.5481
tial	-11.5488
irs	-11.5506
let	-11.5527
E	-11.5544
▁Le	-11.5544
▁correct	-11.5578
▁confesse	-11.5594
ised	-11.5603
they	-11.5627
▁hum	-11.5643
▁entic	-11.5649
u	-11.568
▁compar	-11.5683
▁persuad	-11.5687
TH	-11.5718
▁worshipp	-11.5731
▁Me	-11.5733
▁dig	-11.5737
▁Leav	-11.5781
areth	-11.5809
stood	-11.5813
while	-11.5814
we	-11.5829
That	-11.5844
▁ma	-11.5861
▁va	-11.5861
knowledge	-11.5917
▁excus	-11.5918
bow	-11.5928
Daughter	-11.594
▁regarde	-11.5957
▁en	-11.5964
rove	-11.5986
ordained	-11.6
ns	-11.6001
Rise	-11.6005
Crucify	-11.6006
Hosanna	-11.6006
incense	-11.6007
Thus	-11.6014
piece	-11.6017
▁Je	-11.6051
search	-11.6058
Well	-11.6088
who	-11.6093
▁per	-11.6109
▁keepe	-11.6119
▁fr	-11.6128
▁bas	-11.6129
▁lights	-11.6141
▁judg	-11.6174
▁hide	-11.618
don	-11.6187
▁sum	-11.619
▁companions	-11.6193
▁prophesie	-11.6205
ounded	-11.6217
▁peri	-11.6218
▁charg	-11.6218
▁proverb	-11.622
▁antichrist	-11.622
▁bridle	-11.622
▁Gentile	-11.6223
▁patriarch	-11.6226
▁harlot	-11.6226
▁proselyte	-11.6229
▁pillar	-11.6229
▁chaste	-11.623
▁breastplate	-11.6231
▁Israelite	-11.6232
▁idolater	-11.6233
▁Galilean	-11.6234
▁animal	-11.6234
▁basket	-11.6234
▁pearl	-11.6234
▁sufficien	-11.6236
▁coast	-11.6238
▁worshipper	-11.6238
▁babe	-11.624
▁excellenc	-11.6247
▁multiply	-11.625
▁signify	-11.6254
▁Light	-11.6255
▁exceed	-11.6256
▁quick	-11.6258
▁tithe	-11.6261
you	-11.6262
▁hop	-11.6264
▁preserve	-11.6269
▁choke	-11.627
▁defraud	-11.6271
▁mix	-11.6273
▁genealog	-11.6274
▁laugh	-11.6275
▁Amon	-11.6275
▁jealous	-11.6276
▁filth	-11.6277
▁lament	-11.6278
Su	-11.6279
usbands	-11.6281
▁instant	-11.6282
▁exact	-11.6283
▁ruin	-11.6284
▁uncertain	-11.6286
▁Arabia	-11.6288
jah	-11.6288
engeance	-11.6288
▁chasten	-11.6288
▁Antipa	-11.6288
▁cherishe	-11.6288
▁immutab	-11.6288
▁instru	-11.6288
Sacrifice	-11.6288
zzl	-11.6288
▁Agabus	-11.6288
▁Alleluia	-11.6288
▁Antichrist	-11.6288
▁Archippus	-11.6288
▁Azor	-11.6288
▁Bithynia	-11.6288
▁Cenchrea	-11.6288
▁Crispus	-11.6288
▁Dorcas	-11.6288
▁Eleazar	-11.6288
▁Epaphroditus	-11.6288
▁Ethiopia	-11.6288
▁Euphrates	-11.6288
▁Furthermore	-11.6288
▁Gabriel	-11.6288
▁Melchi	-11.6288
▁Michael	-11.6288
▁Nicolaitans	-11.6288
▁Onesiphorus	-11.6288
▁Pentecost	-11.6288
▁Philadelphia	-11.6288
▁Phrygia	-11.6288
▁Place	-11.6288
▁Publius	-11.6288
▁Rufus	-11.6288
▁Smyrna	-11.6288
▁Sosthenes	-11.6288
▁Tertullus	-11.6288
▁Thaddaeus	-11.6288
▁Theophilus	-11.6288
▁accurately	-11.6288
▁admonition	-11.6288
▁ambition	-11.6288
▁audience	-11.6288
▁barbarian	-11.6288
▁carpenter	-11.6288
▁celebrate	-11.6288
▁conflict	-11.6288
▁contributi	-11.6288
▁crazy	-11.6288
▁descent	-11.6288
▁despair	-11.6288
▁emerald	-11.6288
▁fathoms	-11.6288
▁guiltless	-11.6288
▁innumerable	-11.6288
▁magnify	-11.6288
▁philosoph	-11.6288
▁pilgrims	-11.6288
▁predestinate	-11.6288
▁pregnant	-11.6288
▁prudent	-11.6288
▁reclin	-11.6288
▁religious	-11.6288
▁revived	-11.6288
▁satisfy	-11.6288
▁shipwreck	-11.6288
▁simplicity	-11.6288
▁slothful	-11.6288
▁sorceries	-11.6288
▁sorcery	-11.6288
▁subdue	-11.6288
▁temperance	-11.6288
▁terrestrial	-11.6288
▁unthankful	-11.6288
▁weapons	-11.6288
llelu	-11.6288
▁Matthias	-11.6288
▁ambassador	-11.6288
▁distance	-11.6288
▁exclude	-11.6288
▁notwithstanding	-11.6288
▁poison	-11.6288
▁quarrel	-11.6288
▁reverent	-11.6288
▁stomach	-11.6288
mazement	-11.6288
▁Perga	-11.6288
▁chryso	-11.6288
▁lowliness	-11.6288
▁simil	-11.6288
▁snatch	-11.6288
▁Canaanite	-11.6288
▁Lucius	-11.6288
▁Lysias	-11.6288
▁cheek	-11.6288
▁credit	-11.6288
▁Abiud	-11.6288
▁Tryph	-11.6289
▁legion	-11.6289
▁unreasonable	-11.6289
▁Latin	-11.6289
▁Spain	-11.6289
▁gracious	-11.6289
▁swept	-11.6289
▁Search	-11.6289
▁cunning	-11.6289
▁disorder	-11.6289
▁discipline	-11.6289
▁disobey	-11.6289
▁busybodies	-11.6289
▁yesterday	-11.6289
▁heresies	-11.6289
▁scoffe	-11.6289
▁Sadoc	-11.6289
▁title	-11.6289
▁Dalma	-11.6289
▁Eliud	-11.6289
▁cornerstone	-11.6289
▁gluttonous	-11.6289
▁Achim	-11.6289
▁condition	-11.6289
▁swelling	-11.6289
▁trap	-11.6289
▁helmet	-11.6289
▁forbearance	-11.6289
▁calves	-11.6289
▁bondwoman	-11.6289
▁unfeigned	-11.6289
phos	-11.6289
▁abased	-11.6289
▁eyewitnesses	-11.6289
▁Joram	-11.6289
▁duty	-11.6289
▁Preparation	-11.6289
▁bulls	-11.6289
▁feeble	-11.6289
▁Barsab	-11.6289
▁lilies	-11.6289
▁fishermen	-11.6289
▁Salome	-11.6289
▁safety	-11.6289
▁nests	-11.6289
dition	-11.6289
▁encouragement	-11.6289
▁legs	-11.6289
▁coals	-11.6289
▁tutor	-11.6289
▁True	-11.6289
▁bountifully	-11.6289
▁vanity	-11.6289
▁family	-11.629
▁shewbread	-11.629
▁thunderings	-11.629
▁loaf	-11.629
▁Julius	-11.629
▁jar	-11.629
▁fringe	-11.629
▁baby	-11.629
▁deputy	-11.629
▁costly	-11.6291
▁crime	-11.6291
▁wool	-11.6291
▁profession	-11.6291
▁Aram	-11.6291
▁sparingly	-11.6291
▁tempest	-11.6291
▁Sara	-11.6291
▁testifieth	-11.6291
▁collection	-11.6291
▁Sarah	-11.6291
▁deliverance	-11.6291
▁pledge	-11.6291
▁fitting	-11.6292
feri	-11.6292
▁horsemen	-11.6292
azin	-11.6292
▁roaring	-11.6293
▁sighed	-11.6293
▁watchful	-11.6293
▁Forbid	-11.6293
▁publicly	-11.6293
▁scept	-11.6293
▁wretched	-11.6294
ursed	-11.6294
▁difficulty	-11.6294
▁decide	-11.6295
▁flour	-11.6295
▁craftsmen	-11.6295
leep	-11.6295
▁several	-11.6295
▁violently	-11.6296
▁doubtless	-11.6296
▁distresses	-11.6296
▁confounded	-11.6296
▁constraine	-11.6296
▁Highest	-11.6297
▁odour	-11.6298
manded	-11.6298
▁enrolled	-11.6298
▁pence	-11.6298
▁unawares	-11.6298
▁whoremongers	-11.6298
▁throat	-11.6299
▁properly	-11.6299
▁comprehend	-11.6299
▁big	-11.6299
▁contend	-11.6299
▁aliens	-11.63
▁bewail	-11.63
▁Wo	-11.63
▁shouted	-11.6301
▁leaders	-11.6301
▁later	-11.6301
▁prophetess	-11.6301
▁oppressed	-11.6302
▁Eu	-11.6302
salms	-11.6302
▁speechless	-11.6304
▁Matthan	-11.6304
▁wailing	-11.6305
▁Whereby	-11.6306
latter	-11.6307
▁lamented	-11.6307
▁Nineve	-11.6308
▁unjustly	-11.6309
▁grievously	-11.6309
▁scorched	-11.6311
▁profiteth	-11.6312
▁ripe	-11.6312
▁carefully	-11.6313
▁lodging	-11.6313
▁miser	-11.6314
▁Cyrenian	-11.6314
▁lifetime	-11.6315
▁commendeth	-11.6316
▁aground	-11.6316
▁esp	-11.6317
▁blasphemers	-11.6317
erges	-11.6322
▁complaint	-11.6324
▁exists	-11.6324
▁barns	-11.6328
etters	-11.6329
▁excellence	-11.633
▁cubits	-11.6331
▁Sc	-11.6333
▁falleth	-11.6333
hood	-11.6334
▁markets	-11.6334
nine	-11.6334
▁Gad	-11.6335
▁sab	-11.6335
▁expecting	-11.6335
choni	-11.6337
▁tamed	-11.6338
▁Godhead	-11.6339
▁childless	-11.634
▁Jupiter	-11.6343
▁Command	-11.6343
▁justice	-11.6344
▁pillars	-11.6348
▁proselytes	-11.6348
▁foam	-11.6349
▁Israelites	-11.635
▁prophesies	-11.6353
ility	-11.6353
▁vali	-11.6356
▁bands	-11.6357
▁deceiving	-11.6358
▁shun	-11.6359
▁minas	-11.6361
▁perishes	-11.6361
▁provoked	-11.6364
▁chariots	-11.6365
▁roof	-11.6367
▁reckoned	-11.6369
▁summe	-11.6373
▁sheet	-11.6375
▁Five	-11.6379
▁mill	-11.6379
▁lambs	-11.638
▁believers	-11.6382
▁Egyptians	-11.6384
▁fellowservants	-11.6385
▁token	-11.6386
sus	-11.6387
▁soft	-11.6396
▁lowly	-11.6398
▁aware	-11.6399
▁perfectly	-11.64
▁justly	-11.6404
eopard	-11.6406
mali	-11.6406
▁wondering	-11.6407
aithful	-11.6412
▁reconcil	-11.6412
▁courts	-11.6415
▁prostitutes	-11.6417
▁tonight	-11.6419
▁owest	-11.6427
▁Hono	-11.6432
▁Touch	-11.6433
▁stre	-11.6433
▁wronged	-11.6446
ymen	-11.6447
▁fingers	-11.6451
figure	-11.6454
▁seasoned	-11.6459
oke	-11.6461
▁songs	-11.6473
▁speakest	-11.6475
▁sle	-11.648
▁cure	-11.6485
pt	-11.6494
▁watchings	-11.6496
ias	-11.6506
bed	-11.6513
oi	-11.6516
ocia	-11.6517
▁staying	-11.6518
▁builded	-11.6523
▁Seven	-11.6528
▁honored	-11.6528
ery	-11.653
▁rightly	-11.6533
stain	-11.6546
▁hearer	-11.6547
▁fasted	-11.6554
▁chiefly	-11.6557
▁feel	-11.6558
▁healings	-11.6565
Fall	-11.6575
▁oven	-11.6577
▁shines	-11.6581
▁Com	-11.6583
▁worth	-11.6584
▁easi	-11.6588
▁Red	-11.6589
▁mint	-11.6595
▁buildings	-11.6604
▁Speak	-11.6607
▁farm	-11.6609
▁visions	-11.6615
▁spin	-11.6617
▁Wom	-11.662
▁commends	-11.664
▁loosen	-11.6645
▁anew	-11.6647
▁Test	-11.6652
▁halt	-11.6658
▁overtake	-11.6664
▁arisen	-11.6679
▁bar	-11.669
▁Da	-11.6693
Te	-11.6695
▁containe	-11.6696
▁stumbles	-11.67
heart	-11.6702
▁suck	-11.6711
ara	-11.6729
atchet	-11.673
▁pur	-11.6731
▁returns	-11.6734
some	-11.6757
▁crie	-11.6773
▁tame	-11.6773
app	-11.6784
▁remembering	-11.6785
▁load	-11.6791
▁thereunto	-11.6792
▁roots	-11.6797
▁sepulchres	-11.6802
▁rules	-11.6814
enes	-11.682
▁tabernacles	-11.6821
ung	-11.6821
uffer	-11.6875
▁reasonable	-11.6878
▁wanting	-11.6879
▁Asa	-11.6879
▁v	-11.6882
▁ston	-11.6895
▁blot	-11.6923
AT	-11.6955
lo	-11.6964
▁abs	-11.6973
▁Call	-11.701
▁wil	-11.7013
▁Su	-11.7019
▁contentio	-11.702
ify	-11.7031
sual	-11.7053
▁Has	-11.7054
om	-11.708
▁du	-11.7093
▁Mattha	-11.711
shone	-11.7118
▁waste	-11.7183
ron	-11.7205
▁measur	-11.722
▁puff	-11.7235
▁cups	-11.7267
ick	-11.7299
▁blow	-11.7312
▁flo	-11.7313
▁contradict	-11.7324
spect	-11.733
▁Gal	-11.7362
▁greedi	-11.7381
AB	-11.7383
▁gainsay	-11.7394
lio	-11.7403
iled	-11.7406
▁ro	-11.7424
▁resiste	-11.7453
sed	-11.7471
▁Ar	-11.7477
▁spear	-11.7493
▁sting	-11.7515
ind	-11.7516
▁communi	-11.7537
▁toil	-11.7543
op	-11.7548
nceforth	-11.7562
▁ves	-11.7567
elo	-11.7574
parted	-11.7642
▁tablet	-11.7659
rying	-11.7663
▁signifie	-11.7681
▁acknowledg	-11.7698
his	-11.77
ang	-11.7735
ore	-11.7752
▁powerful	-11.7763
sist	-11.7773
▁tooth	-11.778
ious	-11.7797
▁answers	-11.7804
▁earthy	-11.7824
eginning	-11.7851
▁entertain	-11.7952
ere	-11.7971
fold	-11.8003
▁Ne	-11.8005
▁waxe	-11.8007
▁esteeme	-11.803
▁approach	-11.8056
▁suffers	-11.8057
▁ad	-11.8073
lt	-11.8093
▁amo	-11.8113
eas	-11.8129
▁dedicat	-11.8134
ying	-11.8152
ized	-11.8179
▁Mal	-11.8199
▁wor	-11.8199
greed	-11.8269
▁ent	-11.8271
give	-11.8284
ines	-11.8327
▁Whi	-11.8338
whe	-11.8353
lute	-11.838
ut	-11.8405
ony	-11.8414
▁isle	-11.8424
▁Other	-11.848
ip	-11.8499
▁fatte	-11.8529
here	-11.8538
▁basi	-11.855
▁Dio	-11.8558
has	-11.8579
axe	-11.8582
▁slumber	-11.8602
ddl	-11.8605
▁weigh	-11.8618
▁citizens	-11.8643
pot	-11.8683
▁dri	-11.8686
used	-11.8688
icked	-11.8695
ul	-11.8699
▁fourfo	-11.8704
ckoned	-11.8707
llow	-11.8757
lf	-11.8771
▁Aen	-11.8782
▁wi	-11.8805
▁abid	-11.8808
nes	-11.8829
neither	-11.8831
sation	-11.8846
▁fears	-11.8851
like	-11.8851
leavened	-11.8869
▁ki	-11.8877
illed	-11.8908
ired	-11.8942
▁distribut	-11.8944
▁Set	-11.8945
under	-11.8947
H	-11.8953
▁Mes	-11.8954
ipped	-11.8964
▁sto	-11.8974
▁gree	-11.8977
▁expens	-11.905
dness	-11.9063
same	-11.9074
ight	-11.9125
▁fl	-11.9136
servants	-11.9146
Brother	-11.9186
▁noon	-11.9205
▁supp	-11.9241
ey	-11.9252
▁ag	-11.9256
fellow	-11.9268
lawful	-11.9273
tle	-11.9279
smelling	-11.9284
Saul	-11.9298
Elijah	-11.9309
cu	-11.931
Great	-11.9313
Cornelius	-11.9326
scending	-11.9326
Seven	-11.9326
Write	-11.9334
Repent	-11.9335
Yet	-11.9339
▁inhabit	-11.934
six	-11.9341
abi	-11.9349
Out	-11.9355
▁partners	-11.9357
son	-11.9389
Does	-11.9399
lies	-11.9408
▁extortion	-11.9423
breaker	-11.9429
vile	-11.9441
doing	-11.9491
east	-11.9496
Haven	-11.9502
uthority	-11.9509
▁rob	-11.9521
On	-11.9537
▁whit	-11.9544
▁Bu	-11.9545
leg	-11.9547
▁loos	-11.955
▁acquaintance	-11.9553
▁tumult	-11.9553
▁exist	-11.9555
▁ensample	-11.956
▁overseer	-11.9561
▁cubit	-11.9562
▁Galilaean	-11.9564
▁scorpion	-11.9565
▁market	-11.9565
▁unbeliever	-11.9565
▁Jona	-11.9566
▁anchor	-11.9567
▁bird	-11.9569
▁Pro	-11.9579
▁Olive	-11.958
reafter	-11.958
▁edify	-11.9588
▁conclude	-11.9593
▁drive	-11.9593
▁blame	-11.9598
▁sur	-11.9598
▁oppress	-11.9602
ufficient	-11.9602
▁intreat	-11.9602
▁arrive	-11.9603
▁grieve	-11.9603
▁passion	-11.9604
▁invite	-11.9604
▁imprison	-11.9604
▁retain	-11.9606
▁conceive	-11.9608
▁public	-11.9611
▁emb	-11.9613
▁foreign	-11.9617
angel	-11.9619
ontinue	-11.962
drachma	-11.9621
▁argu	-11.9621
▁shameful	-11.9621
▁affect	-11.9621
▁encourage	-11.9621
▁principal	-11.9621
evil	-11.9622
Prophesy	-11.9622
Rabboni	-11.9622
abulon	-11.9622
orobabel	-11.9622
▁Aminadab	-11.9622
▁Amminadab	-11.9622
▁Beroea	-11.9622
▁Bethphage	-11.9622
▁Bethsphage	-11.9622
▁Booz	-11.9622
▁Cleop	-11.9622
▁Counselor	-11.9622
▁Deliver	-11.9622
▁Dispersion	-11.9622
▁Gethsemane	-11.9622
▁Grecians	-11.9622
▁Hellenists	-11.9622
▁Hezron	-11.9622
▁Manasseh	-11.9622
▁Manasses	-11.9622
▁Naasson	-11.9622
▁Nahshon	-11.9622
▁Naphtali	-11.9622
▁Paradise	-11.9622
▁Perez	-11.9622
▁Phenice	-11.9622
▁Pisidia	-11.9622
▁Salathiel	-11.9622
▁Submit	-11.9622
▁Suddenly	-11.9622
▁affrighted	-11.9622
▁attack	-11.9622
▁briefly	-11.9622
▁concupiscence	-11.9622
▁contrariwise	-11.9622
▁convulse	-11.9622
▁damned	-11.9622
▁delicately	-11.9622
▁dispersed	-11.9622
▁fifties	-11.9622
▁fragrance	-11.9622
▁function	-11.9622
▁gorgeous	-11.9622
▁grudging	-11.9622
▁hospitable	-11.9622
▁imaginations	-11.9622
▁important	-11.9622
▁mirror	-11.9622
▁napkin	-11.9622
▁obvious	-11.9622
▁occupation	-11.9622
▁paradise	-11.9622
▁predestined	-11.9622
▁preeminence	-11.9622
▁prophecies	-11.9622
▁quarter	-11.9622
▁renounce	-11.9622
▁sobriety	-11.9622
▁spunge	-11.9622
▁stumblingblock	-11.9622
▁trample	-11.9622
▁unblameabl	-11.9622
▁unceasing	-11.9622
▁unloose	-11.9622
▁unquenchable	-11.9622
▁unveiled	-11.9622
▁unwashen	-11.9622
▁voluntar	-11.9622
▁whisper	-11.9622
mulation	-11.9622
▁distract	-11.9622
▁obligated	-11.9622
▁occupie	-11.9622
▁plentiful	-11.9622
▁sojourn	-11.9622
▁Boaz	-11.9622
▁ropes	-11.9622
▁scarce	-11.9622
▁vanish	-11.9622
▁Marcus	-11.9622
▁damage	-11.9622
hoenix	-11.9622
▁envie	-11.9622
▁mistaken	-11.9622
▁purification	-11.9622
▁sponge	-11.9622
ebul	-11.9622
▁jacinth	-11.9622
▁sycam	-11.9622
▁Italian	-11.9622
▁strawed	-11.9622
▁Abijah	-11.9622
▁Always	-11.9622
▁Phares	-11.9622
▁chatter	-11.9622
▁sardius	-11.9622
▁subtilty	-11.9622
▁tightly	-11.9622
▁instead	-11.9622
▁meek	-11.9622
▁runneth	-11.9622
▁athirst	-11.9622
▁counseller	-11.9622
▁fellowprisoner	-11.9622
▁malign	-11.9622
▁factions	-11.9622
▁humiliation	-11.9622
▁ghost	-11.9622
▁infants	-11.9622
▁rudder	-11.9622
Awake	-11.9622
▁revenge	-11.9622
▁forfeit	-11.9622
▁draught	-11.9622
▁principality	-11.9622
▁foreknew	-11.9622
▁consist	-11.9622
▁strip	-11.9622
▁cattle	-11.9622
▁regeneration	-11.9622
▁visible	-11.9622
▁barn	-11.9622
▁Prisc	-11.9622
inkling	-11.9622
▁thistles	-11.9622
▁overflow	-11.9622
▁publick	-11.9622
itude	-11.9623
▁acceptance	-11.9623
▁Augustus	-11.9623
▁lamentation	-11.9623
▁severely	-11.9623
▁Esrom	-11.9623
▁supplied	-11.9623
▁Berea	-11.9623
▁smooth	-11.9623
ealot	-11.9623
▁unwashed	-11.9623
▁pretence	-11.9623
▁refu	-11.9624
▁rumour	-11.9624
▁modest	-11.9624
▁burdensome	-11.9624
▁Laodiceans	-11.9624
AR	-11.9624
▁wrongfully	-11.9624
▁traitor	-11.9624
▁freewoman	-11.9624
▁confirmation	-11.9625
▁mockers	-11.9625
▁increasing	-11.9625
▁locked	-11.9625
▁farewell	-11.9625
▁thankfulness	-11.9625
▁Onesi	-11.9625
▁lustful	-11.9625
estroy	-11.9625
▁divorcement	-11.9625
▁Open	-11.9625
▁thankful	-11.9625
▁pollution	-11.9625
▁assuredly	-11.9625
▁courteously	-11.9625
▁Pass	-11.9626
▁folly	-11.9626
▁shutteth	-11.9626
▁buffeted	-11.9626
▁garnished	-11.9626
▁wellbeloved	-11.9626
controlled	-11.9626
▁defilement	-11.9626
▁unwise	-11.9627
▁illuminated	-11.9627
▁forevermore	-11.9627
▁lawlessness	-11.9627
▁Reu	-11.9627
▁correctly	-11.9627
apolis	-11.9627
▁flatter	-11.9628
▁cousin	-11.9628
▁fightings	-11.9628
▁effective	-11.9629
▁dignit	-11.9629
▁edifieth	-11.9629
▁exactly	-11.963
▁Jewess	-11.963
▁quake	-11.963
▁waist	-11.963
▁joyfully	-11.9631
▁sicknesses	-11.9631
▁rep	-11.9632
▁plain	-11.9632
▁recompense	-11.9632
▁government	-11.9632
▁native	-11.9632
▁dung	-11.9632
▁drowned	-11.9633
▁apprehended	-11.9633
▁wavering	-11.9634
rance	-11.9634
▁argument	-11.9634
▁surpasses	-11.9635
▁useless	-11.9635
▁enlarged	-11.9635
▁slapp	-11.9635
▁stop	-11.9635
▁intently	-11.9636
▁Besides	-11.9636
▁safely	-11.9636
▁criminals	-11.9636
▁manger	-11.9636
▁reapers	-11.9636
▁leather	-11.9637
▁steadfastness	-11.9637
▁bruised	-11.9638
▁meaneth	-11.9638
ered	-11.964
▁engrave	-11.964
▁Last	-11.964
▁caves	-11.964
▁retained	-11.9641
▁girded	-11.9641
▁genealogy	-11.9641
ield	-11.9642
▁scr	-11.9644
▁honestly	-11.9645
▁braid	-11.9645
▁Root	-11.9645
▁fervently	-11.9647
aries	-11.9647
▁Provid	-11.9648
▁defrauded	-11.9648
▁confidently	-11.9648
▁shaved	-11.9649
▁completely	-11.9649
▁kindled	-11.9651
▁Rach	-11.9653
▁towel	-11.9653
▁decease	-11.9653
▁likeminded	-11.9654
▁reapeth	-11.9656
▁Miletu	-11.9656
▁gird	-11.9658
▁deacons	-11.9659
▁fornicators	-11.9659
▁callous	-11.9659
▁moral	-11.966
▁sowest	-11.9661
▁hitherto	-11.9662
▁sharply	-11.9664
nacle	-11.9665
▁platte	-11.9675
▁provided	-11.9675
▁multiplying	-11.9675
▁naturally	-11.9677
orthy	-11.9678
▁ensamples	-11.9684
▁overseers	-11.9684
▁require	-11.969
▁summ	-11.9691
ntie	-11.9693
▁port	-11.9693
▁discerned	-11.9693
reby	-11.9694
▁openeth	-11.9696
▁conceits	-11.9697
▁Salvation	-11.9699
▁leaping	-11.9699
▁Could	-11.9702
ze	-11.9703
▁forefather	-11.9704
▁advan	-11.9705
ated	-11.9706
▁sink	-11.9706
▁builder	-11.9708
▁harlots	-11.9709
▁sharing	-11.9709
▁patriarchs	-11.9709
▁waterpot	-11.971
▁peaceable	-11.971
▁cost	-11.9714
itable	-11.9715
board	-11.9715
erable	-11.9717
▁castle	-11.9719
▁handle	-11.9724
▁destroyer	-11.9725
▁trials	-11.9731
▁towns	-11.9734
▁reprobates	-11.9734
▁contentions	-11.9734
▁insulting	-11.9735
▁grand	-11.9735
sion	-11.9736
▁knocks	-11.9737
▁shape	-11.9739
▁charger	-11.974
▁nobody	-11.9741
▁overthrown	-11.9746
▁preacheth	-11.9747
▁unworth	-11.9747
▁companion	-11.9756
aved	-11.976
eople	-11.9762
▁sai	-11.9763
▁riotous	-11.9764
▁persuasi	-11.9765
▁dip	-11.9769
▁Apostle	-11.9771
▁lawfully	-11.9775
▁coin	-11.9777
orship	-11.9777
▁prayeth	-11.9794
▁burying	-11.9795
▁chiefest	-11.9796
▁glorying	-11.9797
▁wisely	-11.9801
▁presently	-11.9803
▁cumi	-11.9805
▁Eno	-11.9808
▁supplications	-11.981
▁Alexandrian	-11.9811
▁Listen	-11.9818
▁tol	-11.9821
tors	-11.9822
ST	-11.9841
▁lusted	-11.9842
▁wit	-11.9844
▁Prepar	-11.9849
▁mid	-11.9855
▁spat	-11.9857
arch	-11.986
▁Pers	-11.9861
▁Head	-11.9875
▁prick	-11.9876
ided	-11.9876
▁fel	-11.9883
▁cloaks	-11.9884
▁walls	-11.9894
▁eas	-11.9894
wed	-11.9901
mo	-11.9902
▁cons	-11.9906
▁practices	-11.9911
Some	-11.9921
▁Prais	-11.9924
▁readeth	-11.9934
▁happening	-11.9946
▁admir	-11.9947
born	-11.9957
▁fatal	-11.996
▁pot	-11.9973
▁Sar	-11.9991
▁sard	-11.9994
dens	-11.9996
ped	-12
▁tur	-12.0014
▁deserts	-12.002
arewell	-12.0035
▁impos	-12.0036
▁coveting	-12.0046
▁strifes	-12.0064
▁confessing	-12.0065
▁exalte	-12.0069
An	-12.0072
▁armed	-12.0075
▁Al	-12.0111
mit	-12.0113
▁Fight	-12.0122
▁washings	-12.0124
▁unsettl	-12.0125
▁Par	-12.0133
▁Does	-12.0133
▁Mel	-12.0136
▁piti	-12.0157
▁ointments	-12.0168
▁revelations	-12.0169
▁Levite	-12.0169
▁affections	-12.0176
▁throng	-12.0176
▁nurs	-12.0179
▁ponder	-12.019
itted	-12.0213
clud	-12.0225
▁pursue	-12.0226
x	-12.0226
▁unskil	-12.0244
▁demonstrati	-12.0329
ade	-12.0336
▁cl	-12.0356
em	-12.0369
ithout	-12.0377
ire	-12.0381
▁whore	-12.0386
▁reaps	-12.0402
▁profits	-12.0407
c	-12.041
▁train	-12.0419
▁fellows	-12.0423
▁therewith	-12.0433
ye	-12.0438
▁wer	-12.0452
▁affectionate	-12.047
▁despiteful	-12.0503
ol	-12.0504
saying	-12.0522
▁restr	-12.0543
passes	-12.0573
▁weari	-12.0592
▁foods	-12.0596
▁unsta	-12.0601
▁forsak	-12.064
▁hu	-12.0671
▁perfecting	-12.0689
reached	-12.0698
▁abounds	-12.07
At	-12.0708
▁beguile	-12.0709
fruitful	-12.0711
▁farthing	-12.0714
ared	-12.072
rich	-12.0731
rudi	-12.0746
▁defer	-12.0771
▁Fe	-12.0811
."'	-12.083
▁praises	-12.0847
▁tremble	-12.0861
itched	-12.0917
▁manners	-12.0956
▁promi	-12.0962
▁departs	-12.0974
▁passe	-12.0975
chor	-12.0985
▁abuse	-12.0994
▁followe	-12.1
oted	-12.1018
earing	-12.1023
com	-12.1042
▁Pu	-12.1044
▁Sin	-12.1051
ertainly	-12.1056
foot	-12.1056
no	-12.1067
▁disp	-12.1074
med	-12.1084
otent	-12.1096
▁ware	-12.1096
ened	-12.1111
▁wont	-12.1122
lain	-12.1142
test	-12.1143
▁Cos	-12.1214
oll	-12.1215
hereunto	-12.1219
▁prin	-12.1224
▁consulte	-12.1225
ock	-12.1256
rince	-12.1265
ot	-12.1277
fulness	-12.1283
▁Merc	-12.1314
▁gains	-12.1337
▁inter	-12.1345
▁understands	-12.143
▁gre	-12.1433
makers	-12.1477
▁inde	-12.1485
pair	-12.1487
▁notice	-12.1518
▁hat	-12.1567
▁Haven	-12.1575
▁sense	-12.1631
LO	-12.1666
▁yielde	-12.1667
▁Boa	-12.1673
ites	-12.1715
▁Apoll	-12.177
▁seeke	-12.1826
▁fa	-12.1829
▁comely	-12.1859
oth	-12.1891
▁holi	-12.1892
arrow	-12.1928
▁Sta	-12.1968
ON	-12.1975
▁fisher	-12.1992
▁seduc	-12.1997
▁Giv	-12.2001
posed	-12.2014
▁bu	-12.2017
hereof	-12.2022
▁personal	-12.203
▁Sea	-12.2035
erred	-12.2103
nia	-12.2103
ue	-12.2149
hi	-12.2161
▁youth	-12.2163
▁music	-12.2165
readeth	-12.218
tened	-12.2195
▁budd	-12.2238
▁commun	-12.2251
▁seeds	-12.2254
rmor	-12.2267
▁real	-12.2291
availe	-12.2341
▁Pri	-12.236
ile	-12.2402
▁uns	-12.2407
aths	-12.2417
▁Tim	-12.2427
iness	-12.2491
▁kills	-12.2515
▁contradicti	-12.2519
what	-12.2538
▁uses	-12.2543
ove	-12.2603
ower	-12.2619
▁adde	-12.2636
▁Certain	-12.264
rt	-12.2642
teth	-12.2651
▁scatter	-12.2699
▁Lame	-12.2734
las	-12.2743
▁pe	-12.2759
ute	-12.276
▁ba	-12.2764
ps	-12.2764
ami	-12.2767
▁swa	-12.2787
those	-12.2851
▁Jud	-12.2867
llio	-12.2869
▁plante	-12.2912
▁baptizes	-12.2951
alem	-12.2953
▁wail	-12.3095
over	-12.3103
ra	-12.3105
▁dine	-12.3105
tion	-12.3115
▁dr	-12.3119
voy	-12.312
▁po	-12.3127
than	-12.317
orci	-12.3191
pired	-12.3202
own	-12.3205
aff	-12.3214
ually	-12.3281
iation	-12.3299
▁strai	-12.3299
house	-12.3312
▁becom	-12.3339
hor	-12.337
▁Abi	-12.337
▁com	-12.3371
Hi	-12.3382
keth	-12.3397
ree	-12.3399
▁dart	-12.3404
children	-12.3406
▁bo	-12.3456
ified	-12.3467
Paul	-12.3488
ugg	-12.3491
ableness	-12.3497
bove	-12.3504
my	-12.3521
ail	-12.3559
▁climbe	-12.356
Free	-12.3562
▁lighten	-12.3564
turn	-12.357
Jerusalem	-12.3574
ously	-12.3621
lower	-12.3697
▁Cap	-12.3704
ried	-12.3706
sa	-12.3708
▁imp	-12.3728
squa	-12.3758
gre	-12.3773
mitted	-12.3774
being	-12.3792
two	-12.3808
rooted	-12.3809
▁adv	-12.3811
ift	-12.3812
arvel	-12.3822
ked	-12.3855
▁settle	-12.3879
mother	-12.3887
▁rag	-12.391
Abraham	-12.3913
G	-12.3925
three	-12.3925
Moses	-12.3939
▁Sett	-12.398
▁transf	-12.3989
ER	-12.4021
changers	-12.4022
▁Ju	-12.4026
warm	-12.4034
Se	-12.4046
treated	-12.4058
▁spi	-12.407
▁Bear	-12.4081
Call	-12.4112
▁Dr	-12.4123
laid	-12.4144
charged	-12.4163
ason	-12.4174
▁Ja	-12.4195
present	-12.4198
▁disput	-12.4201
prepared	-12.4202
tongue	-12.4222
Caesar	-12.423
sexual	-12.4238
One	-12.4241
clothed	-12.4261
Nothing	-12.4264
writing	-12.4269
pra	-12.4273
▁despis	-12.4274
pleasers	-12.4276
ssed	-12.4281
giver	-12.4286
Lazarus	-12.4293
keeper	-12.4295
Prepar	-12.4295
master	-12.43
pater	-12.4306
Another	-12.4308
Listen	-12.431
Pray	-12.4311
worth	-12.4311
Watch	-12.4311
K	-12.4317
Touch	-12.432
Children	-12.4324
wealth	-12.4324
Death	-12.4326
Depart	-12.4327
gods	-12.4329
going	-12.4346
▁gar	-12.4349
▁Claud	-12.436
▁dissi	-12.4365
table	-12.4367
burst	-12.4368
petitions	-12.437
rk	-12.4373
rcis	-12.4384
equal	-12.4395
Whom	-12.4396
ca	-12.4397
fresh	-12.4408
scribe	-12.4417
▁rush	-12.442
acle	-12.4422
bi	-12.4425
doves	-12.4431
▁endu	-12.4433
ory	-12.4438
face	-12.4454
ant	-12.4459
▁beca	-12.4466
herein	-12.4476
▁exper	-12.4477
comely	-12.4479
▁murmur	-12.4483
az	-12.4488
▁persecut	-12.4493
▁dar	-12.4501
was	-12.4503
ss	-12.4509
lands	-12.4512
cum	-12.4517
▁pi	-12.453
iv	-12.4532
▁succour	-12.4537
▁bruis	-12.454
▁complain	-12.4542
▁drag	-12.4544
▁disbelieve	-12.4545
▁Sy	-12.4547
▁Tra	-12.4552
▁prepar	-12.4552
▁fellowlabourer	-12.4554
▁pierc	-12.4557
▁danc	-12.456
▁fornicator	-12.4561
▁deacon	-12.4561
▁pitcher	-12.4562
▁inquir	-12.4563
▁petition	-12.4564
▁Ephesian	-12.4565
▁evildoer	-12.4565
▁Servant	-12.4566
▁lampstand	-12.4566
▁element	-12.4567
ny	-12.4567
▁border	-12.4569
olden	-12.4571
▁foreigner	-12.4572
▁restor	-12.4573
▁promis	-12.4574
▁Ninev	-12.4578
▁remov	-12.4579
▁miserabl	-12.458
▁saint	-12.4583
▁horn	-12.4585
▁Lib	-12.4586
row	-12.4587
▁wave	-12.4588
▁flam	-12.4593
▁assembl	-12.4593
▁aton	-12.4597
▁Jose	-12.4597
▁Tyr	-12.4598
▁cripple	-12.4598
▁enlarge	-12.46
rouble	-12.4601
ousness	-12.4603
uppose	-12.4603
eparate	-12.4603
soldier	-12.4603
▁apprehend	-12.4603
▁enroll	-12.4604
lux	-12.4604
▁punish	-12.4605
▁Nig	-12.4605
▁confound	-12.4605
▁ordain	-12.4606
▁entrust	-12.4607
▁difficult	-12.4609
▁Jerem	-12.4609
▁revile	-12.4609
anctif	-12.4609
▁collect	-12.4611
▁hypocris	-12.4611
▁provok	-12.4611
umble	-12.4614
▁particular	-12.4615
▁constant	-12.4615
▁courteous	-12.4616
neath	-12.4616
▁private	-12.4617
▁Tiberi	-12.4617
eautiful	-12.4618
▁drops	-12.4618
▁sudden	-12.4618
ultitudes	-12.4618
▁Damasc	-12.4619
efraud	-12.4619
▁Ram	-12.4619
▁Juli	-12.4619
eclare	-12.462
ircumcision	-12.462
xplain	-12.462
parent	-12.4621
▁Emma	-12.4621
anaan	-12.4621
runk	-12.4621
▁courage	-12.4621
▁babbl	-12.4621
▁trump	-12.4621
leanse	-12.4621
▁immortal	-12.4622
claimed	-12.4622
strate	-12.4622
▁school	-12.4622
▁negl	-12.4622
▁incontinen	-12.4622
Wormwood	-12.4622
▁Avoid	-12.4622
▁Epicurean	-12.4622
▁Euodia	-12.4622
▁Jephtha	-12.4622
▁Rebuk	-12.4622
▁debate	-12.4622
ARETH	-12.4622
Assuredly	-12.4622
Ephphatha	-12.4622
Golgotha	-12.4622
Legion	-12.4622
achariah	-12.4622
bulus	-12.4622
efactors	-12.4622
erubbabel	-12.4622
ordinate	-12.4622
uartus	-12.4622
zziah	-12.4622
▁Achaz	-12.4622
▁Ahaz	-12.4622
▁Amplias	-12.4622
▁Apelles	-12.4622
▁Aristobulus	-12.4622
▁Azotus	-12.4622
▁Barbarian	-12.4622
▁Blastus	-12.4622
▁Candace	-12.4622
▁Carpus	-12.4622
▁Charran	-12.4622
▁Chuza	-12.4622
▁Ephraim	-12.4622
▁Eunice	-12.4622
▁Eutychus	-12.4622
▁Ezekias	-12.4622
▁Gaza	-12.4622
▁Gennesaret	-12.4622
▁Hagar	-12.4622
▁Hezekiah	-12.4622
▁Jehoshaphat	-12.4622
▁Joatham	-12.4622
▁Josaphat	-12.4622
▁Jotham	-12.4622
▁Magdala	-12.4622
▁Messiah	-12.4622
▁Messias	-12.4622
▁Naaman	-12.4622
▁Nephthalim	-12.4622
▁Nicopolis	-12.4622
▁Ozias	-12.4622
▁Patmos	-12.4622
▁Pergamum	-12.4622
▁Philemon	-12.4622
▁Philologus	-12.4622
▁Ptolemais	-12.4622
▁Puteoli	-12.4622
▁Rehoboam	-12.4622
▁Rhegium	-12.4622
▁Roboam	-12.4622
▁Samothrac	-12.4622
▁Sapphira	-12.4622
▁Secundus	-12.4622
▁Seleucia	-12.4622
▁Shechem	-12.4622
▁Stachys	-12.4622
▁Susanna	-12.4622
▁Syroph	-12.4622
▁acceptably	-12.4622
▁advocat	-12.4622
▁balance	-12.4622
▁barracks	-12.4622
▁carousing	-12.4622
▁character	-12.4622
▁cherubim	-12.4622
▁christs	-12.4622
▁compulsion	-12.4622
▁controversy	-12.4622
▁coppersmith	-12.4622
▁dazzling	-12.4622
▁degree	-12.4622
▁deliciously	-12.4622
▁denounce	-12.4622
▁deposit	-12.4622
▁detachment	-12.4622
▁discussion	-12.4622
▁disregard	-12.4622
▁fellowhelper	-12.4622
▁frightened	-12.4622
▁gravity	-12.4622
▁handkerchief	-12.4622
▁hindrance	-12.4622
▁idolatries	-12.4622
▁indicat	-12.4622
▁jailer	-12.4622
▁kinsfolk	-12.4622
▁lanterns	-12.4622
▁launched	-12.4622
▁malefactors	-12.4622
▁martyr	-12.4622
▁minstrels	-12.4622
▁object	-12.4622
▁operation	-12.4622
▁penalty	-12.4622
▁perplexity	-12.4622
▁pestilences	-12.4622
▁phylacteries	-12.4622
▁pronounce	-12.4622
▁prudence	-12.4622
▁residue	-12.4622
▁responded	-12.4622
▁ridicul	-12.4622
▁sapphire	-12.4622
▁sergeants	-12.4622
▁serjeants	-12.4622
▁simple	-12.4622
▁smitten	-12.4622
▁spikenard	-12.4622
▁suffice	-12.4622
▁superstitio	-12.4622
▁swollen	-12.4622
▁temporal	-12.4622
▁terribl	-12.4622
▁unchangeable	-12.4622
▁unmerciful	-12.4622
▁victuals	-12.4622
▁vigilant	-12.4622
▁wormwood	-12.4622
▁wrinkle	-12.4622
▁allegory	-12.4622
▁burial	-12.4622
rban	-12.4622
▁Barachia	-12.4622
▁Chloe	-12.4622
▁Coloss	-12.4622
▁Nereus	-12.4622
▁Pergamos	-12.4622
▁behaviour	-12.4622
▁brawler	-12.4622
▁discreet	-12.4622
▁encounter	-12.4622
▁epileptic	-12.4622
▁frequent	-12.4622
▁garrison	-12.4622
▁insolent	-12.4622
▁management	-12.4622
▁refrain	-12.4622
▁rivalr	-12.4622
▁scales	-12.4622
▁stench	-12.4622
▁tackl	-12.4622
▁Nagg	-12.4622
▁Nicola	-12.4622
▁Phygel	-12.4622
▁decorate	-12.4622
▁precept	-12.4622
▁testator	-12.4622
▁atonement	-12.4622
▁colony	-12.4622
▁Agar	-12.4622
▁Phoenicia	-12.4622
▁stiff	-12.4622
▁supplieth	-12.4622
▁terms	-12.4622
▁Rhod	-12.4622
▁harpists	-12.4622
▁infidel	-12.4622
▁premeditate	-12.4622
▁schoolmaster	-12.4622
▁disturbance	-12.4622
▁enjoin	-12.4622
▁morsel	-12.4622
▁charitabl	-12.4622
▁Corban	-12.4622
▁provocation	-12.4622
quent	-12.4622
▁Ruth	-12.4622
▁display	-12.4622
▁envoy	-12.4622
▁gender	-12.4622
▁preced	-12.4622
▁abhor	-12.4622
▁consultation	-12.4622
▁flax	-12.4622
▁marble	-12.4622
cient	-12.4622
▁exposed	-12.4622
smith	-12.4622
▁immo	-12.4622
▁frogs	-12.4622
▁hostility	-12.4622
▁shearer	-12.4622
leader	-12.4622
RE	-12.4622
ymb	-12.4622
▁breakfast	-12.4622
▁cargo	-12.4622
▁Sychem	-12.4622
gress	-12.4622
▁Manaen	-12.4622
onfess	-12.4622
▁Nathan	-12.4622
▁enrollment	-12.4622
▁threats	-12.4622
▁endeavour	-12.4622
▁stumblingstone	-12.4622
▁implor	-12.4623
▁perjure	-12.4623
▁thirtyfold	-12.4623
▁heavily	-12.4623
▁fixed	-12.4623
▁consci	-12.4623
▁Corinthians	-12.4623
▁maliciousness	-12.4623
▁Philippians	-12.4623
▁Stoic	-12.4623
▁courageous	-12.4623
▁assari	-12.4623
▁Jeremiah	-12.4623
▁Joel	-12.4623
▁babblings	-12.4623
▁torches	-12.4623
▁Arabians	-12.4623
▁observation	-12.4623
▁Comforter	-12.4623
▁disallowed	-12.4623
bber	-12.4623
▁roadside	-12.4623
▁Haran	-12.4623
▁dresser	-12.4623
rubb	-12.4623
▁murmurers	-12.4623
▁Lift	-12.4623
▁birthright	-12.4624
▁didrachma	-12.4624
▁stead	-12.4624
▁Truth	-12.4624
▁persuasive	-12.4624
▁orator	-12.4624
▁Epa	-12.4624
▁Nic	-12.4624
igent	-12.4624
▁twist	-12.4624
▁uncovered	-12.4624
▁Should	-12.4624
▁examination	-12.4624
▁backbit	-12.4624
▁prevent	-12.4624
▁inappropriately	-12.4624
▁expressly	-12.4624
▁liberally	-12.4624
▁individually	-12.4624
▁line	-12.4624
▁canker	-12.4624
▁interest	-12.4624
▁uncondemned	-12.4625
▁falsehood	-12.4625
▁strove	-12.4625
vable	-12.4625
aeans	-12.4625
qual	-12.4625
mission	-12.4625
▁assured	-12.4625
▁yonder	-12.4625
▁sunrise	-12.4625
▁restrain	-12.4625
▁device	-12.4626
riety	-12.4626
▁drown	-12.4626
▁harpers	-12.4626
▁discernment	-12.4626
phes	-12.4626
▁linger	-12.4626
▁consol	-12.4626
▁gaz	-12.4626
aithless	-12.4626
▁virginity	-12.4626
▁arrange	-12.4626
▁sailors	-12.4626
▁Artem	-12.4627
located	-12.4627
▁broad	-12.4627
▁touche	-12.4627
▁wroth	-12.4627
tances	-12.4627
▁Semei	-12.4627
▁acceptation	-12.4627
crit	-12.4627
▁lustfulness	-12.4627
▁luxury	-12.4627
▁Tert	-12.4628
▁disputation	-12.4628
▁constantly	-12.4628
▁particularly	-12.4628
amar	-12.4628
▁beaut	-12.4628
polis	-12.4628
▁usury	-12.4628
▁oversight	-12.4629
▁chasteneth	-12.4629
diction	-12.4629
▁sparing	-12.463
▁plent	-12.463
bble	-12.463
▁insisted	-12.463
anias	-12.4631
▁threshe	-12.4631
▁knocketh	-12.4631
▁shoot	-12.4631
▁continual	-12.4631
▁Amp	-12.4632
ythi	-12.4632
▁grumbled	-12.4632
▁listeth	-12.4633
Mercur	-12.4633
▁transgresseth	-12.4633
▁mode	-12.4633
▁crop	-12.4633
▁labourer	-12.4633
▁listed	-12.4634
▁crushed	-12.4634
▁fourscore	-12.4634
▁dispe	-12.4635
▁brim	-12.4635
▁trumpeters	-12.4635
▁instantly	-12.4637
armed	-12.4637
▁dropsy	-12.4637
▁laden	-12.4637
▁Rag	-12.4637
▁descendant	-12.4637
arenes	-12.4638
▁amiss	-12.4639
laughter	-12.4639
▁Holies	-12.464
▁edified	-12.464
▁uncertainly	-12.464
▁window	-12.464
▁whale	-12.464
bec	-12.464
▁nurse	-12.4641
▁colour	-12.4641
bted	-12.4642
▁stedfastness	-12.4642
▁faileth	-12.4643
▁Canaan	-12.4643
mpas	-12.4643
▁rumo	-12.4643
▁Rama	-12.4644
▁limits	-12.4644
▁despisers	-12.4645
▁crippled	-12.4645
▁Josias	-12.4646
▁carefulness	-12.4646
zer	-12.4646
▁earnestness	-12.4647
icus	-12.4648
Raca	-12.4648
▁Gather	-12.4649
▁anxi	-12.4649
lement	-12.4649
tify	-12.465
▁blaspheming	-12.465
▁existed	-12.465
▁pierce	-12.4651
▁Think	-12.4651
▁tail	-12.4651
▁delud	-12.4652
▁nard	-12.4652
▁doctor	-12.4652
▁Athen	-12.4653
▁Reg	-12.4653
abbath	-12.4654
▁Beli	-12.4654
▁uprooted	-12.4655
▁justifieth	-12.4655
achar	-12.4655
▁contended	-12.4655
▁lackest	-12.4656
mbol	-12.4657
▁Bala	-12.4658
▁Jam	-12.4659
▁recei	-12.4659
▁shrin	-12.466
▁Herodion	-12.4661
▁nursed	-12.4663
▁blasphemer	-12.4664
▁blamed	-12.4665
▁chick	-12.4665
▁attendant	-12.4666
▁Nain	-12.4667
▁Cret	-12.4668
▁robbe	-12.4668
▁chastened	-12.4669
▁conclud	-12.467
▁disannull	-12.467
onscience	-12.4671
oice	-12.4673
oveable	-12.4675
▁laboureth	-12.4675
▁corro	-12.4679
▁Dama	-12.4679
▁dance	-12.4679
▁wage	-12.468
▁thundered	-12.468
▁Jo	-12.4681
▁sleepest	-12.4682
▁peaceful	-12.4684
▁freeman	-12.4685
▁Jude	-12.4686
dian	-12.4686
chus	-12.4689
▁fellowlabourers	-12.469
▁pitchers	-12.4691
▁reigneth	-12.4691
▁condemneth	-12.4691
▁thereupon	-12.4692
liness	-12.4693
▁threatenings	-12.4694
▁twel	-12.4695
▁threatening	-12.4695
▁rash	-12.4695
meditate	-12.4696
▁couch	-12.4698
atch	-12.4698
▁create	-12.4699
de	-12.4701
▁generous	-12.4702
▁scatters	-12.4704
▁daylight	-12.4704
▁r	-12.4705
▁Lys	-12.4705
▁maiden	-12.4705
mmanuel	-12.4705
▁cert	-12.4707
▁aboundeth	-12.4708
▁dish	-12.4708
▁decent	-12.4708
▁readest	-12.4711
▁joyous	-12.4712
amon	-12.4713
▁sheath	-12.4715
▁contradicting	-12.4719
▁scourging	-12.4719
▁craftsm	-12.4721
▁treat	-12.4721
▁Jor	-12.4722
▁blows	-12.4722
▁Janna	-12.4723
arted	-12.4724
▁eighty	-12.4724
▁walke	-12.4728
cable	-12.4728
▁cop	-12.473
▁justifies	-12.4732
▁mentioned	-12.4733
▁soundings	-12.4734
▁tumults	-12.4734
▁delayed	-12.4735
▁acquaintances	-12.4735
pon	-12.4735
xhort	-12.4736
▁dwellest	-12.4742
▁Divi	-12.4743
▁position	-12.4745
nner	-12.4745
hysician	-12.4745
▁clu	-12.4746
▁maids	-12.475
▁participate	-12.4751
▁sumptuous	-12.4753
▁ruins	-12.4753
▁ju	-12.4753
thians	-12.4755
▁foreknow	-12.4757
▁cave	-12.4758
▁Twelve	-12.4758
▁Glory	-12.4759
▁clamo	-12.476
▁Indeed	-12.476
lite	-12.4761
pha	-12.4763
▁weather	-12.4763
slave	-12.4765
▁Sam	-12.4765
▁rend	-12.4765
▁kinsm	-12.4766
toop	-12.4767
dum	-12.4767
▁stings	-12.4768
▁favored	-12.4773
▁spitefully	-12.4777
▁circums	-12.4777
▁instructor	-12.4779
▁bridles	-12.4779
▁antichrists	-12.4779
▁rav	-12.4779
▁proverbs	-12.478
ncrease	-12.4781
▁compete	-12.4782
▁End	-12.4782
arry	-12.4785
▁afoot	-12.4786
▁sincerely	-12.4786
▁incre	-12.4789
▁cumbere	-12.4791
▁annul	-12.4792
▁shaven	-12.4794
▁edifie	-12.4795
▁empti	-12.4796
heirs	-12.4796
▁Tho	-12.4797
ymp	-12.48
▁fainted	-12.4802
▁accuser	-12.4803
▁Salmone	-12.4804
▁mites	-12.4804
cedon	-12.4805
▁cell	-12.4806
eva	-12.481
Leav	-12.481
▁abus	-12.4812
▁warning	-12.4816
▁kindly	-12.4819
ded	-12.4823
▁lu	-12.4824
▁nur	-12.4827
eaten	-12.4832
▁veiled	-12.4836
lene	-12.4839
▁rul	-12.4847
cal	-12.4851
▁whil	-12.4853
ashes	-12.4857
▁blasphemeth	-12.4861
▁intreated	-12.4866
▁experi	-12.4866
▁Sych	-12.4867
sipat	-12.4869
▁cases	-12.488
▁pig	-12.4881
▁shower	-12.4883
▁Claudi	-12.4887
▁repro	-12.4888
▁watereth	-12.4891
tiles	-12.4899
▁carcase	-12.49
estruction	-12.4901
▁depend	-12.4901
ety	-12.4905
mbark	-12.4906
▁masquerade	-12.4906
▁harmed	-12.4907
illa	-12.4907
▁Rhe	-12.4908
▁goat	-12.4909
▁stall	-12.491
▁riots	-12.4912
▁handled	-12.4913
▁sy	-12.4915
▁killeth	-12.4915
▁Nazarenes	-12.4917
▁disputings	-12.4919
▁genera	-12.4924
lity	-12.4924
tia	-12.4927
ving	-12.4927
▁depr	-12.4932
thful	-12.494
listening	-12.494
secr	-12.4941
▁impute	-12.4942
▁respected	-12.4942
▁garn	-12.4943
ulf	-12.4944
▁sickly	-12.4949
▁purses	-12.4949
weep	-12.4959
▁occurr	-12.496
▁bount	-12.4961
▁waver	-12.4983
▁tw	-12.4984
▁stumbleth	-12.4987
▁Er	-12.4988
▁taxed	-12.4989
iousness	-12.4992
▁health	-12.4993
▁pleasers	-12.5002
▁necks	-12.5004
▁Ho	-12.5004
erah	-12.5008
folk	-12.502
▁rods	-12.5023
tole	-12.5023
▁Nothing	-12.5023
eemed	-12.503
hys	-12.5038
▁forgets	-12.5046
▁thanked	-12.5048
▁bone	-12.5051
▁futil	-12.5053
▁drinker	-12.5057
rick	-12.5059
taken	-12.5063
each	-12.5073
▁ref	-12.5074
▁translat	-12.5089
▁worlds	-12.509
▁Preach	-12.5093
▁dog	-12.5095
▁inhabite	-12.51
▁ab	-12.51
▁Amo	-12.5108
eareth	-12.5108
Br	-12.5141
▁ruleth	-12.5147
▁epistles	-12.5147
▁withhold	-12.5147
ministered	-12.5151
ice	-12.5152
▁Ba	-12.5188
▁Aser	-12.5192
▁carrie	-12.5199
▁fin	-12.5203
▁hole	-12.5204
▁smelling	-12.5213
▁incorruptib	-12.522
▁n	-12.5221
▁faults	-12.5249
yche	-12.5266
▁trac	-12.527
▁taxing	-12.5275
reme	-12.5279
ative	-12.528
▁dreams	-12.5285
ivers	-12.5296
ali	-12.53
tures	-12.53
urge	-12.5301
iously	-12.5311
▁eased	-12.5319
nder	-12.5344
▁oaths	-12.5354
▁closet	-12.5373
▁TH	-12.538
▁dominions	-12.5384
osa	-12.5402
▁reput	-12.5405
▁sta	-12.5408
▁unm	-12.5427
dest	-12.5433
ber	-12.5442
motions	-12.5458
NA	-12.5458
rowed	-12.5458
▁Daughter	-12.546
llowed	-12.5461
▁Syr	-12.547
▁swea	-12.5474
eru	-12.5488
▁bathe	-12.5495
ibert	-12.5509
iletus	-12.551
ody	-12.5521
phia	-12.5526
▁Assa	-12.5534
ysia	-12.5547
tura	-12.5551
yes	-12.5553
▁Teach	-12.5557
▁fro	-12.5563
mation	-12.557
▁examples	-12.5577
▁ho	-12.5579
Ch	-12.5588
ons	-12.5597
▁Jos	-12.5625
art	-12.5626
kins	-12.5626
▁expense	-12.5632
ching	-12.5649
rture	-12.5654
▁pitche	-12.5665
eus	-12.567
pa	-12.5671
omp	-12.5674
raw	-12.5678
etus	-12.5689
tting	-12.5702
self	-12.5706
mas	-12.5706
tes	-12.5709
IN	-12.572
▁respects	-12.5723
ction	-12.5734
▁comest	-12.5734
▁excepted	-12.5741
covered	-12.5748
bre	-12.576
▁glori	-12.5761
oge	-12.5775
ets	-12.5794
cision	-12.5795
▁climb	-12.5805
ards	-12.5814
cted	-12.5824
▁hus	-12.5826
flicted	-12.5847
uring	-12.585
nter	-12.5858
him	-12.5869
oolish	-12.5874
▁Obe	-12.589
sters	-12.5899
sn	-12.5924
ound	-12.5941
icious	-12.5945
▁plan	-12.5947
sts	-12.5958
▁disbeliev	-12.5967
seem	-12.5985
▁Ap	-12.6019
▁smok	-12.6028
▁dispos	-12.6029
iving	-12.6031
▁sounding	-12.6033
▁je	-12.6043
▁pu	-12.6051
▁Prov	-12.6052
say	-12.6055
▁conc	-12.6069
▁condemns	-12.6095
▁Sala	-12.6096
ries	-12.6099
▁ease	-12.6116
▁overcharge	-12.6127
▁Levit	-12.6135
cuse	-12.6169
culi	-12.6188
▁si	-12.6203
▁devoure	-12.6214
yon	-12.6215
sible	-12.6228
▁reigns	-12.6244
eed	-12.6249
▁entice	-12.6251
▁Jann	-12.6255
▁bew	-12.6305
▁Es	-12.6331
▁cle	-12.6331
▁ca	-12.6348
▁justifie	-12.636
ega	-12.6395
tim	-12.6397
icken	-12.6404
▁devot	-12.6406
anuel	-12.6407
▁livest	-12.6411
▁demonstrat	-12.6411
into	-12.6413
▁workings	-12.6421
▁Ou	-12.6426
▁pl	-12.6456
ani	-12.6473
harity	-12.6493
Re	-12.6496
dama	-12.6515
rage	-12.6516
▁waite	-12.654
▁slumbere	-12.6547
tempt	-12.655
seller	-12.6581
ff	-12.6586
giving	-12.6602
▁offender	-12.6627
▁kne	-12.6631
▁watered	-12.6633
▁convers	-12.6641
trive	-12.6658
▁fier	-12.6666
▁observ	-12.6685
▁Cha	-12.6698
come	-12.6701
main	-12.6708
set	-12.6716
lled	-12.6719
▁theater	-12.6739
▁fetch	-12.6742
xa	-12.6759
▁Adr	-12.6763
▁Run	-12.678
eize	-12.6792
▁shave	-12.6799
lly	-12.6828
ans	-12.6838
lightened	-12.6839
da	-12.6868
▁boasts	-12.6871
ter	-12.688
then	-12.6891
ro	-12.69
▁recogniz	-12.6902
belief	-12.6929
therwise	-12.6931
▁devi	-12.6938
reaching	-12.6943
▁mo	-12.6968
oweth	-12.6997
▁maker	-12.7
▁swi	-12.7029
formed	-12.7045
quad	-12.7049
▁believer	-12.7087
unity	-12.7114
ust	-12.7117
ran	-12.7117
rocl	-12.7148
up	-12.7152
harge	-12.7153
▁sc	-12.7154
ab	-12.7165
iety	-12.7323
▁purg	-12.7327
ged	-12.7345
ha	-12.7418
▁continues	-12.7421
hip	-12.7422
vision	-12.7422
rity	-12.7433
▁Ser	-12.7434
▁dishonoure	-12.7437
mis	-12.7454
▁ra	-12.7456
▁Timo	-12.7479
▁fou	-12.7497
ise	-12.7505
▁mov	-12.7505
ord	-12.7512
urnished	-12.7515
▁exercis	-12.7524
sea	-12.7537
▁"'	-12.7548
▁advi	-12.7561
▁roar	-12.7583
have	-12.7589
▁helpe	-12.7635
edication	-12.764
urity	-12.7654
amble	-12.7661
lem	-12.7691
ear	-12.7694
rrow	-12.7709
▁breaker	-12.7726
llowing	-12.7729
ished	-12.7731
iped	-12.7747
▁destroys	-12.7762
suits	-12.7772
orgi	-12.7793
hen	-12.7806
arly	-12.7806
▁Pat	-12.7812
▁approves	-12.7863
▁differe	-12.7874
▁participa	-12.7931
▁sol	-12.7952
do	-12.7968
iting	-12.7984
tre	-12.8001
▁approache	-12.8017
Wo	-12.8037
▁upbraid	-12.8055
▁answere	-12.8062
▁lif	-12.8089
▁pil	-12.8092
hrough	-12.8118
ved	-12.813
ast	-12.8145
▁hundreds	-12.815
▁rece	-12.8156
▁hy	-12.817
evelation	-12.819
▁bla	-12.8232
eal	-12.8268
▁unl	-12.8269
agog	-12.8317
depende	-12.8326
ths	-12.835
▁honoure	-12.8351
Ev	-12.84
▁seest	-12.8406
ds	-12.8416
▁entere	-12.8426
cence	-12.8427
Sent	-12.8446
hu	-12.8484
them	-12.8521
▁journeying	-12.853
▁Mar	-12.8536
nu	-12.8552
▁holds	-12.8562
▁persuades	-12.8569
▁ga	-12.8582
▁licen	-12.8597
ite	-12.8613
sent	-12.8624
▁Pre	-12.8676
▁wis	-12.868
ardly	-12.8687
erefore	-12.8704
▁cre	-12.8706
ews	-12.8709
ping	-12.8728
ium	-12.8775
▁visite	-12.8777
▁wast	-12.8781
▁caus	-12.8799
▁dippe	-12.881
▁Lyd	-12.8821
▁seas	-12.8841
phan	-12.8872
rant	-12.8878
nowledge	-12.8879
▁defen	-12.8903
▁upbraide	-12.8933
▁Cre	-12.8933
▁mighti	-12.8962
sail	-12.8983
tted	-12.8984
rus	-12.901
town	-12.9012
▁Rep	-12.9035
arle	-12.9037
▁withers	-12.9042
ereby	-12.9046
ak	-12.9071
refor	-12.9129
ena	-12.9141
anks	-12.9149
▁lam	-12.9168
▁Med	-12.9173
▁demonstrate	-12.9209
▁cu	-12.9244
xes	-12.9287
oldness	-12.933
▁worships	-12.9335
▁presse	-12.9351
anded	-12.9439
deeds	-12.945
▁compa	-12.947
lade	-12.9515
ben	-12.9518
▁Nah	-12.9524
rd	-12.9529
▁Co	-12.9532
▁Add	-12.9546
▁aloud	-12.9574
ren	-12.9604
▁gro	-12.9609
ome	-12.962
mites	-12.964
ched	-12.9651
▁drinke	-12.9655
fended	-12.9686
os	-12.9696
▁cor	-12.9713
aught	-12.9716
▁provi	-12.9762
rgi	-12.9796
ms	-12.9805
▁withere	-12.985
nas	-12.9872
atha	-12.9877
▁start	-12.9886
dam	-12.9923
lieth	-12.9933
null	-12.9979
hal	-12.9999
▁lov	-13.0008
ts	-13.0019
▁marr	-13.0028
▁injuri	-13.0037
ency	-13.0042
▁lodg	-13.0044
▁lad	-13.0079
run	-13.0081
▁diss	-13.0098
Silv	-13.0114
sign	-13.0124
fide	-13.0159
these	-13.0168
yst	-13.0193
drawn	-13.0238
▁purifi	-13.0243
▁susp	-13.0254
▁beho	-13.0278
▁conce	-13.028
inketh	-13.0302
▁shewe	-13.0326
▁foret	-13.0337
ES	-13.0352
▁Te	-13.0382
ists	-13.0397
▁Li	-13.0401
tch	-13.0443
▁separat	-13.0444
ize	-13.0469
▁betraye	-13.049
▁pri	-13.0493
use	-13.0498
▁yearn	-13.0503
see	-13.0504
▁impe	-13.0515
▁trembl	-13.0545
▁pr	-13.056
commend	-13.0591
▁bl	-13.0592
P	-13.0592
▁impla	-13.0593
▁pla	-13.0599
▁tr	-13.0631
tro	-13.0654
▁execut	-13.0658
▁hom	-13.0674
vice	-13.068
ongs	-13.0693
believed	-13.07
dron	-13.0739
cius	-13.0753
▁Sa	-13.0778
ep	-13.0789
tick	-13.0793
▁ring	-13.0793
add	-13.0804
ning	-13.0829
edge	-13.0846
▁mis	-13.0855
▁im	-13.0864
whom	-13.0868
low	-13.0872
▁narr	-13.0884
hears	-13.0891
la	-13.0897
hough	-13.093
rue	-13.0931
ater	-13.0937
▁Ra	-13.0957
uity	-13.0988
▁beguil	-13.0992
▁min	-13.0996
stored	-13.0996
ttle	-13.1031
▁Pha	-13.106
went	-13.1065
lit	-13.1083
diment	-13.1084
service	-13.1107
▁Las	-13.1111
arcel	-13.1115
▁appea	-13.1153
▁devo	-13.1157
mor	-13.1159
cometh	-13.1159
igh	-13.1178
disciples	-13.1197
▁laws	-13.1244
▁tempte	-13.1292
hence	-13.1313
▁Ki	-13.1351
hem	-13.1373
▁blasphemes	-13.1377
▁Fo	-13.1383
rest	-13.142
▁allegi	-13.1422
air	-13.1427
▁ru	-13.1431
▁conversi	-13.1434
shed	-13.1449
heir	-13.1533
▁vi	-13.1548
rries	-13.1625
▁Suff	-13.1651
urst	-13.1658
▁wrest	-13.1687
oul	-13.1701
▁too	-13.1705
et	-13.1727
▁Pur	-13.1738
riche	-13.1738
skins	-13.1756
▁tran	-13.176
▁sub	-13.1789
hew	-13.1803
away	-13.1837
▁strik	-13.1878
arriage	-13.1893
ys	-13.1919
▁lea	-13.1932
glory	-13.1965
Ou	-13.1988
about	-13.2004
▁inflict	-13.2011
ords	-13.2013
get	-13.2048
▁reserve	-13.2076
ends	-13.2086
co	-13.2096
▁rail	-13.2123
ept	-13.2184
▁speed	-13.2189
change	-13.22
eat	-13.221
▁cla	-13.2231
▁commande	-13.2245
ease	-13.2248
▁Y	-13.2306
Mo	-13.2356
armen	-13.2431
having	-13.2444
▁disc	-13.2462
na	-13.2479
▁Receiv	-13.2518
power	-13.2524
▁qua	-13.2567
hear	-13.2613
herewith	-13.2621
▁App	-13.2675
certain	-13.2683
alt	-13.2713
lk	-13.2714
▁havoc	-13.2731
ife	-13.2739
▁leade	-13.2809
▁Mi	-13.2819
read	-13.2845
Hur	-13.2851
▁Bart	-13.2862
▁deceiv	-13.2884
▁magnifi	-13.2892
▁sacr	-13.2912
ronged	-13.2922
▁tho	-13.2953
behold	-13.2963
▁administ	-13.297
ann	-13.2978
verse	-13.2982
place	-13.2987
reth	-13.3007
▁sil	-13.3029
▁Fa	-13.304
bb	-13.3047
Sen	-13.3048
Holy	-13.3067
▁hav	-13.3076
igur	-13.3076
gh	-13.3088
▁spec	-13.3088
chief	-13.3114
▁Dev	-13.3116
▁delaye	-13.3201
tered	-13.3205
concern	-13.3212
▁slack	-13.3222
pass	-13.3233
▁Blo	-13.3244
sia	-13.3244
▁Gr	-13.3248
circumcision	-13.3255
▁prospere	-13.3303
▁remit	-13.3381
break	-13.3403
pots	-13.3412
ai	-13.3416
▁valu	-13.3436
▁temp	-13.3438
sins	-13.3459
▁jo	-13.351
beloved	-13.351
David	-13.3512
ask	-13.3514
faithful	-13.3544
saw	-13.3555
indeed	-13.3557
ally	-13.3582
iment	-13.3586
▁La	-13.3589
fell	-13.3618
Mary	-13.362
▁roll	-13.366
min	-13.3666
▁inform	-13.3712
▁secur	-13.3735
▁Fare	-13.374
serve	-13.3766
just	-13.377
empt	-13.3786
Fe	-13.3791
▁Elis	-13.3794
cus	-13.3802
▁occur	-13.3803
j	-13.3811
struction	-13.3818
▁attendan	-13.3821
Joseph	-13.3845
repute	-13.3853
King	-13.3869
Judas	-13.3917
mind	-13.3921
rious	-13.3921
▁masquerad	-13.3928
▁carcas	-13.3942
▁tru	-13.3942
gg	-13.3947
verily	-13.3949
▁fir	-13.3962
cross	-13.3963
ax	-13.3969
Jacob	-13.3983
strong	-13.3987
ngled	-13.4
looked	-13.4001
▁treasur	-13.4006
late	-13.4007
rown	-13.4009
rayed	-13.4033
rebuke	-13.4034
▁ascende	-13.4041
mly	-13.4042
stablish	-13.4058
v	-13.4073
ration	-13.4085
condemned	-13.4092
persuaded	-13.4096
wear	-13.4098
strict	-13.4105
ev	-13.4109
▁despite	-13.4123
whoso	-13.4126
uncircumcision	-13.4127
▁imput	-13.413
washed	-13.4132
▁troubl	-13.4134
▁ri	-13.4145
▁stra	-13.4146
rning	-13.4151
▁approv	-13.4158
clothes	-13.417
Apoll	-13.4178
owing	-13.4183
other	-13.4187
sfigure	-13.4192
Fear	-13.4202
stones	-13.4204
weth	-13.4205
swear	-13.4211
Martha	-13.4216
Barabbas	-13.4217
Moreover	-13.4217
Babylon	-13.422
▁Per	-13.4221
touch	-13.4231
ale	-13.4232
workers	-13.4235
▁circum	-13.4236
common	-13.4242
Know	-13.4246
Ananias	-13.4251
Yea	-13.4252
steal	-13.426
▁purif	-13.4265
Glory	-13.4278
lived	-13.428
Believe	-13.4281
Indeed	-13.4283
Twelve	-13.4284
zeb	-13.4285
shadow	-13.4287
▁leavene	-13.4287
KING	-13.4289
pour	-13.4294
Receive	-13.4295
sumptuous	-13.4295
sincerely	-13.4298
approach	-13.4298
First	-13.4305
Salvation	-13.4306
Could	-13.4309
Far	-13.4309
Claudius	-13.4312
mixed	-13.4312
Command	-13.4312
Jupiter	-13.4313
Light	-13.4315
justice	-13.4315
spring	-13.4316
bond	-13.4317
qu	-13.4318
position	-13.4325
▁impu	-13.4326
Ask	-13.4327
builder	-13.433
Eli	-13.4331
▁raile	-13.4335
cry	-13.4338
Cret	-13.4339
reprove	-13.4343
excus	-13.4346
citizens	-13.4353
tery	-13.4354
▁wip	-13.4364
reckoned	-13.4367
far	-13.4368
snare	-13.4369
spir	-13.4373
▁requi	-13.4373
▁uncorrupt	-13.4378
breath	-13.4405
descend	-13.4409
Say	-13.4414
corruptible	-13.4414
today	-13.4424
▁Emm	-13.4424
▁glo	-13.4426
cation	-13.4431
editate	-13.4436
Five	-13.4449
▁enr	-13.445
right	-13.4451
hing	-13.4458
gird	-13.4461
▁qu	-13.4463
Prais	-13.4466
▁Rejoic	-13.4468
Ab	-13.4472
▁parc	-13.4475
▁rais	-13.4476
▁mor	-13.4493
science	-13.4494
sub	-13.4496
hort	-13.4497
▁disannul	-13.45
▁requir	-13.4501
dultery	-13.451
▁kin	-13.452
significa	-13.4521
Bu	-13.4523
▁alien	-13.4524
▁pres	-13.453
venge	-13.453
▁engra	-13.4548
▁releas	-13.4548
▁escap	-13.4552
▁New	-13.4556
▁complet	-13.4561
▁Josia	-13.4562
▁criminal	-13.4563
▁whoremonger	-13.4565
▁unaware	-13.4566
▁relative	-13.4567
rmies	-13.4567
▁limit	-13.4568
▁pre	-13.4568
rayeth	-13.457
ger	-13.4573
▁Sha	-13.4575
▁reasonabl	-13.4576
▁sandal	-13.4579
▁choos	-13.4581
▁priv	-13.4581
▁govern	-13.4581
▁honorabl	-13.4586
ssembled	-13.4588
▁smell	-13.4591
fered	-13.4593
▁Refr	-13.4593
uench	-13.4596
tell	-13.4596
▁doct	-13.4597
ribulation	-13.4599
ongues	-13.46
▁illuminate	-13.4602
▁Mor	-13.4602
lords	-13.4603
▁afflict	-13.4604
▁drop	-13.4604
trengthened	-13.4604
▁crush	-13.4604
traight	-13.4604
▁buffet	-13.4605
▁garnish	-13.4605
▁enlighten	-13.4606
▁disappoint	-13.4606
▁peaceabl	-13.4606
▁astonish	-13.4607
El	-13.4607
▁determin	-13.4607
settled	-13.4607
▁pollut	-13.4608
▁dress	-13.461
▁incl	-13.461
isdom	-13.4611
▁excel	-13.4612
educ	-13.4614
▁liberal	-13.4616
▁individual	-13.4616
▁inappropriate	-13.4616
▁Achai	-13.4616
▁express	-13.4616
▁bountiful	-13.4617
▁vehement	-13.4617
▁firstfruit	-13.4617
ackbit	-13.4617
ranches	-13.4617
▁destructi	-13.4618
▁prev	-13.4618
▁August	-13.4618
▁Comfort	-13.4618
▁rev	-13.4618
fessing	-13.4618
▁famil	-13.4619
urmur	-13.4619
▁grumble	-13.4619
eaping	-13.4619
▁malicious	-13.462
espise	-13.462
▁decepti	-13.462
ndeavour	-13.462
istribut	-13.462
ncouragement	-13.462
xercise	-13.462
rophecy	-13.4621
onduct	-13.4621
oubtless	-13.4621
eglect	-13.4621
nvying	-13.4621
▁glutton	-13.4621
▁equ	-13.4621
lorify	-13.4621
ersecutions	-13.4621
ircumcised	-13.4621
▁humiliat	-13.4621
ificat	-13.4621
▁busybod	-13.4621
udder	-13.4621
▁etern	-13.4621
ecompense	-13.4621
▁disturb	-13.4622
Child	-13.4622
crimina	-13.4622
acinth	-13.4622
ticipate	-13.4622
▁circ	-13.4622
▁pestilen	-13.4622
ncirc	-13.4622
uirin	-13.4622
xtort	-13.4622
▁delica	-13.4622
phras	-13.4622
▁volu	-13.4622
rophet	-13.4622
nderstand	-13.4622
thalim	-13.4622
riah	-13.4622
▁obse	-13.4622
ccup	-13.4622
▁Phoe	-13.4622
voke	-13.4623
minate	-13.4623
aviour	-13.4623
▁Luc	-13.4623
xamine	-13.4623
scour	-13.4623
aunch	-13.4623
wilder	-13.4623
portunity	-13.4623
▁subtil	-13.4623
ishop	-13.4623
▁rebell	-13.4623
pital	-13.4623
forehand	-13.4623
empl	-13.4623
eekness	-13.4624
▁factio	-13.4624
ollect	-13.4624
quil	-13.4624
trine	-13.4624
▁slanderer	-13.4625
▁illu	-13.4625
rator	-13.4625
▁deput	-13.4626
iction	-13.4627
erceive	-13.4627
▁magi	-13.4627
ulfil	-13.4628
unic	-13.4628
ragement	-13.4628
oenicia	-13.4628
olence	-13.4629
cap	-13.463
avior	-13.463
steem	-13.463
▁Nep	-13.4631
▁advers	-13.4631
jud	-13.4631
verseer	-13.4631
▁maj	-13.4632
feigned	-13.4633
▁Beside	-13.4633
ulting	-13.4634
immed	-13.4634
▁excelle	-13.4634
xact	-13.4634
▁ambassa	-13.4634
▁succ	-13.4634
vocation	-13.4634
eight	-13.4636
▁compani	-13.4637
▁habit	-13.4639
▁effe	-13.4641
tenance	-13.4642
avor	-13.4643
ixt	-13.4643
iarchs	-13.4645
▁fru	-13.4645
mmon	-13.4647
uenched	-13.4647
mpted	-13.4648
abour	-13.4648
semble	-13.4648
▁damna	-13.4649
▁conve	-13.465
▁amaz	-13.465
repentan	-13.4651
▁Joan	-13.4651
▁hung	-13.4654
▁luxur	-13.4655
emons	-13.4656
▁Jeremia	-13.4658
crease	-13.4658
cies	-13.4659
▁Arch	-13.4659
▁Sina	-13.466
▁tarrie	-13.466
epta	-13.4661
sti	-13.4661
▁thorn	-13.4662
llegi	-13.4665
lec	-13.4666
▁super	-13.4667
msel	-13.4668
arily	-13.4669
ould	-13.4669
▁res	-13.4669
oldiers	-13.4671
▁hencefor	-13.4673
gence	-13.4673
uler	-13.4677
▁Part	-13.4679
egg	-13.4683
▁severe	-13.4686
ndles	-13.4687
▁privil	-13.4688
gently	-13.4694
▁mite	-13.4695
▁bri	-13.4695
nbelieving	-13.4697
▁genero	-13.4698
▁esc	-13.4704
ntage	-13.4705
▁helm	-13.471
istering	-13.4711
▁infan	-13.4717
wardly	-13.4719
▁imagin	-13.4722
ncle	-13.4728
rans	-13.4731
withal	-13.4735
tility	-13.4738
verity	-13.474
wels	-13.4742
▁quicken	-13.4752
▁bruise	-13.4766
urp	-13.4776
rice	-13.4777
shore	-13.48
▁Abr	-13.4808
tual	-13.481
▁highway	-13.4811
inions	-13.482
orted	-13.482
rities	-13.4821
azar	-13.4823
▁cru	-13.4825
phath	-13.4827
▁surp	-13.483
rias	-13.4838
▁Over	-13.484
radi	-13.484
▁surpasse	-13.4842
▁Never	-13.4842
ption	-13.4849
ciate	-13.485
▁flat	-13.4855
▁succoure	-13.4855
ority	-13.4857
crow	-13.4867
ueen	-13.4871
mortality	-13.4883
ants	-13.4893
ripe	-13.4894
▁More	-13.49
ncircumcision	-13.4905
▁torch	-13.4919
cher	-13.4922
nleavened	-13.4922
ification	-13.4925
▁perf	-13.4927
▁vanit	-13.4933
▁stan	-13.4934
▁par	-13.4941
▁insiste	-13.4944
▁hostil	-13.4948
uous	-13.495
raitor	-13.495
etings	-13.4952
JE	-13.4958
groom	-13.4961
dding	-13.4963
▁assure	-13.4965
▁glorifie	-13.4976
▁lade	-13.4983
▁mist	-13.5007
yard	-13.5023
shipping	-13.5025
▁Pe	-13.5028
nev	-13.5034
ndmaid	-13.5037
sting	-13.5039
ips	-13.5044
▁Sem	-13.5059
ist	-13.508
lip	-13.5085
tics	-13.5086
itherto	-13.5108
mbles	-13.5113
▁herb	-13.512
ister	-13.5124
syn	-13.5127
oes	-13.5129
onfirm	-13.5131
jo	-13.5135
▁grumbl	-13.5149
ited	-13.5155
ightnings	-13.5163
sands	-13.5164
au	-13.5166
dria	-13.5196
stock	-13.5197
She	-13.5199
ham	-13.5212
▁Ever	-13.5217
arken	-13.5218
rned	-13.522
▁offic	-13.5238
elect	-13.5239
▁fain	-13.5242
▁Serv	-13.5261
ssion	-13.5267
bit	-13.5269
ioner	-13.5275
arden	-13.5294
▁whiten	-13.53
▁sinn	-13.53
assed	-13.5303
cut	-13.5315
dul	-13.5323
▁vil	-13.5334
laud	-13.5355
fts	-13.5362
▁Sab	-13.5364
Al	-13.537
▁expe	-13.5387
▁confus	-13.5396
▁coll	-13.5404
inence	-13.5419
nging	-13.5423
eeded	-13.5437
things	-13.5451
▁nois	-13.5451
esterday	-13.5462
▁bras	-13.5465
lay	-13.549
ostle	-13.5494
inn	-13.5502
ipation	-13.5551
leased	-13.5556
lift	-13.5625
▁sk	-13.5635
essing	-13.5655
ngels	-13.566
▁eviden	-13.5668
▁kindle	-13.5678
press	-13.5678
tud	-13.5682
enas	-13.5691
Has	-13.5699
erved	-13.5715
esus	-13.5724
▁Far	-13.5751
said	-13.5783
epart	-13.5784
tru	-13.582
▁alo	-13.5834
▁generat	-13.5836
bba	-13.5853
deemed	-13.5888
ads	-13.5894
willing	-13.5895
she	-13.5922
▁rud	-13.5945
pi	-13.595
▁cum	-13.6016
▁infl	-13.6039
tained	-13.6039
sp	-13.6062
ury	-13.6084
▁conf	-13.6093
abit	-13.611
▁mar	-13.6111
▁gras	-13.6152
stand	-13.6157
▁grou	-13.6187
lackness	-13.6229
mid	-13.6235
usal	-13.6246
name	-13.6263
eturn	-13.6275
▁har	-13.6306
▁gl	-13.6309
rink	-13.6313
▁Brother	-13.632
scen	-13.6357
reak	-13.6361
ccount	-13.6361
▁matur	-13.6382
▁hur	-13.6428
▁oppos	-13.6432
▁humbl	-13.6444
rah	-13.6455
ifying	-13.6476
ges	-13.649
tra	-13.6521
du	-13.6552
▁lan	-13.659
▁unreason	-13.6613
orting	-13.6628
▁magnifie	-13.6629
cel	-13.6644
▁sacri	-13.6647
ary	-13.6711
▁pred	-13.6712
▁expl	-13.6718
bel	-13.6723
▁carri	-13.6754
ating	-13.6779
▁sixt	-13.6791
wait	-13.6887
tions	-13.6887
fence	-13.6941
cing	-13.6953
▁shoe	-13.7009
▁straite	-13.7015
▁belonge	-13.7036
aus	-13.7134
rein	-13.7195
▁eff	-13.7218
Sta	-13.7246
ations	-13.7254
vel	-13.7302
tern	-13.7334
nake	-13.7341
▁compari	-13.7372
cord	-13.7421
ships	-13.7516
lood	-13.7534
▁k	-13.7536
unish	-13.7542
ders	-13.7555
arts	-13.759
ect	-13.7612
▁oft	-13.7643
▁bra	-13.7644
dy	-13.7645
minis	-13.7654
high	-13.7688
ah	-13.7818
abas	-13.7845
▁sl	-13.7864
ending	-13.8042
sity	-13.8077
reely	-13.8103
ita	-13.8115
idden	-13.8134
ages	-13.8155
till	-13.8223
orking	-13.8237
▁awa	-13.8248
holds	-13.825
rns	-13.8274
liv	-13.8292
rvel	-13.8303
ickle	-13.8318
ows	-13.8335
▁Cl	-13.8338
▁sens	-13.838
▁trie	-13.839
▁heavi	-13.8455
were	-13.8489
hastening	-13.8523
now	-13.8627
ddi	-13.8667
ervice	-13.8739
iti	-13.8783
oyed	-13.8799
hither	-13.8833
refore	-13.8834
eedily	-13.8841
ou	-13.8847
▁ap	-13.8861
restle	-13.8863
yed	-13.8877
▁thre	-13.8895
Aen	-13.8979
lowly	-13.9034
▁Wi	-13.905
ars	-13.9053
imself	-13.9066
▁Sen	-13.9086
itat	-13.9107
ctive	-13.9117
▁salv	-13.9124
▁Ly	-13.9189
vernor	-13.9192
▁whereo	-13.9204
earned	-13.922
▁Pr	-13.9225
eparation	-13.9316
esting	-13.9443
ash	-13.9508
gi	-13.9537
lead	-13.9546
▁Kn	-13.9573
gle	-13.9586
Pa	-13.9591
oma	-13.9619
fect	-13.9631
▁forso	-13.9634
fall	-13.9643
net	-13.9648
▁pai	-13.9652
mely	-13.9675
ealed	-13.9718
por	-13.9751
▁ne	-13.9803
sha	-13.9866
seat	-13.9906
rrection	-13.9916
ighed	-13.9945
nsom	-13.9959
urt	-14.0017
▁absen	-14.0033
ather	-14.0058
▁op	-14.0093
▁alleg	-14.0121
▁Betha	-14.0132
impos	-14.0178
reek	-14.0206
commende	-14.025
▁lightene	-14.0258
ert	-14.0305
ner	-14.0323
▁spen	-14.0326
▁lit	-14.0404
▁provin	-14.0407
▁mus	-14.0475
dly	-14.0527
ee	-14.0562
eous	-14.0651
nly	-14.0659
xe	-14.0672
ph	-14.0673
from	-14.0675
▁barr	-14.0699
▁ta	-14.0728
riest	-14.0792
owest	-14.0885
enicia	-14.0897
▁groane	-14.0956
▁ser	-14.0994
▁pal	-14.1007
ithdraw	-14.1008
fit	-14.1044
wh	-14.1059
after	-14.1074
asted	-14.1143
rightly	-14.1189
▁ill	-14.1205
lmost	-14.1257
eats	-14.1282
▁looke	-14.1356
ret	-14.1363
▁scattere	-14.1377
▁parti	-14.14
hat	-14.1459
▁gr	-14.1534
igned	-14.154
▁elde	-14.1668
aketh	-14.1728
ya	-14.1738
den	-14.1821
neck	-14.1853
aped	-14.1918
cleanness	-14.1972
lus	-14.1986
pense	-14.2019
▁commo	-14.2118
▁De	-14.2125
▁reg	-14.2146
eling	-14.2237
▁builde	-14.2244
axed	-14.2258
De	-14.2297
fat	-14.2328
this	-14.241
▁commende	-14.2501
omorrow	-14.2559
planted	-14.2575
cens	-14.2679
▁delu	-14.2763
▁sho	-14.2794
ft	-14.285
gnat	-14.3021
▁Tw	-14.3041
ears	-14.3058
aside	-14.309
sdeeds	-14.3204
▁ful	-14.3216
Whe	-14.3238
oy	-14.3247
hold	-14.3413
tables	-14.346
▁acce	-14.3487
rried	-14.3592
mes	-14.36
Sav	-14.3661
cify	-14.3733
▁stro	-14.3737
▁foresa	-14.3771
▁sav	-14.3838
eads	-14.3888
aying	-14.408
urning	-14.4106
tly	-14.4115
your	-14.4127
▁Po	-14.4293
ysi	-14.4305
▁suffere	-14.4439
ort	-14.4439
▁worshippe	-14.4443
idn	-14.4494
ins	-14.4517
ooted	-14.4573
apt	-14.4603
gon	-14.4637
ni	-14.4808
▁Sav	-14.4846
orse	-14.4906
arming	-14.4924
▁hol	-14.4962
▁Bara	-14.5022
▁St	-14.5025
Were	-14.5026
▁pra	-14.5067
uck	-14.5112
Ri	-14.5122
inning	-14.5201
pointed	-14.5209
oven	-14.5345
pro	-14.5399
▁pursu	-14.5414
▁Cyreni	-14.5652
der	-14.5749
Christ	-14.5902
meth	-14.5906
ama	-14.5933
uth	-14.6013
otte	-14.6044
also	-14.6099
▁greete	-14.6173
▁tha	-14.6184
stablished	-14.6294
itness	-14.6312
▁val	-14.6339
ross	-14.635
rch	-14.6363
fe	-14.6441
▁Fr	-14.6503
▁del	-14.6554
▁inte	-14.6657
ming	-14.6737
dia	-14.6786
▁aut	-14.6895
▁transgresse	-14.6943
iest	-14.6952
ens	-14.7036
tter	-14.7115
nor	-14.712
ledge	-14.7141
hum	-14.7197
han	-14.726
▁accepte	-14.7357
oved	-14.7396
depend	-14.7536
▁rea	-14.7545
older	-14.7568
tism	-14.7596
ereafter	-14.76
L	-14.7646
▁ve	-14.7677
ginning	-14.7735
▁Bo	-14.7743
win	-14.7788
lect	-14.7815
ntly	-14.7854
dges	-14.7864
▁witnesse	-14.7888
rise	-14.7891
eck	-14.81
tti	-14.8218
▁handl	-14.8228
▁forme	-14.8274
lot	-14.8306
q	-14.8311
z	-14.8312
J	-14.8313
lie	-14.8313
